1111111010010111
110010
100111011
1110011
1111111111010011
1111111100010001
1111111000000000
1111110110101001
1111110111010100
1111111010110010
1111111001101001
1111110111110111
1111111000100010
10111000
11000
1111111100011100
101001
100011110
1111111101111100
1111111101010001
1111111001111010
1111111010110110
1111111011101011
1111111011001111
1111111010101110
1111111101001111
1111111100010111
1111111100101101
1111111100100110
1111111011001010
1111111010110001
1111111000001000
1111111100011011
1011000
1111111110111110
1111111110110111
11010001
1111111101110111
1111110010100000
1111111001001100
1111111011010101
1111110110011101
1111110110110100
1111110111110101
1111111101100101
111000010
1001101000
10110101
11011
10001011
10101001
1111111110011011
1111111110101000
101110011
111001001
110011101
110100
1111111101110111
1111111100101110
1111111011100111
1111110100111101
1111110111000111
1111111000000000
1111110100101001
1111111011100001
1111111111001011
1010000
10011100
1111111111101100
10111
1111110100111011
1111110101110101
101011
1111111011110111
1111111000011101
1111110100111001
1111110100101100
1110101
101010111
110100100
11000010
1010110
1111111110101110
11001100
1010100
1111110110101011
1111111100010111
1111111011111011
1111111101000101
101010111
100110
1111111000110101
1111111010010100
1111111100000000
1111111101001011
1111111110110101
1111111100011111
1111111101100110
1111111001111101
1111110011011000
1111110100101111
1111111111110001
1111110101010010
1111111001101011
1111111001011111
1111110101110000
1111111001111011
1111110011110010
1111110100101111
1111111100010011
1111111110000111
1111110100101011
1111101110101111
10010111
1110101010
1010111110
1001111001
11000110
10011100
1111111010100110
1111111011010101
1111111011001000
1111111011100101
1111111101000110
1111110101110001
1111111011010000
1111111110111010
1111111111000101
1111110101010010
1111110100001101
1111110011111110
1111101100101111
1111101000000111
1111110100000111
1111110001110000
1100000
10111000
1111110101101001
1111110101100000
1111110110001100
1111111000011000
10101001
10101011
101100111
110011000
10011110000
100000000010
11011011110
10001101111
1110101111
1101111001
10000111
1111111111010011
1111111111100010
1111111001010001
1111111011100011
1111111001010000
1111110110111101
1111111101001110
1111111100110000
1111111000110001
1111111000001001
1111111100011111
1111101100111011
1111101111000010
1111110010111111
1111110000110001
1111111000111000
1111101110100010
1111110110110010
1111111011100011
111010111
1111111111001001
110101010
1111000110
10101111101
10010111111
10111101110
1001110010
1001110
1000000101
1001100011
1101101110
1011
1111111100010101
101001100
1010111
1111111001000010
1111110001001011
1111111000111111
1111111111000110
1111111101100010
1111111001010111
1111111101101111
1111111110111110
1111110111110001
1111110010111010
1111101110111111
1111110110001111
1111111011011111
1111111011001001
1111110111010010
1111111001000010
1111111011101100
1101111000
10110001111
11100010010
1110011100
111010101
101111001
10011010110
110000111
1101111000
10100100101
1100001011
1010010101
11100100
1111110111110110
1111110100110001
1111110011011110
1111101101100101
1111111000000101
1111111111110111
1111111001001110
1111111101110110
1111111111110101
1111110110011111
1111111010111000
1111101100000001
1111110000111101
1111111001101000
1110001
1111111000011111
1111101000110000
1111111001011011
1111111011101110
1111110100000001
1111100110111110
11101010
1001001110
1010100110
1110000000
10100010001
1010011111
11011010100
10111111000
10000001111
110110100
1111111111011011
11110
1111111111000101
1111110100011101
1111101000100001
1111110010101101
1111111101000001
1111110111100110
100010000
1111111110001100
1111111010100010
1111111101111010
1111110011110010
1111110101001101
1111110101111111
1111111010110110
1111111110111101
111000
101000001
1101001010
1111111100100001
1111111111100101
1100101000
10011000101
100111011
11101001
1011100011
100101000
10111110111
1110111101
1010010101
1111101001
1001011100
1101111011
111001100
1111110011100111
1111111000100000
1111111100010000
1111111001011101
1111111000110011
1111111010001001
10111101
10001010
1100101
10011111
1111111010000111
1111111101100101
1111110101000000
101000011
1000101100
1111110011100100
1111110000100110
11000000000
1111111011
10010010100
11110010
11110011
1111111011100001
10000011000
1111011110
10101001101
1001111010
11001000111
1001001100
101100000
1001110
1111110010010000
1111110101111111
1111110111110010
1110
1111111110000001
1111111000011011
1111111001001000
1000110
1000110111
101011101
111110111
1011100010
1001011001
1111101110110110
1111110101101101
1111110010101111
1111110010010011
1111111001101101
1010010100
1100010001
10111101011
10110100
1111111110110110
111001000
10001000
1101010010
10110010010
100110011
1010000
111011100
1000111100
1011000000
110101111
1110010101
1111111101010100
10010001
1111111101011110
1111110100011110
1111111111010010
1111111111110010
1001000110
1000001101
101111111
1111111101001101
1111111001101100
1111111111100111
1111110000000010
10011011
100001011
1111110001101000
1111110010101110
1100011
1111101001001010
1111111010011010
1111111011110101
1111111001001010
111000100
10110100
11110001110
100101001110
110001000
101110001
11001001000
10001000100
10000000110
10101101110
11000101
1111111011111110
1111110001011110
1111101110100100
1111111110101101
11001011
1001011100
10000100
100110011
1111111111111000
1111111011011100
1111110100111000
1111111110011110
1111111110000000
1111101110100011
1111110000000000
1111110001010110
100110111
1111110110111011
1111110110010110
1111100110111010
1111101001101111
1111111011101000
1111110110111111
1110110110
11100111110
10101100000
11110111011
1001101010
110111001
1111110110101010
10010000
1111111111110101
1111110100000111
1111111000010010
1111110010000101
100000001
1011000101
1101110010
100010111
11001010
1011010011
110001010
1111111101101100
1110011
1111110001010010
1111111000011100
1111101001101101
1111011100111011
1111100011110111
1111110110001111
11000000
1111101101001011
1111101101110101
10001110
11110110
11011011
1101001011
10101100110
11001000110
1111111110010101
100011010
0
1111111000010010
1111111000000001
1111110110010100
1111111101101000
1111111000111001
1001001
1001111000
1110110000
1111
1101000001
1111010100
100000111
1111111011010001
1111110001011101
1111101110011100
1111110100111101
1111101000111001
1111101101110111
1111100011110000
1111111111110001
1100100011
11111010100
1111111110100000
1111110101001100
110010
1100011001
100010010011
1001000000
11101100
1111111010000100
1110010
11111010
1111111000000110
1111111010110010
1111110011111001
1111110011110001
1111111010110011
100001100
10011111
1000001110
11010
1010111111
110010100
10010110
1111111010110110
1111111010110001
11000000
1111111001010010
1111101010010111
1111111000110010
1111110101110101
1111111000110011
1111101101110101
10111011110
1111111011011111
1111101001101001
1111110101100110
10011101100
11101000000
10001111010
1011000001
1111001001
1110110110
100000010
1010000
110000
1111110111111001
1111110011111110
1111111101110110
100100
1110100
111110001
11101
1010101010
1001011100
1100110
1111111110101000
1111110101011011
1111101100101010
1111110110011100
1111111101000110
10000100000
1111101111000101
1111101100100001
1111111010101011
11001111
1111110011111001
1111111001111101
1111111000100100
11101010
1101010110
11000110110
11000000011
1010101110
100001
11010
1111111000111000
100101110
1111110101110100
1111111010001000
1111111101101110
11011111
100111001
101001001
1111110110011001
111100001
1111110010000000
1111111100110110
1111111000111011
1111110101000010
1111111001001110
1111111100110110
1111110010111011
1111110000100011
1111100101000001
1111111001010011
10110100
1111110001001101
1111110110001010
1110111001
10111100110
1000110100
11011010
10001110110
1110101011
1111111001010000
1111111011001100
1111110101000000
1111101111110011
100101001
1111111001001111
1111111110101010
1111111100100110
110010000
101010001
10100001
1111110000001111
1111110110101101
1111111010000001
1111111001011110
1111110101011111
100101011
1111101111001111
1110100
1111101101000100
1111011101001100
1111110111011001
1111111101001011
100110111
1111111101111101
10000110011
1001001001
1111111011101011
1010100011
1111111000100100
1100010
1101101001
1111111000100000
1111111011110000
1111001
101101
1001100111
1000100011
10011010
1111111010110000
1010000
11100110
111110111
1111111000011001
1111110111000100
101101
10000110110
1111111110001110
10000111001
1000010100
100011111
1111110000101110
1111110110101101
10011100110
11010011000
101101000
100001000
10110101000
111111011
1111111100101100
10010010111
1001010111
11111100001
11110010111
1100010010
1111110101010110
1111111101011100
1111111010110001
10101000
10110100
11010101
1111111101111000
10010100
1111011
1000001100
1111111110100010
100011001
110001011
1110001001
1000101111
11001011000
11001100000
1111110110100000
1111110100110010
10000010100
1111110111000000
10011100
1100100100
1001101011
10000111101
10001011111
1000011000
11000100101
1010100000
1101010
100000010
11010
1111110100100010
1111101110010100
1111111011010111
100000
110000010
1000000100
1010100
1011000
101001
11001001
11000110
1011110
1111110100110100
1001001011
10000100100
10100101
1100001000
1111111101000001
101000
1101100001
1111111001101000
11010110111
100100101010
10110101101
11101111
1111011010
1111111010010110
101000010
1110000101
1011111111
10111111001
1111110100101011
1111110101011001
1111101110101111
1111111011101010
1111111111001101
1111111100110101
100010111
1111111101011010
110100100
1111111111010001
1111111100100101
1111111011111111
1111111101101100
11011111
1000011110
1011100011
1101001
1111101110101110
1101110001
1110
1111110010110001
1000000110
1111011110
1010001001
1111000110
10100101110
10110010101
10000111111
111000
1000001000
1110011001
11011110000
1111111000111111
1111110111001101
1111110111101000
11000110
1111110100100001
1111111001101011
10000111
1111110101101000
10011000
100110
1111111011101010
1111111110011110
1111111010101111
1111111010100111
1111111011000100
1111111111110110
1111110111111001
1111101111110110
111011100
1111111101011101
1111111001001010
1111110000001001
10100110000
10111101000
1111010101
11111100
1110001010
1111111111100110
1111111111000110
11000101000
10000101000
10011101000
101110011
1111110101010101
1111111100111010
101110011
1111110111111111
1111111010100111
110
1111110100011110
1111111011110101
1111111110101001
1111111111110101
1101010
1111111010010001
1111110110101010
10100
1111110111011010
1111110010000010
1111111110001111
1000010011
1111111011001100
1111111001110000
1111101001010100
10001101001
10001001110
1111111111100110
11111001
10000010101
1111111011000100
11001111010
100001000110
10010111100
11001110011
1001001110
1111101110110001
1111110000001011
1111111100111010
1111111011110111
1111111101110001
11010
1111110010111101
1111110001001010
1111110110101010
1111111010111100
1101011
1111111000001010
1111110111011001
110100011
1111101100101111
1111100011000100
110001100
11001111
1001010001
1111100011100101
1111100100101011
1010000001
1111111100110110
11000001
11011101
1111111011101010
101011001
1101100101
11111011100
101001110011
100001001111
110111101
1111101101001000
1111110101110001
10001101
1111111111010100
1100101
1111111100100101
1111110100000010
1111110011000001
1111110110010000
1111101111001111
1111110001111110
1111111000101101
1111111101000001
1011110001
10010110
1111111010011111
101010001
1111111111111111
1111111101010100
1111101110001111
1111011101101110
1111110011011010
100001011
1111111010001111
1111111001100000
1111111010010000
100011100
10001011111
101100110001
101010100101
10000110101
1010010010
1111110101111101
1111110001000000
1111111010011011
1111111100010000
111100010
1111111111101111
1111110101000000
1111111000000111
1111111010010100
1111110111000010
1111110010101110
1111110111011000
1000100
1111111000100010
1001000
1111111101011010
10001100
1111110011110000
1111110100011101
1111101011111110
1111111000010110
1011101011
11101000
100101
1111110110010010
11101101
10011000001
10011101000
11111000011
11001100001
10010000011
10000000011
1111111111110110
1111111011110101
101100100
111101
1000001
1111111011100000
1111111000100110
1111111001100110
1111111001011010
1111111100110101
1111111010101000
1111111001011100
1101110
101101101
1111110101010100
1111110011111010
1111110111010011
10010001
1100010011
1111110001001100
1111100011110110
1111110110110111
1111111010000011
1111101110101101
1111111011101110
1010010001
1001000100
1100111001
11111110000
11110110000
10110010110
1001000010
1010110001
1100101110
10110001
101010
1111111000001011
1111111010101100
1111111110101101
1111110101100000
1111111000000010
1111111001010011
1111111100101010
1111111001101111
1111111100010101
100101110
11010101
1001000010
111101010
1111111101101110
1111111100100101
1111111110100100
1111110010101001
1111100001100111
1111101110011011
1111110111010000
1010111010
110010110
110111010
10101001001
10100010101
10110011011
1110011100
100010000
11111110
1111111100100101
1111111100011010
1111111111011111
1111111011010001
1111111110001000
1001
1111110111000101
1111110111111100
1111111000011011
1111111010001100
1111111001010010
1111111000101011
1111111010001101
1111111011001111
1111111011000011
1111111010101010
1111110111101100
1111110111000000
1111110100100100
1111110010101011
1111110001011010
1111110111110001
1111110011001101
1111110010100001
1111110111000111
1111111110111010
1110001
101010010
1001100111
100010011
1111111001001001
1111110101011011
1111111010001100
1111110111111110
1111111110011011
1111111100110111
1111111100111100
1111111001110111
1111110101001000
1111110101101110
1111110111011000
1111111010000001
1111111000110001
1111111011101000
1111111001000001
1111111000100011
1111111010100100
1111111011100001
1111111010010011
1111111111101111
1111111011000000
1111110100010000
1111110111010010
1111110101010111
1111110001011000
1111110110100101
1111110110011001
1111110111110101
1111111101100010
1111111011001101
1111111001010000
1111110100111111
1111110110001101
1111110011110101
1111111010011111
1111111101110110
1111111101100001
1111111011101001
1111111000101001
1111111000111010
