1111111111110001
10011101
101000010
110110
110000000
110010110
11001111
1111111111111000
1100101
10001011
1111111101110000
11101110
10100000
1111111101001110
1111111011011100
1111111001010011
1111111001010010
1111111011001000
1111111101100001
1111111100111010
1111111111000010
1111111111010101
1111111110001111
1111111111101001
110111
101110101
100010011
100100111
101011101
10010000
1000111
1010110
1111111011111000
1111111111010010
1111111110111001
11000101
100001111
101111
1111111101101011
1111111110100100
1111111100101101
1111111111111001
1111111010001010
101111100
100111100
1111111110001011
1111111010000010
1111101111101011
1111110101110101
1111111000100000
111000
1111111101000101
1111110100100100
1111111110101010
1111001
11000000
100000111
11000001
11110000
1111100
110100
10000001
110000010
101001000
1111111110111011
101001110
10011101
1001001
10101110
1111101
1111111110010001
101101
1100110
1111111011100011
100011000
111101000
11000
1111110110011111
1111110001110101
1111100111101001
1111110110011111
1111111010010111
1111110110010101
1111110111011101
1111111001010111
1111111100101101
1100100100
1111111110001101
1111110110001010
1111111101010110
10001110
101001000
100100101
11011000
10101001
110011010
1110001
1100101
101101
10001111
1111111111010110
1111111101010111
11011010
1110111101
1111110111100011
1111111100001010
1000000000
1111111110010000
1111110111100011
1111110110101010
1111111111110011
1111111010101001
1111111011101001
1111111011111000
1111111000111010
1111110111111100
1111111101010001
1111111100100101
10100100
110101001
1111111100110111
10
10111
101010111
110010111
1100001
100
1111111101111100
1111111100010000
1111111110001111
11110000
1000100110
10101001
1111111011111010
1101001010
10000000001
100101
1101110
1111111111110110
1111111011011100
1111101000110010
1111110011011110
1111110011010110
1111111100101110
1111101101101111
1111110010100101
1111111101110010
11100011
1111110111110111
1111110101100100
1100001
1011110110
1111110111101011
1111
1111111011100111
1111111110100110
11011
11001100
1001000
1111111011011001
11011
1101111
1000101000
101010111
1001101010
10000000000
1010111000
10001001101
1111110011011110
1111111011011011
1000101111
1111110111110000
10110011
1111101110110010
1111110111011101
10011110011
1111100110100001
1111110010111100
1111110001010000
1111110100011110
1111111010100000
1111111000110111
111111
1111111011010101
1111111011001001
10110010
1010000
1111111000000000
1111111010000011
110000110
11110111
1111110
1111111111010011
100110100
1111111001001101
1111111100001011
100000
1111111001010101
11001010
1111111001011000
1111101111110000
1011111
1111110000101110
1100111010
101010011
1111111110110100
10001100
10010001111
1111111101101010
1111110010110100
1111100011001110
1111110110010001
1001101
1111111001000101
1111111011000100
1111110101010110
1111111110100101
1111111111111010
1111111011001010
1111111100000110
1111111011111001
1111111111110011
100
10001100
11101100
1000100011
1111111101101101
1111101010010010
1111111100111100
10111100
1111110100110001
100000111
1110000
100001
1100001
1111111111000011
1111110110100010
1111111001011110
1111111010101010
1111101110101110
1111111001101001
1111111111011100
1111110100101101
1111100010111110
1111110111101010
1111110100110001
1111110001100101
10011001
1111111101110000
1111111100001101
1111110110110100
1111111001110110
100111001
10101100
1111000
100110010
1010111001
1100000010
1001111
1111111010011000
101101110
1111111010110011
1111110101101010
101001110
1000111011
1111110000
1000000
1111111100101011
1111110000011101
1111110001110011
1111101111100000
1111101011000000
1111110110000001
1110011100
1111111010011000
1111101000010010
1111111011010101
1111111011010011
1111101110011010
1111111000110010
1111100011001011
1111111111000110
1111110010001101
1111110001011011
11100111
1101010010
1111111010011010
1111111100001010
110010101
10100010
1111111110100100
100111001
1111111100100000
1111111000011100
1111111000000010
1111110111100101
1010111111
110001100
1111110100001100
1101011001
10111100
1111110010000101
10111010
1111101101011111
1111100001011000
100000001
1111110100011001
1111100100100101
1111110101110111
1111101100100100
1111100100100111
1111011110101100
1111011011000110
1111110101100000
1111110010100100
1111101110001010
1111110100101110
1111111101010010
1111111110101000
111010011
1111111100111000
1111111001110001
1111111111100110
1111111100100000
1111110010011001
111100111
100100111
1111110111110000
1010110010
1111110000100101
1011001001
101001
1011100
1010000101
1111110011001111
1111100100101010
1111110110001011
1011011
1111110011001001
1111101000110010
1101111011
1111101010111110
1111011100010111
1111100111111011
1111110101011101
1111101111101100
1111101010000101
1111111010110001
1111110111000111
1111101101110010
1111110101101110
111011110
1011110
1111111100101011
1001010000
1111111110111000
1111110110000011
1000011000
101000111
1111110000000000
1111110111100000
1111110111000101
100000111
1111111001001011
1111100100110010
1111111100100101
1111110000001011
1111101001101111
1111111100000100
1111110011100101
1111110110101011
1111111100011000
1111011010110000
1111100010101001
1111001100100111
1111011101011001
1111110010000011
1111100000100111
1111100100111101
1111110110001010
1111101100110010
1111101011110100
1111111011010000
11110111
111111101
1111111101110000
1101010111
1101011000
10110100
1111111100111010
1111111000010101
101
101100100
1111110000010111
1111111011000101
1111111011110000
1111110010100111
1111110110111000
1111110101011111
1000000000
1111101010001111
1111101101001101
1111010101010001
1110111111111110
1111001101001101
1111011000011000
1111101010000111
1111011001111000
1111101111011001
1111110010111000
1111111110111000
1111101101110001
1111110011100110
1111101110110011
1111111111010000
100101000
1011000010
1111111101110111
1111111111110111
1001110110
100001001
1111110110100111
1111110101001001
1111111110000101
110011
1111100111100100
1111111111110000
1111111101100011
1111101100010001
1111111110010010
1111111010010100
1111100110101011
1111100011101110
1111011111000100
1111011001010111
1111110001110101
1111111001110100
1111110100000011
1111111001100100
1101011
1111111111101010
10111100
10000011010
1111110110011001
1111111000001100
1111110111000010
1111110101010000
1111111111011100
10001110001
1111111011011110
1111101011111011
1111101111100000
1111011111110110
1111110001000001
110001111
1111110001001011
1111111000101101
1111101110101100
1111110101100001
111000111
1111111111100010
1111110010000001
1111110011001001
1111100101110001
1111101110100110
1111111110011111
1111111110010011
1100010100
11001100111
100100111101
10110101101
1000010001
10100000011
11000110
11001011011
10011011010
1100100
1111111110001011
1111110001110010
1111111101011000
1101111010
1111111110000110
1111110001000001
1111101101101100
1111101011111001
1111111001000100
1111111101100001
1111110000101100
1111110010110110
1111110101100010
1111111001111011
1111110100111001
1111110101001100
1111110000111110
111
1111110001011001
1000111
11001011101
11001000111
100011111100
111100111
1011011010
110000101
10111001111
10011110001
11100101
1100101101
11111011100
10000001101
111010011
1111111100111110
100010000
110010001
1111110110100000
1111110110101111
1111101101011110
1111110001100000
1111111101011000
1111110011100000
1111110010101111
1111110100010010
1111110111011110
1111110110111010
1111101110101101
1111101011000100
1111110001011101
1111110110100100
1111110101110100
10000100000
1100011000
1000111
10101010100
100101010100
11011100110
101001011111
1000010111000
101011010110
10110110100
10001101101
101000111111
11000111010
101101011
100010011
101011100
11000101
1111111110011110
1111111011011100
1111110110011010
1111110111101111
1111111001001100
10111000
1111101010000110
1111101111111100
1111100111111101
1111111000110101
1011001
1111111101101011
1111110010000100
1111111011010001
1010010001
10000010
1011011101
1101100010
100101001011
110010001000
101111010010
101000111100
11001101000
100111101100
110101101000
11010111110
10111111000
10011100010
10000111100
1001110101
1111111111001000
1101100
11000011
1111110101010111
1111100101000000
1111110000011101
1111100000100000
1111110010010000
1111110111100001
110011111
1111110010111110
1111101110011000
1111111000010011
1111110010110011
1111101100110100
1111111000100001
1011101111
10000100001
11110111000
10100100011
11000011000
10100111110
11000110010
11000111111
10100101100
11101110010
11101011111
100111110110
11000100100
1111110000
10001010011
11111100
1111
1111111111010101
11100100
1111110111011000
1111100010011010
1111110010111001
1111101100110000
1111110101101101
1111110000000110
1111011
11010110
1111111011110000
1101011
1111111000101111
10001101
1100110110
100000101
10010101111
10001111011
11110001000
100100111010
1001100011
1100101011
110110011
110011
100101
1000111010
1111010000
100000110
1100011111
1010000000
100100111
1111111111111110
1111111011100101
1111111110000010
110000111
1111101100010100
1111101110000100
1111110101100100
1111110010111011
1111110110001011
111011000
1011110100
1111100011011101
1111111010101110
100111001
100100110
1100111101
1111110111110000
1111111110
10011010001
1011000111
1101001010
1110001
10101011100
1001111111
1111111100000010
10000001011
1010011001
1111111000100000
1001111010
11100010111
1110010110
10110
1111111010001001
1111111010110010
110000
1011001000
100111
1111110110111110
1111111011011011
1111110001111001
1111111111110100
1111111000101100
1010101
1111101100111011
1111111100000010
1001100001
1111111101111010
100111
1111111100110110
1000110010
1111111000010111
1111110100100111
1111110011011000
1111111111011101
10001011111
1110101100
111010011
1110011011
101010001
1111111101010001
110111101
11110000111
110111010
1111111001110011
1111111011011111
1111111010000001
1111111100100010
100010110
1001101111
1111111101011100
1000011101
1111111100110001
1010101011
1111111110000000
1111111111010100
11110000
1111110000011100
1111110101010010
101111000
10111111000
10010001101
1000011
1101011000
1000011001
1111110001
1111110111000000
1111111100110010
11110
1111100010
101001001
11111010011
10000011001
111000011
1110110001
11011101
1111110110000111
1111110101110111
1111111010101001
1111111101111011
1111111101100101
1101111000
101010010
1111110111
1100101010
1011110100
1111111111100011
1101110111
10011001010
10010100001
11101000
1111111000000000
111010100
10000001101
111010010
100001000
1111111101110101
1111110110001000
1111111110100011
1011010
111100011
100101110
1110110011
11001010011
1111010011
1111111100001110
1011111111
10101000
1111110111010111
1111110001010101
1111111010001111
1111111000100010
1111111110111111
110000111
1000010111
111100101
1111111011101100
100100010
1111110111100100
1111110011101111
1011001111
1000110100
10000111011
1101111110
1011011000
10011111110
110111101
1111110001110100
1111110110010010
1111111110100100
11011000
10111010
1000101111
1111010
110111111
100101110
1111111010101000
1111111101101110
110001001
1111111101001101
1111111100100011
1111111010011101
1111110110001011
1111111000111101
100001100
10111100
1101001
111010000
1111111100100001
1001000100
1111111100101000
1111111100101000
1111111101001110
10011000101
110101011
1111110111001101
100001101
1000101110
1000011010
110
1111111110101110
100010001
1111111100101001
1111111011100111
1111111000001110
1111111111111011
1111111011111001
101000101
100011111
111001101
110011100
1111111100001000
1111111110111111
1111111101110011
1111111011010000
1111111100010000
1010
1101010
1111111101101000
111100110
1010110011
1011110100
1110000
111101010
100010110
1100010101
1111101000
1111111100000011
1111111110101001
1111111101011100
1100010
1011111001
1011101011
1111010110
1111100110110101
1111101100101111
10011001110
1011010101
100101100
1111110111111001
1111111000011101
1101111101
1000000111
100010010
100011011
100100
110
1111111110111111
1111111101011100
100010110
1111111011111010
101010
110111001
10000100
1010101
1111111010100011
1111111010111100
1111011
1110010001
1101101010
1101000101
1010100110
1101111001
1011001000
1010000010
100000011
1111110100111101
1111110001011111
1101110101
1111111010111001
1111110110000110
1111110111111101
11101011
111100110
1111111011100110
100010001
11001001
101011111
100110001
1100
10100
10101000
1000110011
1111111101101001
1010000
1010101101
1110100110
10101010111
10111001000
11000010110
10111001110
101000010
1111111100101001
1111110111111110
1111110011111001
1111111010000000
100010101
1100110011
100100011
1111111011010000
1111101010110000
1111101000011110
1111111000101100
111000110
1001111111
1111111001010110
1111111010001111
1111111101111101
100101
110110100
1010001
1111111110011000
1111111111000101
1010101
1001011000
101010001
110111110
1001001110
1101001000
1101000111
101111011
1100100000
1001011100
110010101
100011011
11000110
1011000
100010010
1111111101100001
1111111100011100
100110
1111111000100011
1111110101000100
1111101001011000
1111111001010100
1001011
1111111110001010
1111111110000001
1111111011011110
1111000
110110010
11000010
1111111110011011
100111
11010111
100001101
101000110
1000100100
101000010
10000100
1111111011101101
111
1110110
1000001000
11001001
1111111011010101
1111111001000110
1111111100000001
10101010
1111111010011000
1111110010001010
1111110101110011
1111111010011101
1111111100011001
1111111110001100
1111110110111100
1111110110010000
1111111001011110
10100101
101111111
110100010
101011011
110101110
110101101
111010
1111111110100001
1111111111010001
101001
11111010
101100001
1101001
1111111001000110
1111110110110100
1111111001111101
1111111010110001
1111111101110001
1011110
1111111111100011
1111111101100000
1111111101101111
1111111100110110
1111111010011111
1111110001011001
1111110001001101
1111110001110010
1111110011101100
1111111111100110
1111111101111101
101001
1011011
10100100
11100101
110000011
101001100
111101000
1000001000
