1111111101011100
1111111111110011
1111111011011100
1111111010010000
1111110111100010
1111111000001110
1111110100011101
1111110111001010
1111111100111000
1111111101111010
1111111111011100
1111111110101010
11101001
100011010
11011001
1110100
1101110
1000001000
101001111
100001101
11111001
1001110111
1101101101
1001001110
111100110
110001010
10100000
1111111101010010
1111111101001101
10001101
1000011
1111111011000100
1111111101100000
1111111011110101
1111111100011100
1111110111111100
1111111011001001
1111111101111000
1111111001010010
1111111000011111
1111111000010100
11000000
111101001
100111011
1001
101100110
1101001101
1100100001
1101111110
1111010001
10000011110
11101111
1101011
1100000
1111111111100111
11
1011100
100000
1111111101001110
1111111100001111
1111111011111011
1111111111011111
10100010
1111111110001111
10101011
1111111100111101
1111111111111110
100101
111101011
100100000
1100001
1111111011010000
1111111010111001
101110101
10000001100
1011110110
1111111110001110
1111111111011110
1001011011
1000010100
1010111100
1111111010
10000100011
1010011101
110000011
1101010
1111111111010100
1111111101010111
1111111110111110
1111111101110000
1111110101100000
1111110101101000
1111111000011100
1111111011000010
1111111100011010
1111110110110010
10101110
11110
1111111000010101
100110011
101010010
1111110101100100
1111110110100010
1111111101100100
1000100011
1011011
1111111111110111
101111111
1000001110
1111110111010101
1111110101000111
111011
10001011001
10101000011
1000111111
110001011
101101111
1100000
100111111
110101010
1111111111111101
1111110111100100
1111111110111110
10
1111111111100001
1111111011100100
1111110111100010
1111110110011010
11011000
100100111
1111111010101100
10100100
1111110010011000
1111110000100000
1111101010111001
1111111000111100
1111111110111010
1111110111111001
1111110111001100
1111111101010010
10011001101
10010001100
10110001100
1101011110
1111101110
101110000
100000011
1000110100
1001000100
100001000
1111111110100001
1111111110111010
1111101111001011
1111101101111011
1111111100110111
1111111001001111
1111110100100110
1111111000011101
1111111010101001
1111111011110011
1010110
11110001
1111111001011111
1111111000011111
1111101110101101
1111110111011001
1111111001101000
1111110010000000
1111111000000110
110101
1111101101101000
1111111101010110
11100101
1111110111101011
10001101
10111000101
1100111101
1110111110
1001011100
1111111011001011
111100011
1111111111011000
1111101100101011
1111110101010111
1111111110111010
1111111111010001
1111111001100111
1111110101001111
1111111010110111
1111111101011000
10001101
1111111101110100
1001000
1010101
1111110111111001
1111110110010010
1111110000111110
1111101010101001
1111111010110110
1111110001100010
1111111101111110
1111111110000101
1011011111
1111110011001010
1111110101100000
100000001
1110100101
1101011011
1111111100010100
111101100
1111111111110101
1111111110011010
10000000
10110010110
1100101011
1111110000101001
10100101
1111111001010101
1111110010110010
1111111001011001
1111111111001101
1111111111010010
11011101
1111111000010000
1001011100
101001001
1111110111101010
1111110110000010
1111110111100100
1111110010100001
1111111010101011
1111111011001000
1111111010100111
1111101110101010
1001101011
1111111101001110
100111000
111110000
110001011
1111111101101000
100101101
100010101
1101001000
100100000
1111101100110101
10100111
10101100
1111110110100010
11011100
100111
1111111100010000
1100000110
1111111110001000
1111110011011000
1111111101011011
101
10000011100
10000100111
1111111010101000
1111110011001111
1111111011011101
1111110100010000
1111110010101010
10000010
1111111111100010
1111110000011110
1111111100111011
1000100000
1001000001
1101100001
1111110111001010
1111101111110000
111101110
1000101
1111111101011001
111100100
1100110
100000
1111101100010111
1111110001100101
100010011
1100
1111111001101100
1111111110010101
101100000
1111111000101011
1111111111011010
1111111110100100
1010110010
1001010011
1111111011001100
1111111100101000
11001100
1111110101111110
1111011101110100
1101011
10101110
1111111000110111
1111111110001110
11101000011
10111111110
10100110100
1111111100011100
1111111100100010
1111100111
1111110011111111
1111111000100100
10011100001
1111110111001010
110010011
1111110101010010
1111111000100111
1111111110110011
1111111111000011
1000000010
1111111011111110
1111110110111011
1111111001100111
1111111011010011
1111111111010100
1010010110
1001101011
100001010
1111111000111100
1111011001
1111110011010100
1111101011001110
1111110000101011
1111111010101101
100100010
111111110
11110010001
100010110100
100000010111
1111110111011100
1111110001111110
1111101011001000
1111110010010101
1111111100000101
1000000010
1111111001110010
1111111011010111
100101101
1111110000001011
1111110010100111
1111111001010010
11110001
1111111011111001
1111111000001111
1111111000111101
10001011
1010001
1001011011
1110011110
1111111001011000
1111101101101111
10101000011
1111101111111111
1111111110000000
1111011101110000
1111101111011011
1111101001001111
1111101100100010
101100001011
110100101111
1000100011
1111011111100010
1111110001000010
1011010
1111101011010100
1111110100011100
1010100010
1111111000011011
101100100
111000011
1111111110101011
101111010
1111111010
10000000011
1111100100
111011011
10010101
1101001000
1011010
100001010
1100011101
1111111110011111
1111110111000101
1111111111011001
1111110001000010
10001101
1111111100111111
1111011110011111
1111010011011011
10100111000
1100011001100
1000101000110
1111111000010011
1111011001111111
1111101101111101
1111111001010111
1111101010111110
1111111011101000
1111111010001100
111110011
1111111000011101
1111111110111010
1111111011101111
1101011
1001001011
1110000
1111111101000000
1000101110
11011011
111011010
100000010
1111111100010111
11110
11110011
1111111001001111
101111110
1111101100100011
101001
1111101100001010
1111011000100011
1111001100011010
111110110110
1011100000111
10110000110
1111110100001100
1111011000111001
1111101100001101
1100011011
10000000
1111110011011001
1010101101
1010000101
1111111000100111
1111111001111111
1111110000001000
100111010
1111111010011001
1111110001110101
1001
1000111000
10110111
1011101
10011110
1111110001111011
1111110011100100
1000000111
1111110100110001
1100011
1111101111011101
1111110011011000
1111101000101000
1111010100100111
1111011100010111
1001011111000
1000101010000
10001001000
1111100000010100
1111101001101101
1111111011010000
111011101
11111011
1111111011010000
1111111010000011
1100001111
10010101011
110000
1111111001110101
1010101100
1111111110000100
1110011011
1010011100
1001001111
100111010
1100111111
1001010100
1111110110000011
1111101101010011
1111111111101001
100000000
10101010101
1111110011110011
1111100100100001
1111101011101000
1111011100010100
1111101100010010
1010111011010
1010110001001
1010001101
1111100011111101
11101000
1111110111111011
101110110
1111111111100011
1111111111000101
110000000
1110001101
10011001101
1111111111001110
1111111101001000
1111111100100101
1111111101000100
10110000010
111111100
1000110100
1111111110010010
11110101
1111010
1100101
1111110000101011
1111110000011100
111100011
1010010000
1111111110111100
1111110000110101
1111101011000101
1111001101001000
1111110111110010
1010111111100
1001100101111
1111110001111000
1111011110010010
11110011
1111101111001000
1111111110000000
1111111110111011
1111110011010000
1111111110100100
10001001010
10011111110
101
111101101
101000000
11110001110
10011011100
101111111
110111100
1111110100110010
1111110101000010
1111111110110000
1111110110111110
1111110100101011
1111100100110000
1111110111100110
1111111000100010
1111110001111001
1111110100101011
1111111110100111
1111110100100011
1111110111011101
1000101100011
1001101110001
1001110011
1111101011110001
1111111000010110
11100111
11111010
101110011
1001010
101101010
1010101011
11011110
1111101110110110
1010110001
10101110111
10010010010
110100
1111111101000100
1100011100
1111111001001100
1111110011101110
1001011
1111110100111111
1111110110111101
1111100111000011
1111101011010000
1111111111001000
1111111010010011
1111110101000100
1100101
1111110101101110
1011011100
100011111110
1000000001110
110100011100
1111111000011011
1111111110001010
101110111
1111110010101111
1111111111111000
1111111010111001
1111111010010100
10101001
1111110101000110
1111111101001100
11000111110
1000110100
1001111
100100010
101100111
1001011111
1111111001010001
1111110110000011
1111111101101100
1111111100000001
1111111000011110
1111100110011100
1111101100100111
1111111000000111
1111110111111011
1111111000010011
1111110101011010
1111101111011010
1010110101
101001111010
100101100001
1111000001
10111000
100111010
1111111110001001
1111110011100001
1111111101010100
10010100001
1111101100011100
1011000101
10110111110
1111111101000111
110001100
1001000111
10001000101
1111111100101000
1111111111000111
1101010
1111110101000000
1111111010010001
1111111110100101
1111111100101110
1111111001111000
1111110111010000
1111110110100000
1111110100111100
1111101111101000
1111011111011100
1111101110010110
1111110110100101
1111111100110010
10110011101
11100111111
111101111
1000100
1111111101100001
111011110
1010010011
1111111000110101
101000110
1111110000110111
1000000111
10101010
10110110001
11010110010
101010011
1111111110101110
1111111111001010
1111101101101011
1000
1111111100111110
1111111101011110
1111110110011010
1111110011111110
1111111010111001
1111111001101001
1111110110011011
1111101111100110
1111111001111001
1111111111011000
1111100110111101
1111101000100111
1111111001110010
1111111100100010
1100010010
111100110
11000010
1111111101111111
1001101011
1111111000101110
1111111010001011
1011111000
1111111011101001
1000101001
101000110
100010
11000001000
1111111000000001
1111101100000011
1111111101000101
1111111100010011
100001001
101110
1111111000110100
1111111110100100
1111110011111101
1111111011111100
1111111111100011
10100100
1111110101001101
1111111011101001
1111111101110001
1111111100011111
1111110010110111
10100010
1111111001101001
1001011011
100001011
1101101
1111101111010001
10000110
11001
1111111000111000
10110000101
1111111011101100
1111111110110001
1010101010
1111101101110111
1111110110111010
1111110010011010
1111111101100111
1111110110111111
1111111110111010
1111110111100000
1111101110101010
1111111011001101
11000100
1111110010001010
1111110001001011
100100110
1111101111
11000001
1111111100011101
1111110101110011
1111110011110110
1111111000000100
1101100101
1111110110110011
1011000000
10001001
1111111111110100
1111101111111010
1111111011110111
100000111
1010000001
11110010
1111111110101001
1011100001
1111110110111001
1111100110111101
100101010
11000010
111110001
1111111111101111
110111
1111111000101101
1111110000110100
1111111110011011
10111011
1111111011100000
1111110101110111
11111100
1100001111
110100
1111111000010011
1111111100011001
1111111010000110
110111001
100111010
1111111010011011
110001110
1111101101000111
1111111010100011
1111110001001001
1111111110101100
10010011001
1100111011
11001000
1111111110011110
10010000
1111111110011101
1111111101110111
1111111100110111
1111111101101110
1111110101000111
1010100
100001111
11011
1111111011101001
100101001
10111011
1000101000
1111111011011110
1111111100001000
1111111011001101
1111110110110010
1111111111001100
1111110110000110
1111
110110100
1001000001
1111110111011001
10100000
1111110110011101
1010010
1101101001
10010
110
101010
1111111100111000
1111111100110100
111011000
1000101111
1100110
11111100
11100010
1010101010
110110100
1101100011
101000110
1100000
110111101
100110011
101011001
1
1111111110110110
1111111111100000
1111111100011000
1001101100
1100011
1001000000
1111111101001001
1111110010111111
1111110101010101
1111111001001111
1111110111011110
1111111110100100
10000111110
1111111111110001
1111110101011010
1111111000010100
110001010
1010010011
1011011111
1110110100
1111111011100000
1111101100110111
1111111101000110
10000111
1111111100101110
1000000
1111111101010011
1011000
11111110
1111111110001011
11010001
101
1111111101111111
1000011110
1111111101011100
1111111110001111
1000101
1111111111000010
1111111111110011
1111101111100000
1111111000011000
100101111
110100010
1000111100
1001111011
100001101
1111111001011111
1111110100101011
1111000111
100110010
10111011
1000100011
1111
1111110101001001
1001100101
1011000111
1111111010101000
1111111110100011
1111111000000100
100111
10101100
1111111111101111
100101001
1111100
1111111010101101
1111111110101011
110110
1111111110000001
111000011
100101101
101000
1111111101011100
1111111011010000
1011110
1111111100001111
1111111110001011
1111111100000100
1001110011
10010111000
10100000011
10100000
1011101100
101111001
1111111111000111
110011100
10100100110
1010110111
100001
1111111110101101
100110011
1011110
1111111110111011
1011100
101000100
100100110
1111111111010011
1111111010101001
1111111011001011
1111111110010011
1111111101111001
1111111110111011
1110001
1001111
1111110100111011
1111110101101101
1111111011001001
0
111001001
1011011010
1010011101
111111010
101011110
100101
1111111111100110
101001101
100111011
100110
10010000110
1100100101
1001110111
10011000100
1001000101
10110
1111111100000111
1111111101111011
10000
10010011
1111111101100000
1111111011011001
1111111011110000
1111111000110001
1111111000101011
1111111010001110
1111111101100001
10001000
1111111111111000
1111111001001111
10001111
10001110
1111111111111001
11000000
1111111001110010
1111110101100000
1111110110100110
1111110110110001
1111111000100010
100100101
1000100111
1101001001
1111000010
1010001110
10000100001
1010001101
11110011
1111111100011110
1111111101010110
1111111101011001
1111111100011010
1111111110011001
1111111001111011
1111111000111110
1111111001100010
1111111000001001
1111110111110100
1111111010101010
1111111010101111
1111111010010001
11100
1111111011110011
1111110111000010
1111111011001111
1111111111101010
1111111110010000
1000111
10101000
1111111101010111
1111111110001100
10001001
1001110101
1011000001
101110110
110100110
1010101110
1001101000
1000100
1111111101010111
1111111011010110
1111111100010000
1111111010000100
1111111010100000
