11011111
1111111011010100
1111111101000010
1111111011001011
1111111111100011
11001101
110001110
1010000000
101100111
10010011
1111111100101001
1111110111000001
10010111
1000101
1000100000
1001100100
1000101010
1100001110
1001110011
101000000
110100001
10001100
11101101
11010110
111010
100100
1100111
1110110
10100101
100110100
1011011
110000110
10110111
1111111010111101
1111111110010101
100001011
100110110
1111001
10000111
1111111111010010
1111111011101001
1111110101101001
1111110000000101
1111101110110001
1111111010011001
1111111010011001
1111111101000011
1111111111110001
1111111101101011
1111111011011111
100011001
111101110
10000010
1111111010111000
1111110111101100
1111110100110111
1111111000111010
1111110110001101
1111111101101101
1111111111010010
1111111111001000
1111111111011100
1111111110010111
10100001
11101
1111111001001001
1111111010111011
1110100
111111110
1001110
1111111011011110
110110110
110100110
11011001
1111111100111001
11100
1110111000
10000100
1111110111010000
1111111110010001
1001010011
11010010
100000010
1111111100001111
1111101101011000
1111110110110000
1111110101110101
1111110111001111
1111111001010001
1111111100111000
1111111110010001
11000011
1
1111111110011100
1111111100001111
1111111100111011
1111111010010100
1111111000110110
1111111101011100
1101111
1101001100
100100110
1111111010010110
1010010100
10111100100
1000111100
1111111101110101
1010011001
1111010100
1101000000
1011011
110010010
10101011110
111100011
1111111101011100
1111111010100010
1111111000110111
1111110100101101
1111110111001111
1111111100010110
1111110111111110
1111111011100110
1111111111000100
101010111
110010011
11100000
1111111101010111
10010010
1111111100101010
1111111001101110
1111110111101100
1111111100010101
111101000
1111111010011010
1111111100101000
10101100
1111110000001011
1111101111000001
101111001
1100000111
110001101
1111111001111000
1111111110101000
10010010
1111111000000110
1010101
1000100011
1111111110011110
11000101
1111111110010101
1111111101001000
1111111010110111
1111101000001111
1111100110010110
1111110101000000
10100010
10011
10110010
1111111111011100
11100010
1111111111010110
1111111000001101
1111110100110111
1111111100000101
1110001
1111111010101010
11000
1111110100011101
10101
1111111111001101
11011001
1111110101111001
11110110
1111110110111001
101100
1001110110
1111111011010110
111010010
100111
1011111101
111000010
1111111000101100
1111110111111011
1000011110
110001100
1111101100111010
1111110001111101
101110001
1001111011
1111110111110001
1111111110000000
10101100
1111111111001110
1111111011111110
1111111111100011
100010000
1001110011
1100110101
1111111110100111
111110110
10101110110
110111110
101111110
1010111010
1110110110
1111110110100010
1111101111111110
1111110111011101
1001001100
1000010100
100100111
1111111000010010
1111111101101011
1111110010100010
1111110000010100
1111101100110000
1111111100101100
1111111101001011
1111110111111111
11111
10010010010
101100010
1111111011100111
1111111111000101
111000
1111111011101111
1111111111001001
1111111000111000
1111111101011100
1101110101
1001000010
111010010
101101011
11001010
11000101110
10000101010
1001010011
100001001
1111111111010110
1111101111111111
1101010001
10011
1111100100001101
1111111111000110
1110110111
111101
1111110100000010
1111110011001100
1111110010111011
1111111101011110
1111110110001110
1111111110110010
10011010101
1010010100
1111111111000111
1111111110100011
1111111111110101
100011
1111111110110110
1111110100110000
1111110010100111
1101110110
10101001001
1101001101
1011100001
1010011001
1111111100010000
1111111011110101
10011011
1111111110001010
1111000111
1111111111100000
1111111100100100
1111110001011100
1111111111011011
1111101110000011
1111110111111000
1111101000011101
1111110001110101
1010011101
1111110100011100
110110
1111111011110001
11111001
1111111011111010
1001001001
110000100
1010100
101100000
1111111010001000
1111110111110000
1111111010100100
1111110010100110
10100011011
1111111111001100
10101010111
1111100011
10011000
1111111111100101
10000010100
1111110001010111
1111110001110101
1111100011100100
1111111011011010
1111110101000001
100110000
1000111
1111110011000111
111000010
1111101100100011
1111100111001000
111100000
1111111000100011
101100001
1100010011
1010101
1111111111101111
1111111110101110
101000000
1111111010111011
1100101
10101001
1111111100100001
1101
1111101110010110
1111111100100001
1111110001100001
11010101001
10001001110
11110100110
1111111111010111
1111111
1111111000100010
1111111001000001
1111010101010111
1111110101111111
1111110000001111
1111111100000110
1111101010100010
100010001
110101110
1111111100001111
1111111001111101
1111110100010011
11001001
1111111010100000
1111000
1111110001110111
1111111000011011
1111111001100100
10001001
1111111100001101
1111111101110101
1111111101010100
1111111110101100
1111111010111001
1111110000111010
1000010110
100010101
1110011
10011110110
100000000110
10010010011
10100110001
111110100
11110101
101010001
100110000
1111101110001101
1111111100110101
1111110000010100
1111111100110111
1111111110011101
1111111010111100
1111111101111110
1111110101
1110111100
10000
1111110100001100
1111110010100011
1111111101101110
1111111100110010
111101100
1111111110010001
1001
1111111110011000
1111111110000110
1111111111010010
1111111111101100
10010101111
110101101
1111010
1110101001
10011100101
1101111001
11011000101
1000001110
110110000
101001000
1111101110111001
1111011100110000
1111101010101010
1111010
1111111110011011
1111111100011111
1111100101010100
1111101101101111
101010
1111110001001000
1111111111001100
1111111000001111
1110100
101001101
111011101
1000000110
1111111110011010
1111111010001111
111101010
1001000100
1111000110
1011010001
10010111
10100
1110110101
10001110100
1111101111
1100111001
10011111
1111101001101100
1111110000111011
1111111001101011
11111
1111100111011111
1111101011101011
1111101101000000
1111101000001110
10001011101
100111010
1111110101000011
1111110110011110
1111111010011111
110100000
1111111101100001
11001001100
10000110010
1101100100
1011001
10011100
100111110
1011001011
1010101000
1000111001
101111011
1101111100
11110011111
10000001
11001001011
10111101001
100110011010
1100010010
1111101000110011
1111101010110100
1111101101011000
1111111100010011
1111101011100010
1111110101100101
1111111011111110
1111110101100000
1111111101001101
1111110001100000
1111111100111110
10110011
1100110001
1111110101010111
1111111001100111
10101100111
1100100
1010000010
100110010
1010101100
110110101
1101101101
1100110111
1111111111000111
1111001100
10001010101
10101000110
100001011000
101100101010
101001101000
101001101001
11101100001
1111111100010101
1111110001111011
1111110000111000
101110100
1101111
1111100011111000
1111101011000011
11011
1111111001011111
1111110011001010
1111111111010101
10010100110
10111
0
1110100001
10000111000
111
1000100100
1010100001
100111100
1100101000
10010000000
1101110000
110101101
11100110001
10010000110
11100010011
10111101001
10011000111
100111011100
111000010001
1111111111110110
1111101010001010
1111110001000100
1111101111111110
1111100111111011
1111110111101010
1111110011000111
1111011101101110
1111101010100110
1111100000100111
10100001
1011001001
110110
11
10101011111
1011001001
1101010001
111000110
111111001
1010001110
1111111011101111
1011001000
1101011001
10001010101
1111000011
10101000100
11111110111
10101100000
1011100111
1011101110
101011101011
100101000011
1111110011100000
1111100010110010
1111100011010000
1111011001000101
1111101011011010
1111101100010111
1111111000111110
1111110110010000
1111110000101010
1111110010011000
1111110011111010
110010100
1111111110100011
1011110001
1011001100
10000001001
11000101011
10000100111
10010100110
110111111
1111111111011011
111110111
1011111100
11000011001
10011010111
11000111011
10111000101
10001110101
100001000100
100100011101
100000010010
1110100011
1111111010010101
1111101000110001
1111110000110001
1111101000010100
1111100111101010
1111101110110001
1111111001100000
1111110110100110
1111110001000111
1111111001110100
1111100011001000
1111101111111110
1111100011
111010000
1111111100100001
1111101000
111101011
1000011000
1001101111
1001010000
1001101100
111001111
1110011010
1111011010
1110011100
11000011001
10010000101
10000010010
100111101010
110100011000
101001011100
10101101100
1111111010001110
1111010001011001
1111010001000001
1111011100010100
1111101000001110
10001101
1111101111110110
1111110000100110
1111101110101010
1111110100101011
1111101100101011
1111100011110111
1111111110000010
1111111000001100
100010110
1101000001
1001100011
110111001
1011100011
1100000100
1100001011
10110011
1001111000
1000001100
10110001
11001110011
10011100111
11110001110
11010110011
100101011010
1111100100
1111111001000010
1111110100101101
1111100000101111
1111101000001101
100010111
1111111011000111
1111101000011101
1111101100101001
1111100010000100
1111100100110111
1111110111001110
1111111000010100
11011
111100010
100101011
111010011
10001
10010001
110000011
1010111100
1100110100
1011100111
11101010
111001001
1011000101
10100011
10001101110
11110100101
100100110001
10100101010
10110011000
11010101110
1111111001111100
1111110101011110
1111111001100101
1111111111100001
1111101110000111
1111101000000111
1111101101001110
100000111
1111101101000010
1111100101000100
1111101111011111
1111100111001010
1000010110
1111101110111101
1111110000111111
11000000
11011111
1010001010
111001000
1100101100
1001101000
1010010010
11001011
101010110
1010010100
111111000
1010001111
1110001100
1110011111
1001000
101
10100010011
10110010
1111111010111011
1111101101011110
1101110
1111101101011011
1111100101001111
1111101001000010
11100001
1111111000001000
1111101011100101
1111111000011011
1111101100101100
1111110010110000
1111100101110001
1111110000011001
1111111111111100
1111110
1111110111011111
101000010
111000110
1001100001
1010110100
101001000
10011100
101100111
1111111100010011
1010110111
10011000111
1001100011
1001101
111000000
1010110010
10101010
1111110110001101
1111110110010110
1111101001001000
1111011101011111
1111110101100011
110010110
1111110011100000
1111101100010100
1111101100011111
1111110010011111
1111111010100100
1111111001100100
1111101111000011
1111101010010100
1111111101111000
1111110010001110
1111100110101111
1111101101100000
10000010
1011000000
1011010110
1111111110010101
1111111110010010
1111111111100011
1111111110010011
1001001
1111111101001001
1010100101
1111111101001011
1111111100
1100010100
1000010001
1111111100001100
1111111100011001
1111111101010011
1111110000111110
1010011100
1111111100101000
1111110101000011
111000000
1111110101101011
1111101110100001
11101000
1111110011111101
1111101101111111
1111110011100010
1111110000010000
1111101101110101
1111110010011111
1111110100011010
1010001
101001001
1000000000
1001011
1111111101010011
1111011
11100110
101000
10011001
11011001
10001010000
100110100
1111110110010010
10101000100
1111110111110010
1111111101010100
1111101100111101
1111100111110011
1111101101010000
1111100110010011
1111111010011110
1111110011111001
1111011001000011
1111101110110101
1111111000101011
1111111100000001
1111110100001000
1111110101100000
1111101011001100
1111101010010101
1111101101011010
1111111000000010
10101011
10011110
100000000
101110
1111
111010001
100000101
1111110111101001
10010101
1111111101110110
1001011100
11011100100
10000001111
101010111
1111111110010010
1111110011011011
1111111001110110
1111110110111010
1111111101111000
1001110
1111110011001011
1111101100011100
1111101100011010
1111101100101110
1111101000011110
1111101010101111
1111101110010111
1111110110000001
1111110111001111
1111101110000111
1111110000110010
1111111001100101
10111010
1111111110100100
10111010
1111111101001111
1111111101111001
101010011
1000011110
1010000
1111111100100001
1000001010
101000111
1011100110
1011110110
1111111111111101
1111111100011011
1111111001001010
1111110100110101
1111110011010001
100001
1111100110000101
1111100001011010
1111110001110110
1111110110110101
1111111001110000
1111110010001001
1111101111100111
1111110001111101
1111110111000110
1111101101101011
1111101101110010
1111111000010000
1111111100111011
11011
10011001
100110110
1111111111101000
10110
1111111111010100
1000001110
1000101010
1101100
110100011
11010111010
11010011010
1010010000
11001
100100
1000010010
1111111101100010
1111110101011110
1111110010111100
100
1111111000110101
1111111000000110
11101100
1111111110001110
1111110001110001
1111101111101100
1111101011011110
1111101101001111
1111101111100011
1111110100011111
11100010
10001001
10110101
100011001
11011000
11000101
100010110
10101000
100000010
1001111010
100001100
10000111
101111011
100010101
1111111111011110
1100
100000111
1111111100101010
1111101111011111
1111110010101100
1111110000111011
1111101111101111
1111100110001000
1111101011110011
1111110001110011
1111101110111111
1111101110000101
1111100110111110
1111110010101101
1111110110011111
1111111100011010
11011111
1110100
10001010
11101110
11100110
10110010
10101111
11000110
11011011
11111001
1111111111110000
10100
10011101
1111111101110100
1111111111110011
1011010
111111000
1100010101
1000000101
1111111111001110
1110001
1111111000110011
1111111011100001
1111111111100100
1111111000101000
1111101111101111
1111110101111101
1111111001111101
1111110000000010
1111110111100000
1110100
111000101
110100111
101101110
101010111
110100100
110110000
100110110
100011100
100101111
10001001
1011111
101000011
101011111
11100111
100010100
1111000
101100000
1000100001
1011010001
1010000001
1000101011
110000011
110000000
111001000
1101010
1100001
100000100
10101001
100000011
11010
1111111101111000
1101101
11001010
101001100
100111111
1000101110
1001111101
1000011101
101001110
