1100101
101100100
1011001010
111111101
101011101
11100110
1111111110011110
1111111100011100
10101101
101100011
10000110
1011010110
1110001010
110000011
101011010
1111100
101000111
101100100
101000100
1111111101000000
101001
10001110
11100110
111110100
1010111010
101110110
101111111
11010100
110010101
101111010
101010100
100011101
1111111100111010
10101001
111111101
11101011
1111111111011111
1010110
1111111100011011
1111111110001000
1111111101011110
1111111101100101
1111111101101101
1010011101
1101101010
11100000
11
1111111100100010
1001011
111011011
111000010
110101
1111111001111001
1111111111001011
10010110
100101010
1000111001
110110110
100000000
10010000
1001000110
1101010001
1010011001
1011000001
1111110111010011
1111111100100000
100111111
1111111111111101
1111111001110000
1101101
10010100
1111111010100011
101111101
1111111001010010
1111110100110001
1111111110111110
1111110110010000
1111110101011000
1111111000111101
11010000
1111111111101011
101100100
11001101
1001111
1111111111100110
1111111111111110
111100101
1111111101111101
1111111001111000
10101110
10000100
1100001
101010101
1110101100
1010100001
1011101111
1111111010110100
1111111101011111
1011010
110111111
111000001
10101000
1000000010
1111111010000111
1111111011010110
1111111101100110
111010
1111110100100001
1111111010111100
1111110011011011
101100001
10011001
1111111010100111
110000010
1101001011
111101111
1111100010
1011110110
1010001000
1111111011111110
1111110010010000
1111110110000011
1111111000110101
1111111100111000
101111000
110100101
1000110110
1011010001
1111111010111011
1111111000111011
1111111111100100
1101110010
1111111100101011
1111111100001100
111110100
110111011
100111110
110100110
1111111011100100
100011110
1111110111010011
1001110001
0
10111001
111001010
110110011
1000001110
1011111101
1000111010
1100101000
1000101000
1111110010001001
1111100100011001
1111100101000111
1111101001111001
1111110101101010
111100011
1010100000
10010101
1000010110
1111111111100100
1111111011110100
1001011110
110001011
1111111111000100
1100110000
1111111101110010
10000111111
1001111111
100010101
111001010
11011101
10100011
10111110
1111110110100011
1111111110100101
1111110111101100
101110
1100010100
1111111011101000
110000000
1110010000
1000111000
1111101101110111
1111100010101100
1111101010111100
1111101011000101
1111110100001001
10000100
1110110111
100111011
10100100
10001000
111100
10010101
1111111110011011
111001101
1111101100
1001010101
1101010011
1110110
1000001100
101100110
10101011
1010100110
1101111100
1010111100
11111101
1111111101110011
100111111
1101101111
1001110100
10100111011
100010000101
110100111
1111101101001010
1111100011110111
1111100000011000
1111100000010011
1111101000101000
1111111010111000
1001110011
100110010
10111100
11100
1001001111
11111011
1111110000011010
1111110100111010
1001001100
1001110110
100110010
1001101111
1111111111110010
1111110101110101
100101111
111100111
101101011
1111110111101100
11010100
111000000
1000111
1100011011
10010100000
10010010001
1111111111111001
1111110010100111
1111100101100100
1111010000011111
1111011001000111
1111011001111110
1111011100111110
1111101111101110
10111100
1111111111001100
100010101
11010100
1011100110
1111111010011100
1111111000111000
111100000
1111110000
101101
1111111011001101
1101101100
1110001011
1111111100011100
1111111111000000
1111111110010101
1111111111000100
1111110001101100
1011
1010001000
10110111
1111111110101000
1001110000
1100101001
1101110000
1111101101110001
1111100000011011
1111001010001101
1111001011011100
1111011110101011
1111101001011111
1111100111001111
1111111100100001
1111111111000001
111000111
1111111010111100
10011100
1111111100011100
1001110010
10011011
1001101101
100000111
0
101100101
1101000111
1010100001
10001001010
1010100011
10000010111
111001010
11100111
1111110001001110
1111111001000111
1011110101
101110011
10000001010
1111011010
1111101100001011
1111011010100100
1111001111100111
1111010100111000
1111100001100100
1111111001011001
1111101110100100
1111110001100010
110
1010100110
1111111100110000
1111111001110000
11100111
1111111111101001
11011110
10101101
1111111110101110
101110100
10011000010
1111111010100101
101000010
10010100010
1100011101
1111111111100111
11001
100000111
1101100000
10000001101
1011111111
1111010101
100000001000
1001111110
1111010011011100
1110111001010110
1111000010110000
1111010010111100
1111011010110111
1111111110100000
1111111101001001
1111111010011111
100111110
1011101101
1111111001110000
1111110111110011
11011110
10011100
1000001
1111110010011001
1111111000011101
10010111
1111111000110111
1111110001111101
1111111110100101
10100010
1000101101
1111110110101101
1111111010111000
110011111
100101011
100100101
11011000011
10101110100
1100100010
1111110100010100
1110101101100110
1110100111001101
1110111101001010
1111100000010000
1111111111001100
111101101
110000110
100111100
100010000
1010001000
1111111100011001
1111110011010100
10000101
10000111101
11101
1111110011101011
1111110010000111
1111110110010110
1111110010110101
100011101
1111111001001110
1111111101001011
1101010001
10011000
110100101
1100000101
1000110011
100000101010
1101101010
10110010000
110010000
1111011011111111
1110110001100100
1110111001011011
1111011011101100
1111111111001110
111100010
1101100011
1111000
111011011
11001101
111110011
1111111101101100
1111111001100000
1111111101110111
1100001000
1000010001
1111110001101001
1111111100110110
0
1111100111100001
1111110111000001
1111110010101111
1111110011100010
110101101
101011010
1111111001111001
1011000101
10011110111
100010111000
10000101110
1111011001
1111100000111100
1110110000000111
1110111101111101
1111011111100100
11110110
11111000111
10101111110
1001111010
1111111110111011
110100101
1111111100000110
1111111111110001
1111111011010010
1111111011001000
1111111011000110
11111000
10010101101
1011
1111110100110010
1011001010
11101101
1111111001110100
1111110101101000
1010000110
1001111010
1101110000
1011010010
11011000001
1110001100
1000011110
1111011000
1111110001001110
1111001111010011
1111000010010000
1111010110011011
1111111101010011
11100011111
10011011110
100000111111
10111011000
111101111
1001010110
1111111110011011
1111111110011011
1111111011000011
1111111110011100
1100111
101110
1001000000
10101010011
1111101111000100
1111110111100111
11011010010
1000011
1111110010000011
110011000
100100101
110011
10000101111
1111110010000110
11011010
1101010111
1111111111101010
1111010101111010
1111010000110100
1111100100000100
1111110001101110
10101010001
10010110010
10101101111
1101111101
10101111110
1010110001
1110001110
1001000
10000011
1111110111110111
1111111010101010
1100001
1111111110100001
1001000
101000000
1000011100
10111100
1111111100011000
10001000101
10100110
1111101100001000
11010000
1111111110101010
1000000011
1000100110
1001000000
1000101011
1111111000010100
1111100101110111
10001111
1110101100
1111111000001110
1001001111
1010101
1010111001
10111100001
11001010101
1010010
1111111111011001
1111010
1111111111110000
1111111010011011
1111111011011011
1010011000
11000001
1010100
1111111011101010
110010101
111001001
1111111101111011
1111111010
1110010
1111110011011101
1100010
1111111001100111
111011011
11100001110
10100000
1111101011000110
1111101101011010
1111101000000001
1111101101010000
1111111101000010
11000000
1111101001
10100010101
1001000010
1111110
110011111
1101100000
1000000000
1010111100
1101000
1111111111111001
100001001
11000110
1111110011101111
1111111111100100
100110101
1111111101111000
110000001
1111110111100110
11011110111
10111001
10001110
1111110100110101
1111111000000110
1111110011100011
1111111100010011
1111110101010110
1111110001111001
1111101110100110
1111110100001010
1000111
1111111110001000
1111111011011001
1101101111
1111100101
111001111
1111111010110110
110110100
100011110
110101001
11010010
11110101
1111111111011011
110010010
1111111011010110
1111111000001010
10101
11101000
1111111110111000
1111111001111110
1111110101110101
10001110
1111111001001110
1011100
11001101
1111110101010100
1111110110111100
1100010111
1111111110111100
1111110111101100
100110010
1000101
1111111110100011
1111111011101010
10101111
10100110
1111111100111111
1000101
1000110000
1111000100
1111111010001000
1111111010000100
1111111111010100
10111010
10111101
11010110
100000101
1010110011
1111111101110010
1111111100011100
1111111101010111
1000010110
1011110001
1001110111
1000
1111110100101110
10000101010
1111111000101100
1111110011001111
1111110101111101
100101100
1111110011000010
1111101111100100
1111111101001111
100000100
1100000111
1111101110100001
10101000
11010111101
10010110
1011000101
100101100
1111111000001010
1111110110111011
1111111100100100
1111111101100000
1111111101001000
10001001
1111111111000000
1010001
11101011
1111111111101000
1111110111001000
10001110
111001110
1111111000111011
111001110
1111111110111000
1111110010001110
10000111
1000101010
1111111010010001
110
1111110110000001
1111110101101111
1111111101101100
1111110111111001
1000001
100110011
100010010
11011000
1111110100101000
101001101
101010110
1111111101101001
1111110010101110
1111111111111011
10100010
1111111101111001
1011011
1111111000010010
1111111100100010
11101000
1111110101110000
1111111110110100
11001011
1111111110011010
10111111
1111110111110000
1000111111
110110111
1111111111101101
1111101001101001
1111011110010101
1111110011100000
1111111000001010
1111111010001001
11011
1111111110111111
101011100
11000000
1101110111
1111111100001101
10000000
1111111110101111
1100
1111111011001111
10100
111001111
101101000
1111111101001010
1111100
1111111111101001
11011000
1110001110
100100111
10001011
111110100
1111110110101001
1011100
1111111000111010
1111111011000010
1111110100100100
1111111101001111
1111111110111001
1111100111110000
1111110001001001
1111111011101011
1111111011101110
10001101
1101110111
100100
1111111000100010
1010000100
110101110
110111000
1111111010
1111110100011010
11011010
1001101101
1010101001
1101011
1111111111101111
1110000
1101001
1111111100100111
1000101100
1110100001
1111111111011101
10100010
11111101
1101001
1111111000011110
1111110110011011
1111111100000011
1111111011111011
110110000
1011100
1000000101
110111010
1111110100111000
1111110100101100
1111111010110001
1111111111110110
1111111000000111
10011000
1111111011110000
1111111010101100
1111111011100001
11101000
1000111110
1101011010
10011111000
101101001
100011
10010001
1111111111101110
1111110111111011
1111111010001101
1001100010
101001001
100110
1111111011101011
10000000100
1111110110110100
100011111
111010010
1100011
100110000
1111101000110001
101110100
10011110000
1111111000100110
1111110011101111
1111111000111000
1111101111100110
1111111110101101
1111110011111000
1111101001000000
1111110100000001
1111110111110111
1111111110000110
100010010
110101100
10110001011
1110000101
101000100
11011100
10001011
1111111000100000
1111111011110001
1110101
110110111
1111111001000110
1111110100100100
1010110110
11010111
1111111011011010
1111101110001110
1111110010100000
11000001
1111111110001000
1111101001111000
1111101101011010
1111101010010001
1111110100001000
1111111110001100
1111111010011011
1111110110110010
1111101111101110
1111111000001111
1111110000010111
1111110011101111
1111111011010110
1100101
110011100
10000110011
1010110110
100001101
11110011
1111111111010100
1111111010100010
1111110110000110
1111111110101100
10111101
1111111010000110
1111110011110110
1111111001000001
1111111010100010
1111110101101011
1111110111100111
1111111101110111
10110100
10001110001
1111111000011010
1111110100100101
1111110001111010
1111110111110100
1111110010011111
1111110000101011
1111111111110010
1111111011111100
1111111001000100
1111111001000010
1111111101100000
1111111110000110
1101
111010101
1101100010
1100011011
101011000
101001101
11011101
1111111100111110
1111111001010001
1111111011111110
1111111000100111
1111101011000111
1111101010010010
1111110100111010
1111111111000111
111010011
1111101
1111110101011000
1111111010101000
1011001001
101011111
101000010
11000
1111101101001101
1111100111000001
1111110111011111
100111101
1111110101001110
1111110110011011
1111110111110000
1111111011101100
1111111011011010
1111111111000000
100100101
1101111111
1111111011
1110110000
1001010100
110100100
10001
1111111100110011
1111111011101010
1111111001110111
1111110100011001
1111110000010101
1111110011111100
1111111111100110
11010100
101011
1111111011000001
1111111001110101
1010101100
1111101111
10001000011
1001000
1111110111111001
1111111011101111
1111111110011111
1111110110011011
1111101111100101
1111110110110100
1111111111110111
1111111111001010
11100110
111001000
1010100011
111011000
110010001
1100001110
1111110010
1010001000
101101000
110010
1111111111001011
1111111110010111
1111111111011111
1111111100011100
110
1111111110000111
1100011
1111111101010111
1111111010110001
1111111100110001
1111111101111010
1111111100001101
1111111001100011
1111111010010000
100111110
1111111111011001
1111111111110011
1111111100101001
1111111100110100
11011011
110101101
100001100
1001010011
1011001110
111001001
101011011
101000111
1110001110
1101100001
1011111101
110111111
10011100
100100101
10110001
1111111100011100
1111111101001100
1111111111001010
1111111111001000
1111111101100101
1101000
101101000
10000111
10100001
100111001
1111111111110111
101000011
1010100111
1010101101
101011100
1011000011
1001001001
110100100
1001011111
1011001010
1100100111
1001111110
1000011101
1011100010
1101110101
