1100100110
1000111111
11001111
101000000
1000010011
1111110110
10000101101
1100010000
100101001
101110110
10011110
1000011000
1010001011
1100000010
1100001
1111111111111010
1111111111000111
1111111000000010
1111111100001110
110100000
110
1011100
101110111
1111111110100111
1100011
111110101
111001000
100101000
101001100
1001010111
1010101100
1100110011
1000010100
110110110
11011000
11110101
100111110
111101110
110011101
1111111111110110
1111110001111011
1111110111111000
1111111100100000
110010101
10011111
11010010
1111111101000001
1111111110001011
1111111100111101
1111111011110011
1111111101011001
1111111101000101
1111111001000100
1111110110000000
1111111100001100
1111111100110001
1111111110010110
11010010
1001100110
1010100100
101111001
100111010
1001010010
1011010111
111101010
111110010
1001010110
1100110111
10000011110
1001011111
100101111
1111111110010110
1111110000111101
1111111111110110
10010010
1111111000010110
1111111011011000
1111111100100011
1111111001111110
1111110101101101
100011110
110010011
111011111
10100011
110000
1111111101101010
1111110111101001
1111110111000011
1111111101001000
1111111001101011
1111111111111100
1001111000
1000000101
101011100
1001011111
1011011100
10000001
1000110101
10110001
101100000
1011011001
1111110000
101010001
1111111010101000
1000111101
1111111111101110
1111101101111100
1111111010111100
110001010
1111111011100011
1111110011000011
1111110111000101
1111111101011111
1111000011
110100000
1111111010001001
1111111010000011
1111111101010100
1111110111011000
1111110101100010
1111110110000001
1111111011011110
1101
11100011
111110111
10001001
1111111
1100001101
101001010
1110110000
101001000
1111111110000011
100110100
10010001001
1
1111111110111101
1101
1111111110001111
1100010
1111111101000100
10000010
1111111011011111
10101010
1100
1111111101000111
1111110101100101
1111110011001011
1111111000101110
110100001
1111111011101110
1111111001000111
111001000
1010101
0
1111111111001111
1111111110011010
1111111011100111
1111111101101000
1111111111111110
1101001100
10001000
1010100100
1010011001
1111111011111011
10000111
101110011
1110011100
1111111110010111
1111110010111100
11011010
10000010
1111111100100010
1111110100011101
1111110011000110
1111110100000110
11110111
1111111100101001
1111111110010111
1000100111
1011100111
1111111110011001
1111000001
11010011
1111111011010111
101011010
1111111001110011
1111111110101000
101010000
110010
1111111101011010
110101
1010000111
1111111100000000
1011110010
1110000101
10000011
1111111010010011
10011001
110001111
11001010
1111111100101110
1111110011110111
1111111011010011
1010011010
10110110
1111111010001111
1010110
1111111111011110
1111110001011110
110001100
1000111001
1011101
1111110010111110
1111111011010100
1111111110001111
1111101100011001
1111110100010100
1111110000010111
1111111000000001
1111110100000011
1111110100101000
1111110111001010
100011011
1100100000
1111111101011110
101101011
10001000011
1111111111100010
110110010
1010001110
1111111001111110
1010011110
100110011
1111110110111011
1001001011
10000000100
1100010
1111111101000111
110110001
10101000
10001101
100110
100111001
1111111011110110
1111111110001011
1111111010110001
110111
1110
1111111100000011
1111111010100100
1111111011000101
1111110110111001
1111111000111010
1111110010010101
101000011
1101101101
1111111100010001
1010100100
1011011011
110010010
101001000
1111111010001001
1111110101100110
10011100011
1101100000
110101011
11000010010
11101111
1111110011010000
1000111
100000110
1111110111001010
1111101011101001
10001111
1111111000010000
1111111100010111
1111110101110010
1000100
1111111101101101
1100011
100
1111110110001001
1111111111100001
1111110110100000
1111110111100001
1111111000011001
1001110000
1001010011
101011000
11100110
1111011110
1101101001
1101100101
10110111000
1101010
101101100
1101010111
1111100111
1111110111101000
10001100110
10110010
100001111
101111001
1111111010010110
1111110111010100
100000011
1111101110110010
100011010
1111110011000000
100111010
1111111011110111
1111110001010111
1111111001111000
1111101110101001
1111110000001110
1111111011100011
1111101111101011
1111111010111010
111111101
1100100111
1100000011
11110110
100101110
11011000
110111
1111111001111101
110010001
10011010100
110001000
10001101011
1111111111000010
10010110000
110001011
1111111100100010
1011010
111101001
1110100111
101100
1111111100011100
1111111111000010
1111101010111111
1111111110010000
1111101110000100
1111111000101010
1111111011110111
111101010
1111111010110000
100100111
1111111110001110
1111111000101110
1110010001
10000110000
1111111100111100
1111110101110100
1111111101100101
1000000111
10010010010
10000111101
10111100011
11100111
10010110001
10010000010
111110111
110001010
1110101111
100001
10000101010
1001110100
11011001
10000111111
111110
1111110101111101
1111110100111111
111000111
1111111011001000
1111110111111110
1111111000100011
1111111111011111
1111111111010110
1111111100111011
111111111
1111111000100101
1101100000
1011011111
1111110111100001
1111110010010000
1111111010010010
1111111111100010
100100100
1110000001
11011101
100111
101101011
1111111100000101
1111110111001100
1111110111110110
1000011110
1111110000111000
1000100
1111110010010010
1111110110100101
1111101010101001
1111111010011011
111100110
1111111100111001
111111010
1111110110000001
1111111110101011
1111111011110001
1111110101111001
100000101
1111110100100101
11011100
1111111010010110
111101111
11100111
1111111000011101
1111110100110001
1111111010000111
1111110100111011
1111111000010011
100100101
1111111111101001
111011000
1111111011111001
1111111011000110
1111111001110111
1111101101101010
1111111011010111
1111110001000100
1111101100001000
1111010110110111
1111110100000010
1111101110100000
1111110010110011
1111101110000011
1111100110110011
1111111001010000
1111110111010110
1111101010111001
1111110000010010
1111110100010000
1111101100101110
1111110101101000
101001101
1111110110101001
1000111010
1111111101011010
1111111110000000
1111101111101010
1111101111000010
1111110011101010
1111101110100100
1111110011100011
1111111011010011
1111110011000110
1111100100010000
1111101110001110
1111011100001010
1111001101000010
1111000110110101
1111011010110100
1111010010110100
1111001000100100
1111011100110010
1111100101000000
1111011010001100
1111110001001001
1111101110110000
1111110000000100
10110
1111111001001010
1111111010001100
1111111110100110
1111101100110011
1111111001101110
1011101010
1111110111101110
1101111000
1111111101011110
1111111111011001
1111101110011011
1111100110101111
1111100101001100
1111100000010111
1111011000011011
1111001100101111
1111000111010110
1111001101110000
1110110101101111
1110101110000111
1110110101111011
1110111010111110
1111000110011111
1111011110001010
1111101100001000
1111101101000100
1111111011000110
1111110000010110
1001100
1111101110111101
1111110001001011
1111110111110101
1111101010000010
110011101
1111111001001101
100001
1000001100
110110
1001111100
1110011000
1111111101010101
111100
1111101111011010
1111100100100010
1111100000001010
1111001111010000
1111010000110000
1110111110100001
1110101001101011
1110100100111000
1110010011000100
1110110010000010
1111011100101010
1111101100000001
1111111010000000
1000111110
110101010
1111110011000011
1111101110000001
1001010101
1111111111101011
1111110101000000
1111111001000010
1111110100110101
1111111010110101
110001
1111111100100111
11111001
1111111110011111
1111111101000100
1111111110110000
101011010
1111111101100110
100100010
1111101111100110
1111100111000010
1111100000100100
1110111110000001
1110111011101111
1111000101011010
1111000001011001
1111000010001011
1111010100001010
1111100111010011
1111111100001010
1111110111010000
1111101110101111
1111101110001101
0
1111111000100000
1111110111110011
1111110001000010
1111101111110001
1111111011100000
1100001
1111111101011001
1111111101010101
101110
1001110
1111110111101010
1111110100001101
100010010
1000010
1111111101001101
1110100
1111111111100000
1111110100001011
1111110000001010
1111100011111110
1111010111100101
1111010101110110
1111011100010010
1111010101000001
1010110
10100010110
10111111100
1001110010
1111111110010111
1111111001000100
1111111001101001
111101000
1111111101011011
10111
1111101111100011
1111111001111111
1111101111011110
1111111110110011
100000111
11000
1011110001
11100000
1111111000111110
1101110010
1010000110
1101100110
1011000111
1001110001
1001100110
1111110111100101
1111110111000110
1111110001111110
1111110001000110
1111101110001100
1000011110
1011111000
10111000000
10001001011
10010100011
110110001
10010011
10110111111
1111011010
1010000111
10000110010
1011001110
101001001
101111
110110101
10000101
1111111000101110
10100000110
1011000111
1111011
1111111010101101
10000110100
110000111
1111111111101011
1011100100
111000101
1001010011
1010010
1011
1111110011110111
1111111011001101
100101010
111010101
11101101101
11000010111
10100110101
10100100000
1110110101
1101000011
10110101111
1010111001
1101000000
100010101010
111010000
10110100000
1010010111
1000000101
1000100111
1101000001
111011101
1010010111
111010
1000101100
10001110011
1111111100101011
1111111000110000
10101100
1001110
100010100
1111111100010111
11011101
1111111011000011
1111111100011111
1000101101
1001000101
11010110111
1111101011
1111111101011011
1110100011
11011000
1100000001
11011000111
11000001101
10101111001
1101101001
11010111010
1111111101101000
10000110
1111111101011111
1111111101001101
1111111101111110
1010011011
111101101
1111111111001101
1111111110000101
1010100001
1111111100101001
1111111000100101
1111111101000101
1000100
1111010000
1001000
1111111111001101
1001010000
100111
1111111011000110
1111111101001010
101101010
1001101111
1101000101
10001101111
10111011100
1000110010
111100
10110100110
1111000011
1111111110101000
1111111011110001
1111111111001010
1111111011111010
111001001
1111110010001110
1001111111
111000011
101000100
1111111001011000
110011010
1000010100
1111111110001100
1111110000101001
1111111010110110
1111111100110011
1011010011
1111111001100001
1111110111111000
111110
110101000
1000011000
1111111111100000
1001110000
1110010000
1000000010
11000100100
110011101
10100011000
100010000
1111001101
101101
101011111
111010110
1011000000
1111111010101111
11010010
100011100
1011001010
10010001110
110100100
10101011
1100000110
111000111
1111111111111000
1111111111010000
1001
1000101110
1010100010
1111111100101111
1111110111011110
1111111011100011
11011100
1100100110
1111000010
10111101111
11100101011
1111010101
10000111110
1111110111011001
111000010
1100101100
10100101010
1100011101
111011
1111110101101010
101001001
10001101
1111111011101101
110011000
1010000001
1111110111001100
1111110001011100
1111001111
10011010000
111111001
1110111100
1111110
100011
10000111010
1000001101
1010010011
1111111010001110
1111101111111000
1111111111111000
1001000
1111111110100111
10001011010
10101000111
1111101110111010
110001100
1100101010
10000110010
11011101110
110100010
1010011010
101100000
1111110101100001
1111110010110111
1111110010010110
1111111011001100
1111111000111000
100111100
1111111101110000
10000110
1101011100
101001001
11011100
1010110010
1000111010
111011010
10111100111
100010000
1011100110
1001111011
10110110
11111001
110011000
1111111100000110
1111111101110000
1111111101100100
1111110110001101
1101110000
1000010010
1111111001010101
1001110
1111111000000011
1111111001100101
1100011
1111110100111111
1111101001
100010011
1111110001110010
1100001101
1110111011
1111111100001000
1001101001
1111111111110101
100111110
100110001
10010111010
1010000011
111001011
10100000000
1111111111011000
1000111010
1101100111
10001001011
1101101101
1010010
100101010
1001000000
10000100
10111000
1001010000
1000110011
110010011
10001000
1101110001
1111000010
10011001
1111111111010010
1111111110010001
111001010
10011011
100101111
10101111
1001010011
1000111100
11101101
1111110110100100
1110011100
10010100101
1000011100
110111011
111101111
101100111
1000000001
1110001011
110100001
10100010
101000101
111010011
10111000010
10111110110
111001000
1111111100101100
1111111110001011
1111111011011110
1111101010001001
1111101001010011
1111110101001101
1111101111000000
1111110000000110
1111111011011011
110101010
1111111100010111
10011100
100001111
1101010110
100111101
1111111001111101
1111111011001001
1100111011
10110100111
10001101100
1010111010
11101
10010001100
1110101100
10010001100
1000011110
11000110
1110001
1111111011111001
1111110100110100
1111111011001000
1111111011111001
1111110100100010
1111111000101110
1111110111010000
1111110011001010
1111110011000111
1111110011101011
1111110101001111
1111111101101001
1010110101
101110011
1111111101001011
10010111
1111111101101110
10011111010
11001101101
1010110111
1011101010
111001101
1011111010
1110001100
1001011100
1010111
1111000110
10110110111
11011011011
10101000110
1100010011
1111101
10101111
10101111
11001
1111111011100111
1111111101001111
100011101
110100
11010000
11011110
11010011
1001001111
1111111101110000
1100101
1111111100010011
10101011
101010101
110001110
1111000011
1100111101
1011110011
1001111100
10000010011
1101100101
1101000100
1001101000
110011100
1100101101
11000001011
11010111101
10011110001
1100000001
110010011
1011101001
1110010011
1110100011
1111001001
1000011000
100110101
101001010
11110001
1111111111000000
1111111110010110
101010101
11000011
1010101
1111111000100101
11110000
1010001
1001010011
10011100011
10011000010
1110111010
1011110010
1111000000
1110000111
1110100001
10000101100
1100011000
