1111110010110101
1111111000001001
10001
100111010
1111111010000110
1111110111000000
1111110000101010
1111110110110100
1111111110001001
1111111101011011
1111110111111110
1111110101110111
1111111000001000
1111110111100101
1111110011101001
1111111000110100
1111111100011100
1111111000010000
1111111000110011
1111111011000011
1111111010101011
1111111100011111
1111111100100000
1111111010011110
1111111101101011
1111111011011000
1111111011111100
1111110111101000
1111111011010111
1111111011001000
1111110001000100
1111110010010011
1111110101011011
1111111000001000
1111111110110011
1111111110101000
1111111010010000
11000
1111110000000111
1111111011001110
1111111111010110
1111111111000100
1111110110111000
1111111100011111
111011
1111111010001000
11111
1111111101001111
11001100
1011001
1000101101
101001111
1111111110000101
1111111010110110
1111110111001110
1111111010010111
1111111011011000
1111111010011011
1111111010010001
1111110111101000
1111111000000101
1111111111001110
1111111010111001
1111110111111001
1111110100001011
1111110100100001
1111111100100111
1111111100000000
1111111010010000
1111111110010010
1111111100000100
1111111011001100
1000011011
10100011
1111111100110011
100101101
11001000
10110101
100100110
1010111111
10001111110
111010011
101010100
100000001
1011010101
111100010
101101101
10110011
1111111111011010
1011101
1111111010011011
1111110111101110
1111111001111010
1111111000000101
1111110011000111
1111110111110110
1111110100011011
1111110101110101
1111110100010101
1111110011101100
1011001
1111110110111101
1111111100111100
110001100
1111111100001011
100100
1001101010
10
1111111111101101
1111111110010111
1101100111
10001011110
10100011000
101000101
1001100110
1100001001
10101010001
11100010111
10100010011
10000011001
1010000100
111110101
10101101
1111111100110111
1111111111010010
1111111000010110
1111111001100011
100110
1111101110100001
1111111010110000
1111111010000001
10001001
1111110101110000
1111111100111101
1111111010000101
1010110001
1111111001001111
1111101110100100
1111110100010110
1111111100111110
1111110111010011
100001001
101101111
1010111110
10100000000
10010001010
10010000010
11011010101
11011010010
11101101110
10111110100
1101101110
1111111001
1110111110
1010101100
10101001
111111100
1111000
1111111000111100
10111000
1111110100100000
1111111010100000
1111111000111010
1111110001010101
1111111100101011
1111111110110110
1111101000110100
1111111101010110
1111101001
1111100110000000
1111110001011010
1111101101100011
1111110000101100
100001100
1111011
1110000110
11110000100
11110001101
11110010111
11100111001
100001011110
100111011101
11111000111
11010110100
1110000001
10010000100
10011111011
1110011000
101111001
110111111
1111111001111100
1111111001001011
1111111011101000
1111111000101001
1111101111101010
1111110000101110
101110
1111111110000101
1111111101010011
1111111100101001
1111100110000100
1111011111010111
110100011
1111110110010100
1000011111
1111111100000011
1111111110000000
1100110001
11000100010
100001001101
101010110011
100100111110
101100011001
110000001101
101001110011
101000000010
100010101001
10010001110
1101100100
100110100
1111111101000010
11001001
1111111001000101
1111111000010110
1101010
110100001
1111111011101001
1111101000101011
1111111110101011
1001101001
1111111111
1011100111
101110100
1111111000100111
1011001010
100001101
1111010100
1001001000
1011000010
11000010000
11100100110
111001000010
110111001111
100110000100
100000010111
101001011001
11100100110
100101011100
11010010010
1011001001
11010100001
10010000111
100011
1100000
1111111100011100
1101110
1000111000
10100011000
1111111111110111
1111111000111110
110100001
1001001
1100100000
1111111011000111
1111111001001011
1111111110110001
1101100100
1111111100111001
1111110111011101
10000011110
101001111110
101001101011
110110101111
1001101100010
1000100110111
100101101011
10001000000
100100000011
10110011010
1111111111111101
110100001
10000010011
10011110010
1101001011
11100011
111011110
1111111010101001
1111111100111001
1111111101110101
1000011000
1000001000
11111110
1111110111111000
1111101111010110
11010111
1111111001001100
1010111001
1000011101
1111110100001010
101111110
101000011
100001011110
110101010101
101100010100
110001110010
100111010100
10000101111
1111111000101101
1111111101011110
1101011100
100000000
1111111000101010
1111111110010110
1000110100
10100
1111111110111011
1111101110100000
1111110011100100
1111101100001111
1111110010111001
1111111100000101
11011110
100110
1110010
1111111010111100
1111111100010110
1111111101010010
1111110101010000
1010110001
1001111000
10001110
1100010011
10101000101
111001110010
100101110101
1001100000
1111111011111010
1111110101110110
1111101000100100
1111100010010110
101111001
1111111100010010
1001100111
1111110110100111
1111110110110000
1111100111101000
1111101110101001
1111111111100101
1111110101110101
1111110010100110
1111101011001110
1111110001001110
1111111110110100
1001
1111101111011001
1011000
110000110
111101011
1110111110
1111111100000100
11000001
1001100011
110101110
11010111111
100000001101
11101010000
1101011010
1111111100001111
1111111011110010
1111100000101000
1111100111110010
1001011
1111111010011110
1111111000110010
1111110001010111
1111101101101101
101011
1111110011110001
1111110100111010
101011100
111111100
1110110
1111110101010110
1111110011101000
1111111110010100
1000111
1111110101101111
1111000110
101011101
10011010
11101010
1111111110101110
1111100000
1111110111011100
1111110101010110
1111111111001100
1111111011010001
111110110
10101101101
10100010110
1111101110100101
1111111101010101
1111101101100101
1111100001111100
1111111101011100
1111111101110110
1111101100010011
1111110101100011
1111111010110011
1111110000001100
100000100
10111101
11010100
1111110110011001
1111101001111010
1111111000010110
1111111111010110
1001111
101000001
10111
111111101
1111000
1111111111100011
1111101111010010
10111
1111111011110010
1111110110011011
1111111011011001
1111110000111111
1111101110110011
1111101101101000
1111100111010011
1111011000100000
1111111010110000
1111110100000111
1111101010101100
1111101001111010
1111111101010101
1111110110101100
1111110011111001
1111110110001110
1111110100111000
1111111011101111
1010101010
1011010111
1111111101010001
1111101011110110
1111111000000111
1111110111010111
1111110110010011
10000100101
1111110110101000
1111111010101000
1111110110111110
1111111110010001
1111110100010101
1000100101
1111111110011101
10001010
10010110
100001111
1111101111110110
1111101001110101
1101110110
1111101110000001
1111111111010000
10110011
1111101001000111
1111100001011001
1111101111000111
1111101111000000
1111100110110110
1111101011000000
1111101001111101
1111110011111100
11110111
1111111011011111
1111111100011100
1111101010010000
1111110101001100
1011011100
1111111010001001
10101010
1000101
1111111000111101
1010110010
1111110011111110
1111111110100011
111110010
1111110110101111
1111111001000010
1111110001000101
1111111110111001
1111111001100100
1111110011000000
1111111011011100
1111101110101000
1111111000000111
1111110100101010
100001
1111111001111100
1111110010110000
1111111011010111
1111110011000001
1111100011100000
1111111000100100
1111101010101100
1111101000010110
1111101011100111
1111110010000010
1111101110011100
1111110110010011
1111111100100111
1111110101011111
1111111110011100
100010100
1001001011
110110110
1111110100011111
1111011110
1111110100001101
1111110100010100
10000101
1111111001100011
1111111111111110
1111110000001100
1111101101111111
1111110100101010
1111101001111101
1111110010101011
1000000111
101011
1111100110101110
1111101001011010
1111010110111001
1111111000001010
1111100001110001
1111111100111111
1111110001010011
1111110001000111
1111110111111000
1111101100011010
1111111001111011
1111111000011011
1111110010110000
1111111101011110
1100100
1111111011001111
11111001
1111110101000001
1011111101
1111111011010111
10100001101
1111111000010001
1111111101101001
1111110101100011
1111101010001000
1111111100000100
1111101100110100
1111110101110000
1111101110000101
1111011011101101
1111010110011000
1111101010111101
1111110011011101
10001011100
10000011011
100001101
1111110111011110
1111111011001100
1111100110010100
1111100000111010
1011110101
1000000100
110100001
1111110011010001
1111110011111100
1100111
111010111
100001
1111111101100110
1111111101001110
1001100011
1111111111110100
100011
101100101
1111101010111011
1111101110100000
1111100111011011
1101010111
1111110000010111
1111101010110010
1111111000110100
1111111101000010
1111111001011000
110010111
10011110100
1000000001
1010101
1010010111
110000000
1011101001
1111110101101000
1111110101010100
101110011
1111101000
101100
1111110000001000
1111110101001111
1111111001100000
1111111010001100
1001000011
1111110111100110
11000000
1111110101010001
100110001
1111111100010000
101010001
1111111111111101
1111111000101101
101011
1111110011011101
1111101001110011
1111111000100011
1110111
1111010111
11000000011
10110110011
1110011111
1100101110
10011100100
11110011100
10111000
10101100011
1111111010101101
1111110000100010
1111111010110010
1101010
1111010
1111111000000110
1111111011010001
1111110111100001
1111111001010110
1111111110100000
1111111010011110
1011000011
1111111110101000
11010111
1111110101000000
1111110111000001
111100111
1111111010111010
1111110101100000
1111111010110011
1110110011
1000001001
1011001101
111110
11111011
1110110001
110100
10011110
10110111
1101111111
110101101
10000000011
11110101110
1111111001110101
1111110100000100
1111111000101010
101000000
1111111010010011
1111111010011001
1111111001001111
1111111000010100
1111111011011101
10111111
10100000010
1111111110001111
10010000
1111110111001000
1111101100100100
1111110010000110
10010001111
1111111101000011
1111111011010010
110111111
1111110110101100
10000101
10100101110
100001110110
1101011000
1111000100
11000001001
1010101110
100001011
1100110010
10010101010
11000110000
1111111000111110
100111000
1111111001100010
11011
1111111010100010
1111110101110000
1111111000110111
1111110110110001
11001000
101011001
1111111101001101
11000
10000111000
101001010
10000010
1111111001101110
1001010100
1111110010011000
11100000
100011
100101
1111111100001110
10110001000
10011100110
110001010
100011100
11100000100
10011111000
1010010001
1100111011
100001110
1110010000
110101
1000011100
1111111111010011
1111111001001000
1111111101011111
1111110011110111
1111111001100001
100000
10010010111
101100110
1100000110
1111010100
1111111101110110
1111111110101110
1011111110
1111101010110011
10001000
1111111000011001
100000110110
100001011001
1111101000
1111110110011011
1111111110101101
100000001
1011010101
1111111010010001
100010101
1111111100010010
10000010000
1010001
1101001110
110010100
1111101110000000
1100111100
1111110111110001
1111110001101111
1111111010010110
1111111011010100
1111111100010110
11100111
10011100010
1111111110001100
1110000
10011101000
1111110100111100
11000101
10011000000
1111110100110000
110011
10010001111
10001001
110001001
10100010010
10001101110
1111111111100100
10010100
10011111110
1000101110
10
1000111101
110111010
10100111
110111
1111111100011001
1111110101110110
11110111
1111101010000011
1111110011111101
1111111010100101
1111111100101001
1111111110110111
11001011
1000011110
1111111001110000
1111110110111111
11011100
1111110
1111110001101100
101000111
1111111011111001
111100011
1111110100
1111111100111100
11001010
1111110100110111
1111111010111100
1111111111111000
10011101001
110001011
1111111001000111
1111110011001110
1111110111011000
1111110000100000
100010111
1101011110
1110101000
10101011
1111111100101001
1111101001000000
1111111000010101
101001
1111111010001111
1111111011011001
1111111101000110
100000000
111000011
100010111
1010100100
10010011110
1011110
101000011
100101001101
1000011010
1111111010110010
110010000
10011000011
1010010011
10010111101
1101000001
10010110111
100001110
1111101111001000
1010110
101010100
1111111000010001
1111111111100100
101011011
100110000
1111110111000011
1111101110100000
1111101011011100
1111110111101100
1111111010011101
1111110110111010
1111111011111001
1111110111100010
1111111111000010
1110000
111110110
10111101
10101000
110101111
1111111000101111
10101101
1111111000110101
11011001
1111110110100010
101110111
1100101100
110001
11011001
1111111110001100
10110100
1111111111101111
1011001111
1111010000
10001110
1011000000
100111011
1100101
1111110101101111
1111101100000100
1111110101011000
1111110101110000
1111111001100000
1111111011100100
1111111010100011
1111111010000100
1111110110111101
1111111010101000
110000101
1010111001
1111111101101100
1111111001111111
10011010
1010010000
1110110
1111111000010000
1111111101101000
1111111000111010
1011101000
1001001011
10000101000
1111111101110011
1111110110010010
1111111001010010
110011111
1001100100
1111111010000100
1111111100110100
1111110101101101
1111110101000101
1111110010101000
1111110100111010
1111110111101000
1111110100100010
1111111000000001
111011
1111111000001010
1111110110101111
1111110100110011
1111110111011010
1111111011110001
11011001
110010001
10100000
11111111
1011011110
1010110010
100000111
111001100
1000000101
101111011
1111111011100101
1111110010000011
1111110110000001
1111111001111001
110
111100110
10110011
1111110101100001
1111110001001011
1111110101100110
1111111000000110
1111110110010101
1111110110000001
1111110100000000
1111110000101101
1111110011101010
1111111011100101
1111111101101000
1111110100101011
1111110111101000
1111110111110010
1111111100010111
1111111001111011
1111111011001101
1111111101110011
10001111
1111111100111001
1111111111011110
111110
10100111
10101000
1110
1111111111011111
1111111110010111
1111111000100011
1111111101001100
11100001
1111111111111001
1111111011010000
1111111011010101
1111110111110101
1111111001011100
1111110100100000
1111111000011010
1111110101000111
1111110000011001
1111110001000011
1111110110001100
1111111010110111
1111111001000011
1111110111111111
1111110110111010
1111110100100101
1111111010001101
1111110111111101
1111110101111101
1111111000010110
1111110110011101
1111111000000111
1111110010101000
1111110110111111
1111111010010111
1111110101000000
1111111000101100
1111111101010001
1111111001100010
1111110101001100
1111111010111101
1111111100001000
1111111010111001
1111111111011110
1111111010101111
1111111010000101
1111111001000011
1111111000100101
1111110010111000
1111101111001111
1111101111100000
1111110000001100
1111110110100000
