111010010
101111000
111001110
110000000
1000111010
11111111
1010111001
10101111100
1110011100
1000000100
11001011
110100001
11110011
1111111010001000
100001011
111111010
101001010
1111111110011111
1111111111111011
1111111010111011
111110001
100100001
1111111010110000
100101011
111001101
101010111
1000110011
111101100
100011010
100010111
100010
1111111011011110
11001110
10011111
1001010001
1010101100
101101
11001001
1011000011
110000110
1111111011111110
1111111100001010
1111110111100011
1111111101010010
111000101
1111110100111011
1111111100101110
110111001
1001111101
1111111110100101
1111110111110100
11111100
11100101
11001100
1111111110110010
1111111110111110
100011011
1011010000
1011010010
1101110000
111101111
110111100
1111100
111001
11111111
110100110
1001010010
10101111
1111111011101110
1111110111100001
1111111110011101
1111111110000100
111100010
11110111
1111111000101001
110000001
1001011011
100111100
1111110100010101
1111111011011100
1111111100100001
1111111010101101
1111111000100010
1111111101011100
1010011001
11010011
1001000101
10101
1111111
10001110001
11111011000
11110100010
10100101011
1111011011
11011000
100110100
10000001
1111111100000110
101000000
1011110000
10001011
1111111010101110
1111111101001010
1111111011011101
1111111111001001
1011111110
101010011
10001111
1111111000000010
1011010000
111001110
1111111110011001
1111111000101100
1111111011100000
1111111001000101
1111111110110011
100100111
1111110111000010
1111111100110101
1000101110
1100000010
10000011100
11010101010
11001101010
10011010110
1000011101
1011000
1111111101011110
1111111111111000
1111110111010101
1111111010010101
100100000
101010011
1111110010010000
1111111110110010
1111110101001000
1111110010011000
1001100011
1111111100111111
10110010010
1011000111
101000010
10111000
1111111101111000
10010010
1110100
1111110000010100
1011
1111101011000111
1111111101111111
101011110
110001110
1010110
1111111110100001
1001001101
11010001111
1011101011
1011001101
1111000
1111111101111001
11010101
1111111010011000
1111111001001010
1111111100010000
100010
1111111111111000
1111111111110001
100010000
1111111011011001
110100001
10101111
1111101101011001
1000111111
110001
1011000100
1111110001010000
1111101001001011
1101000
1001000010
1111111101110000
1111110100110100
1111110011100001
1111111000100000
11010111
1000111011
1010011100
1010111010
111010110
1010110010
111000010
111111
111011010
11100100
1111111111010111
1111110111011100
10100011
1010000000
1000101010
1111111100001101
11000111
10010100
11011101
11011001
10001011101
1111111111011001
1010101001
1111111100011000
1111111011011111
1111111001000101
1111110101010111
101
1111111100001110
1111110000100100
10001001
101010111
1111111111001010
1111001100
10100010010
1100100100
1101100011
1100001110
10010101
100101010
10001001010
1111111110010000
100110111
11010000
110111010
1010100010
1111111110101101
1111111011110110
1001100100
1111110111110010
111011011
1010000100
110111011
1111111100110001
11001001010
1111111101000101
10100
1101001000
11110
1111101011101010
1111110010101010
1111111001010010
11110111
1111100110
11011110000
10001000011
111001011
10110111
101011101
1101110101
1111001111
1100010000
10001101001
111001
100100110
1101010
1100101101
101101111
10110111
10000001
1111111101100010
1111111100001001
1111110111111111
1100101101
1111111010001001
1111111001111010
110101111
1101111101
1111110011111001
1000010011
1111110001100001
1111110000000010
11111010
11011
1111111010011110
101100000
1111111111010010
111100100
10100101010
10010001100
1111111010100100
110110111
1110111101
1111111110010010
1010001011
101010
110100011
1111111000010000
111111010
10100000010
1010100101
110110101
1110100011
1111111100001000
1011010
1110101
1111110110010100
110010100
1000111001
101000110
1111111111011111
111
1111111001011100
1111111010010100
1000010100
1111110000101110
1111111101000011
11111010
10000010100
1110010000
1101001011
10100101011
1001001001
101000101
11001010
1111111111110011
1001110101
1111110110001111
1111111101101001
1111101011010010
1111111011010110
100010111
1010000110
1111111110100001
10010111001
1011110010
1100100110
111001001
1111111100110111
1111111111101001
10010001
111001110
1111110001110100
1111111111100011
1011100101
1001100
100101011
1001001
10010101110
101101000000
11100001001
10111100011
11011011110
100001001001
10110000111
1110100100
10010010
1111111001100101
1000110110
1111111110110111
1111111111010110
1111111010001011
1111111110010110
1100100
10011001111
1001111000
0
1100110
1111111001010001
10000001001
1011111010
1000101
10000100
10111000100
1111111100011010
101110001
1111101011101111
1111111100001111
1000100100
1111111101001111
11000001111
1011100000
10011011010
10101011000
10101100011
101011000011
111111111
1111110000100110
110001
1111110001000010
10101001
111101101
110001011
100011111
111010010
1001110100
10001011101
1111111111001110
10110111
10011111
1000110011
11001101100
1111110
10101110011
1001101001
10101011100
10011110101
1111111100011110
10000000
1111110110000000
10010100
11111001000
11110111001
11001100110
11110011010
11010111111
11000101111
1010111010
1111101100011101
1111011100001000
1111110001101011
1111101011100010
110101100
1001100110
10001
11010110
10011010
1100011011
110011100
1110011
111111011
11000001111
10001000
1010011000
1111111010111100
100001110
1100000110
1111111000110000
101100110
1111111011100001
100001011
101010101
1110110110
10110100010
11011111101
10101000
1100000011
1110010001
1100000011
1111110001011110
1111001111101011
1111001010001110
1111100010110001
1111011111010000
111010010
101101001
1111111010100100
1101000
1001110110
11010011
1111111011100010
10000000110
11111010
100111
1100111100
1011101001
10001110000
1111111010010011
101010000
10111
1100001101
1111110110111110
11111011
1001101011
10111
1111110101011000
1111111110110000
1111111110100011
10101011
1111101101000000
1111000010100111
1110110001101101
1110101100111001
1110110101010010
1111001010001110
1111011001011100
100101111
101001000
1101100101
101010010
10101011101
1010111100
1111110110111011
1011011010
1111110100110010
1111110110000111
1010110100
1111101111111010
11101001100
1000100011
1111111101101001
1001101101
1111010010
1111110111100111
1101111
1011100
1111111000110011
1111111110111000
10010110
110101000
1111101100111011
1110101110101100
1110011101101111
1110000110111000
1110010100011101
1110101111001001
1110111101010101
1111011011111001
10001111
1111111101110011
1111111111100011
1011100
1111110101011011
11010001
1111110011011111
11111101
1111110010001010
1111100
111111
1111111101111101
1111111100000000
101001
1111110010010111
1000111
1111111100001101
1111110111101011
10000110100
10101000
1111111101011111
1000101101
1111101010101101
1111000100100010
1110001100101111
1101110010100100
1110000111000100
1110010001001010
1110101101111111
1110111101001111
1111001000110111
1111101100010001
10110110
1111111011011011
11000010
1001100100
1111110111101100
100010010
1101111
1111111011001110
1111110110001000
1111111010100100
1111110010010100
100011001
100111011
110111000
1111111011010011
110101
1100001
1111111011010000
101011
1000100001
1111100110000000
1111100100100010
1111000000011011
1110100100111001
1110010010011111
1110100101110111
1110101100011001
1111001000000011
1111010101000000
1111100010100100
1111100000010100
1111111110011011
100010010
1111111011001011
1001101001
1110100111
1111101100110100
1111111100000101
10011001
1111111001011011
1111111110111110
1111111111011011
10011010
100011111
101011111
1111111100011010
1100101111
1011000000
1101110101
1010000000
11010100
1111110010110100
1111110001100000
1111011000010111
1111010010011000
1111001100110011
1111110100100101
11011001001
10010100101
10001011100
1111111001010011
1111110101111100
1111111100001001
1001011
1010110010
1111111010001110
1000
1100010010
1111110111101011
100000100
1111111010011000
1111111000000100
101001000
111111110
1101001100
1111111001111101
1011111011
1111110111101111
10111001
100010010
1111111110010111
11101100
1111110101001011
1111101010000111
1111110100000111
1111100101011011
1111110011101010
1110111100
10101100000
100100111100
11101001101
100111100101
10000001101
10011110100
101101001
1111111111001111
1000111100
1111111100111110
1111111010100110
110010101
111001001
1111110100111111
1111111001000110
1100010111
1000100101
1111111000001111
1111111110101110
100011010
1111111000011100
1111110011101000
1111111000011010
1010001010
1111110111001101
1111111000111011
1111111110110100
1111110000001011
1001101
1111111101001001
100001101
1011111101
101001010110
1111000101
11110001100
100100110010
11010100001
10110011000
1111111111000001
1111110100011010
1100001001
1111111000010101
1111111111011000
1101001100
111101010
1111111001000100
1000011011
1111110110101111
1111111000110001
101001110
10000101
110100000
1100111
10010010
1101000011
1111111010010100
1111110101001110
11011111
1111110111101101
1111110010101111
1000001011
1011111100
1011101111
1001011000
10000001110
10010010100
10100111111
11001011000
11101111111
10010000110
1111100
1111110111000000
10010000001
1111110101110101
1111111001001001
10101011
110000101
101110011
1111110100010001
1110100
100101101
1111111100111100
1001100011
1111110100001000
1111111100110110
1001101
111000010
110111
1111111100010110
1111110000011011
1111110111011100
1111110000011010
101011110
10010000
1000011010
1100101101
1101110010
1011011001
1111111011101111
10010000110
11101111110
10111001111
1111111100001000
1111111011001010
1001011000
1111111010111001
1111111111111001
111000001
111110010
1111101111011011
1111111000001111
10110111100
100010111
110001101
1111111101111111
1111111001000000
101100111
1111110110010110
10011110
1111110011001111
1111110011010011
11010
1000001101
1111110100110010
1111111111100111
1111111000100101
10100111010
10111001010
1010101
10110000011
10011110110
11011111110
101100111
1010000001
11001011
11000111
110111110
1111111100010110
1011101
1011101100
1100101
1111111001000011
1111110011010011
1111111011111111
1111111000101101
111100101
1111110111011111
1111110110110010
10000111
1111110100101000
1111110110010111
1111101111101110
1111111110100111
1011
111111001
1111110110100010
1110100110
1111111001011101
1111111001101100
1111111101101100
110010011
1101000000
101100101
1011010110
1001010011
10010110011
1111011011
10001001011
1011110100
1111111101100010
11010010
1011100100
110001000
1111111101110111
1111111001110111
10010011
1111111001111000
1111111000000100
1111111100111001
1111111000011110
1111111111101100
1111111000001001
1111111010101100
1111111110010100
101010110
101110101
11000100
1111111010101111
1111110011110111
10111001
111001100
101110100
1110001110
110111
11011111
101101110
101011
1111111111100101
11101101
1110001000
100111111
10100110
11101110
100000110
111110110
1001010111
1111111100111001
1111110110101011
1111110111010010
1111100100101010
1111111100011110
100101001
1111111100111000
1111111100001101
110111001
10101001
1111101101110001
1111110111011101
1001101000
1111110011111010
1111111110011101
101100111
100000
11100110
1111111010100000
1111111100011101
1111100100
111111011
110011
11000001
1100010110
1001001100
100001101
101100111
1010011
1111111100111001
1000101
1011000
1111111011011110
1111110010100010
1111110001010011
111000110
0
1111111110001110
1111110010110110
1111110111010010
1111111110100011
1011110110
1111111010101100
1111110011000111
100110110
1111111111111110
1111111001000110
1111110010110101
1111101101110101
1111110001000010
1011001
1111110100100100
1111110101111101
1100010010
1111111010110000
11010000
1101101011
1101001010
1101001101
10111111
110001
1111111110001100
1111111110111011
11011000
1111111100111011
1111110001101111
100100110
10101111
1001000
1111111110110110
1111111001000100
100000101
100101010
1101000110
1111110111100011
1111111010101010
101011100
1011100111
1111111110010001
1111110000101011
1111111010011010
101110111
1111110111100000
1111110010110111
1111110101101100
1111111101011111
1111110110010101
10110111
1100001101
1110111101
1011111000
1001001110
101111000
111000
1111111101000110
1110001
1111101
101010010
1000011011
1111110110000000
1111101111011100
1111111010011011
101100001
1111111101010100
1111101110110111
1111110111111110
1111111011110111
1111101110001001
1000111
1000001010
101001110
1111000000
111001111
1101100101
1111111110111001
0
1111111001000110
1111111010110110
101100100
11010101
101001100
1111111111010111
1111111010111100
1111111101010010
110011110
101100000
11000111
100010010
1000000101
111001001
10000010
1111111001111010
10111101
101011101
100001000
101110010
10111000
101001001
101101111
1000110010
11111
1111110111010001
101101110
101100101
100111111
100100010
111101011
100010010
1111111001100110
1111110111010001
11101000
1011010
11010
1111111101111010
10101001
111011010
111010011
100111000
11110000
111011101
11000111
1111111110111000
1111110111001111
1111110100111000
1111111011100101
1101101
100000111
1000111000
101101100
11010010
111010001
1100001011
10011
1111111011000001
11010000
11001101
1111000
101110011
1000000011
11001111
100100011
11100111
1100100
1111111111111111
101010101
1000011010
1101110001
