1111111100110111
1111111011110111
1111111010111110
1111111011110111
1111111000101011
1111110100010100
1111110111010000
1111111101000011
1111111100100100
1111111010111100
1111110101011100
1111110011010001
1111111010111111
1111111010110100
1111111100011110
100101101
101111110
1111111111010111
1111111110110100
1111111111001100
100100011
1011110011
1010001110
1001101110
111001011
100010001
101011010
1110111
1111111101110000
100011011
1111110111111011
1111101111101010
1111110111101110
1111111001001000
1111110100110010
1111110010110010
1111110000000110
1111110110001010
1111111101011100
1111111101010011
1111110110110011
1111111011010110
1111111001110011
10
101010111
1111111100111001
1001101110
1110111000
10010101111
1101100001
101001010
100110110
1001101111
101100010
1010011
100100000
111100011
11110001
1111111101110110
1111111011101001
1111111110000111
111000100
1111111101100110
1111110111000001
1111111011100101
1111110111011010
1111110101010101
1111101100010101
1111101101010011
1111111101001010
1111111110011010
1111100101010100
1111110000110010
100100111
1111111110111010
110010010
1111111111101100
1111111111110100
1111111000010100
1010110110
1000011010
10010101001
1111010110
1110110001
11010110011
11000000110
11000100110
1111110101
1000111111
1000010101
1111111110101000
1111111001100001
1111111100001001
1000100
1111111011101110
1111111000101011
1111111100011101
1111111111000010
1111110001001110
1111101101100000
1111111110100111
101111111
1110111010
1111110111011110
1111111101111010
1011000011
1101101011
1001000110
1011100110
1111111111001000
110010111
111111111
100110100
1011001011
1011001100
10001000010
10110001111
11011100000
10011001100
11000000101
10111000011
1110011100
1000100101
101010
1101100
1111111111111110
1
1111111010010111
1111111010100001
1111111000110011
1111110100001111
1111111011010100
101100
100010110
101011000
1000001010
11000000
1111111101011100
101110010
1111100100
110001101
1100111000
1100011110
1111111101010000
10101100110
10001111101
1101010110
10011111101
10100001100
100111000110
100011010011
111010111
100011
10110110
10000010
1111111110101111
100001010
1111111111011100
10000001
10110
1111111010110011
1111110110011001
1111111011000000
1111110100100111
1111110010000110
1111111001111001
1111110111000000
1111111100010101
1001100010
10001100011
10111
110
1111111110001010
10000001111
110101101
10000011110
10110001010
11100011001
10001101010
100101110
10010101010
10111100111
111101010
1100001011
101101100
1110111000
1100000101
1001100110
1000011100
1101010100
111110101
101010101
11100010
1111111011111011
1111110110111011
1111111010010000
11001001
1111111101110100
1111111010011011
1111111101001101
1010101
1110001001
1110000110
1111111000101010
11111011100
10010001010
10100000111
11110111001
1111111101011011
11010100010
100111011111
10011110010
1010010011
1101100011
1111111011000001
1111101110011000
10100111
1000010011
1010101010
110011110
101000000
1010000001
1111110
111001110
101101111
10010110
1111111011000111
101001111
1100011000
1001011101
11101000
1000110100
1001000101
101110001
1101101011
10011110011
10101011110
10000100101
100010001111
101100001011
10011101100
10101101010
10101101
11001001010
11101110
1111110111111111
1111111011001111
1111110111100010
1111110100110000
1111110111101010
1111111110101110
1010
1111111100001000
100010000
1111111101011000
10011011011
110101010
110
1111111100100011
100011010
1110111100
1101010001
1101111100
1111111010101000
10011001101
10000100001
11010101101
11110000111
10101110101
100011010001
11010100010
10101111110
111101100
1101010010
1111110011100101
1111111101010101
1111111110110100
10111010
110010111
1111111100010010
1111111101100011
1111110110000101
1111110101011000
1111110001010000
1111110101100000
1111111001001010
1111111001000100
110110001
1111111000100111
110111100
1111000100
1101100101
100110111
11111110111
11000100111
1111111111011000
101111001
1001100000
1001011000
11010000111
11001100100
10000011011
1111110001010011
1111011110110100
1111011011101011
1111101011101011
1111101110111011
1111110011101011
1111011111000100
1111110011101101
1111111110010110
111010100
1010011
1111111111011100
1111111010101011
1111110010001000
1111101111110000
1111110110000010
1111110100111000
1111111101001110
1111111001110000
101110010
10110101110
101111100
1111011010
10100101011
1111110000
10100111000
10000111101
11100001100
1000001010
1001101010
1111111101000100
1110111
1111110101011100
1111110010100001
10001001000
10011011011
1111110111100110
1111111000111101
1111111100110011
1011011
1111001111
1010000001
111010101
1111111100100010
1111100101001001
1111101010001101
1111111011111010
1111111110111110
1111111010110001
1100111
1111111101100001
10110100
110011010
1010111001
10111001011
1111111011001001
10101010100
11001111000
1010110000
1001110011
1111110011100110
1111110011011001
1111011111000111
1111100100111011
1111101000000011
1111111011110000
1010110101
1100
1111110110010011
10010110
1111111111111010
11011110000
11010010
10110011
11010111
1111111110101110
1111110001110110
1111111111000000
1111111000111111
111
1111111100001000
100100011
101101101
1000000110
1100100001
100000010101
11000111101
11101011110
10010110000
1011110
1001100111
1111101010101111
1111110000001101
1111111010110101
1111100110011110
1111111001000001
101100010
1111110111111100
1111111001111000
1101110100
1111111100100010
1111110110001111
1111110111011001
1111111111100110
1111111101101010
1111110111101101
1111101111001010
1011001
1111110000100010
1111101000001000
1111011100111110
1111110010101010
1111111111100101
10011100000
111100001
1010010000
110011101
1001111010
10111010110
1000001011
1010010011
1111110100111001
1111111010110100
1111111110101011
1111111101100000
1111111100100111
1111110011000100
1111111100001110
1111110110110111
1001111001
1111110100100011
1111111011010001
1111110101000001
11101111
101010011
1111110111101100
111010111
1000000
1111000001
10011011010
1111101101101110
1111101011100110
1111110000001101
1111110111001100
1111111110110101
10011100110
1111111011010001
1111111111100011
101111
1111111101101010
10011001010
1111110000000100
101000111
1111111111111011
1010001010
110110000
101110110
1100000
1111111011100110
101000
1111111011101001
10010011011
1111110010111101
1111111110011000
1111110101011001
1111111110111111
1111111100111111
1111111100000011
10100011111
1111111100000110
101010101
101
1111011110100111
1111100110001011
1111111010000100
1111111110001100
1111110100111010
1101011110
10100110
1111111111100010
1111111110111101
10111000
1111101110
1111111000110001
1111101001011100
1100001110
100000101110
1111101011110111
1111111011110001
1111111101111111
1111111111001101
1111111111111001
1111110000111011
1111111101110001
1111101101101010
1111110100101110
111000111
10011100000
1111110111111110
1111101110000101
1111111010100011
1000110000
1111101010100111
1111101000000101
1111011001000001
1111100001111110
1111100100100110
1111110010001011
1111101110100110
1111111111110010
1111110111001000
1111110111110010
1111110000101010
1111111011100011
1111111011000101
1110110
1111111000001101
1000101001
10011101
1111111001001101
1111111101011110
1001110011
10110101000
1111111100101010
1111111100011101
1111111101001010
1111111111111110
1011100010
1000001111
1111110001011010
1000010011
100100111
1111111001
111001010
1111100001001110
1111011100010101
1111011111001110
1111100101111010
1111100001110100
1111110101000110
1111101101100000
1111111001100110
1111110011000110
1111111010001001
1111110010110110
1111110110000100
1111110110110111
1111110100000110
1111111110000100
10011011100
111101111
10011111
100111110
1111100111101011
11000111
1101001011
1000111101
1111110100111010
1111111101001001
101101101
10000101100
101011
1111111000000110
1111111001001100
1111111100100100
1111100110000111
1111101010010000
1111100110111010
1111101000101001
1111101011000101
1111111001001101
111
1111111110001001
1011
1111110100111110
1111111000110011
1111111001010101
1111110001100111
1111111101111100
1111111000111100
1111111000001100
1111101110
1111101101011111
1111110101010110
1111111100101001
1111101100111010
1111101010000100
11011010
1111100111011001
1111110101101001
11100111011
1111110110111010
1111111011101100
100110011
1111101100101110
1111111010011100
1111011110000101
1111011100111101
1111101011101000
1111101100101100
1111101101010110
1111101101101011
1111111011111110
1111111111001011
1111111100111011
100001011
1111111011011001
1111110101100000
1111110011001001
1111101111101111
1111111111011101
10000001000
101100100
110101000
1111111000011110
1111111001011101
1111110100111101
1111111010111110
1111111000000011
1111111000100001
10001110
10001000100
1111110001011001
1111111000001100
1111110001010111
1111100010000001
1111011110000010
1111101000000101
1111001111111110
1111011001001111
1111101100011110
1111101111010001
1111111000001101
1111110100011000
1111111010101011
1111110100100100
10011
11101000
1111111110101101
1111110110100000
1111110001001100
1111110000101100
1111110011010000
1111101000
1111110110001001
1111111100010111
1111111011010111
1111110110101110
1111111000111111
1111111100111000
1111111111010110
1111111100110101
1111101001001000
1111110100101110
1111101001101001
1111001111100010
1111010000001001
1111100010111100
1111010001001100
1111011101001111
1111100011011100
1111110100001100
1111100111000101
101010
1111111111101101
1111110100110011
101101010
1111111010000011
1111111110011010
101
1111111000100010
1111110101000000
1111110101111100
1111111011010010
1100
10101010101
1111111101010100
1111111010010010
1111111101101101
101111010
1111110000101000
1111101101000000
1111010100010111
1111101101100011
1111100000011011
1111001111000010
1111001110010100
1111010101110100
1111101100111010
1111100010000010
1111011010110000
1111100101100000
1111101001001111
1111100011111111
1111110100100010
1000010100
1111101110101111
1111111101010011
110010101
1111111011000100
1111111001011100
1010101
1111111001100001
1111111001010111
1111111001011101
1101101100
1101111101
1111101100010100
1111101100011110
1110011011
1111111111010111
111011110
1111101111110001
1111110000010000
1111111010000010
1111110011101000
1111101101101001
1111101010101010
1111111111111000
101010111
1010011110
11000100
1111101010011011
1111111001101010
1111111000000100
1111111000011100
1011000001
10100100
1111101111111000
1111111101111000
1011110
1111110101000100
1111111011001001
1100111
1111111100000100
1111111110011100
11000000
1011110110
1101100
1111111100101101
1111110100101011
1111111101111011
1111101101110010
1111111100010011
100010011
1011010100
1111111000010001
1111111101111011
110100100
1111110101111111
1111111111000100
10010111111
1111111111101010
11000010
1100001010
1010100101
1111111111111000
1111111101010001
1110000
11010001
1111111110110000
1001010100
1100000001
1111111101001010
1111111111000110
1101100
1111110111000001
1111111110010000
111100001
1011000110
1110111
1111110110011110
11000001
1111110011001111
1111111010101111
1111111101000011
1111110010001001
1111111111100010
1111011
100010110
11011011011
11000011
1111111011000010
1110111101
1110111010
1101011000
1100001010
10011111101
10011000000
1110001111
101100000
1011111011
1010010101
10100011011
1011011100
11110110
1101011
10000110
11101110
100100010
1111111111111110
10001100
1001011110
1111111000101101
1111111010000110
10101111
1111111011101101
111111
1111110110001100
1011111110
1111111101010110
1111111001111000
10011100110
10001101101
1101111111
1000010
1001000000
10000001
1111111100100011
1101000000
10111101100
11010100011
1111100000
10011011000
1111100011
1000101111
1101011110
1010001011
111000010
1111111011000010
1010101110
1001111001
11011101
1111111000010100
1111111001011101
1111110110100101
1111110111011000
100001100
1111101011100001
1111100010010111
1111110101000010
100001
1111110010010101
1111111011011000
10010000101
1000010101
11001000011
10111111001
1
1000001
11001001
1011011000
110011100
11011100100
10111000101
10011111000
10010101
110001111
1001111011
11001101
10100001
1111111100000110
1000100111
1001001100
1101010
1111111001000010
1111101000101011
1111101010011111
1111111001001101
1111110110010101
1111110111111001
1111101101011000
1111110001010010
1111110110011000
111011111
10010100001
1110001101
111101001
1111110111100010
11000001000
1011111101
1110001101
10111101101
1101000010
1111110111
10011000111
10010111001
10011110000
10010100000
10001110000
1111000101
111010011
100000100
100100100
111001101
1001000000
110000101
1111000
1111111011001100
1111110010110000
1111111010011101
1111111001000010
11101
1011001
11110001
1111111101001100
1111111000000011
1111111110100001
110100001
1111111110111011
1111110001100111
1100110
110101110
1100110
1101
10010111
100001
1101000101
111010000
10011011010
10101001101
1101010010
1001110100
1010000001
110101001
111000111
1001101000
111001101
100010000
10110
1111111101010001
1111111001101100
1111110111001010
1111111111001111
1111111010110111
1111111011101100
1011100010
1111111110001001
1111110110101101
1111111001011001
1111110111000111
1111111100101110
1011000000
1010111111
1010000111
101011000
1001010001
100011101
1101010000
1011101101
1110111011
10111101011
1100011010
1000110001
100111000
10110101
1111111101100001
11010
101010001
1000011000
11110100
1111111110011001
1111111110101011
110111001
100011011
1111111100000100
1111111111101010
101010001
1101111
1111111101111101
1111111000110110
1111111011000111
1111111011010100
1111111111001010
110000011
1000100
1111111110011010
101010110
1111111100000001
1111111111110000
1100100011
10101100110
11011011010
11100000100
1010011110
100101101
101000000
101100
1111111110111011
1011000
1111111111100101
101010101
11110101
1111111110111000
1111111011011011
10001
1111111110111011
1111111100101001
1001101
1001100
100011110
10010000
100111110
1010001110
1111111110100010
1111111010010111
101010110
1010001110
111100101
11111000
10001111
101000010
10100100010
10111100001
10111000111
10110011110
111101000
110010
101000001
100110000
11111110
1000111110
