1001000000
11100011
11100011
1000100101
1101011100
10011011111
10010111100
1010111011
1110101100
1111101000
110100001
100000000
1011000001
1101110011
1000000011
101111010
111000110
1001110101
111001001
10110101
1111111110111100
10110110
1000110011
110101111
11010111
1000110101
1000100110
1001001110
1000110001
101000111
110000010
1011111001
1111111110110010
11101
100011110
1001101011
10010110100
1110100000
111011110
1111111110011010
1111111101011101
10110011
100010011
1100011010
10100000
1111111100111010
1111111001110111
1111111000001001
1111111111101100
1111111101101100
110000100
100111101
1111111111101001
100
11000100
110000011
110101000
1001000011
1110110100
10000011101
1011101110
100101101
111011011
1100001100
11001
1111111110101010
101111111
1111010100
10001110000
1111011010
10001001001
10000001
1111111100011110
1011100010
1001011011
1010011111
10000001000
1001100110
1111111011000101
1111110010111011
1111111011101111
1111111110011000
1111111001111101
10010000
101011000
10111000
1111001
11110100
1111111110111110
1111111000101101
1111111110111111
101111100
1110000001
1011001001
1101010001
1101111100
1111111111111010
100011111
111101111
1111001111
1110000000
1111010011
10000010000
110100100
1110011110
1110010111
1000011100
1111111001000011
1111111010011111
110110011
1110001
1111111110001011
1111111111011111
111110
1000111
1111111111011000
1111111110110101
1111111101010010
1111110100110101
1111111010001111
1110010
1111111110010110
1111110101011011
1111111000001101
110001000
101010001
11100111
1010100011
101010
111010110
101100100
1101101111
1010011111
111001111
111101011
1101000100
101000
1000011101
10000111001
1000010110
101100110
11111001
111011001
100001100
11101100
1111110100001001
1111111000010001
1111111011110100
1111111100000010
1111101110011110
1111110111011001
1111111101001111
11111100
11101111
101001011
1111110001111010
1111110111011010
100100
101010
1101000101
11000100
1001110001
11011010
101101000
100010101
100011
10010000000
1110101111
1000010001
1001111110
1001011011
1111111110011111
1000001101
10000011011
110111111
11100010
11001
1111111101100011
1010111100
1111001011
1111111111001011
1101011
1111110000001111
1111111110010001
110101101
101111011
1001101110
1000111011
11110011
1111111001111111
11000000
1100000110
11001100
1010101110
1111111101000111
1010110
1010110011
1111111011011100
1111111111011101
1011110101
1111111100000011
1101110010
1110011100
1011000001
1010100000
110101
1111111010100011
111011111
1011010101
1111111100110111
1111110011111100
1111111110011001
1111111101100010
1101110011
11010000
1111110011110100
1111111001010110
100111001
1111111011111101
1111111110000100
1010010
1111110110000001
1011110
1110000101
110000010
110111011
1111110110101111
101000110
10010001111
1111111110001110
1001100011
1110110101
1001110011
1101111000
111101001
1111111001100010
1100001001
1000010011
10001000100
1111011011
1111010001
1111110101000110
101101010
10111011101
1000101111
1111111011000000
1111110110010000
1111111000010100
1111110110101110
111011110
111100101
1110001
1111111111110101
1111110110110111
100010100
1001100010
1100001110
11100101
1111101110000111
1010011101
111001101
101001110
1111111100010001
101010000
101111101
1001111000
1010011011
1111111001101111
1110011001
100000001
1111111100110010
1010011100
1100000000
1111111000100001
100100
1001001001
101110000
11101011
11101011
1001110001
10110100
1011110101
11111
1111110101001100
101011011
111101101
1011010110
1001111110
1101110111
1111110110100000
1111101111001001
1111111001101010
110000101
1000111001
110010101
1111111100111110
1111111011010000
1010110101
100001000
111100010
10100110001
1010000101
1111111001110010
11010001
1100101001
110110010
1111111000100001
1110010101
10111111
1111111111111110
100000
101100
1100110000
1111111111111100
1111110101000101
1111111000001100
1111111001010111
110110111
1011010110
1001100100
1101000111
1111110100110010
1111101011100100
1111100010000110
1111100110110011
1111100101011111
1111110100101010
1111101101100110
1111010010100001
1111011011111011
1111100001100011
1111010100101111
1111011001100100
1111100011000100
1111011000010000
1111101111001101
100111101
10101101
10110
110000111
11111011
10001111
1111111101001110
10011111000
1111111011111001
1111111101100111
1101010000
1111110
1111111010001100
1111111101011111
1110101
10011000
100111100
1111101100010110
1111100110001011
1111010001111001
1111011000101000
1111011001100111
1111001000011001
1110111110110010
1110100111011011
1110101111101011
1110111101001110
1110101010001111
1110110111010001
1111000101010000
1111010011011101
1111001001111100
1111110001000010
1111100100100111
1111101000010111
1111110110111011
11110011
10101111
1111110100010000
101100010
1111111010101001
1111111010100111
1100010100
111011
1111111111010101
1111111000010000
1110110
1000100
100000001
1111110100010110
1111100110000001
1111010110110011
1111010011010011
1111000011001011
1110100010010010
1110100001100010
1110011000111000
1110101000000010
1110100110011010
1111000010110100
1111100001101100
1111011111101000
1111101100010100
1111101111101110
1111110111001101
1111110011110110
1111110001101010
101101
1111110111000000
1111110011011011
1111110110101010
1111111011100001
1111110111100111
1000000010
1110000000
1111111100110011
10111000
1111111100110001
100100000
1111111011110111
1111111100111100
1111110101000110
1111100010110101
1111010111000011
1111001101101110
1111000010101111
1110101011101100
1110110111111101
1111001011101111
1111100100011001
1111100100000011
1111111110101001
1010010000
1111111000001001
1010111101
1111110011111101
1111101001101100
1111111001110100
1111100100010111
1111111100100101
1111111010101100
1111101011001011
1111010111
100010
1001011000
100001101
1111110111010000
1111111001011001
100111110
10011000
11000011
1111111011001101
1111111100110110
1111111000111010
1111100110110011
1111011000000101
1111001100001011
1111001011000111
1111010011110001
1111110011101000
110100010
1101110011
10110011110
100111011
1111111111110010
11100101
11001
110101100
1010110110
1011001101
1111101
1001101111
111010101
1111111000011001
1111101
1111110111000101
1111111101010111
1111111111000001
11111101
11000
1111111110000001
1111110111010011
1111111110001110
1111111100110010
10000101
1111111000111111
1111110000001100
1111100110011000
1111011100010101
1111101011010001
1111110110110100
10010000100
10111111110
10010110110
1101001101
10011100
110101100
1111111110111110
11111100
100010001
11010010
1011000100
1111110101010100
1111110111100011
1111110110010101
1011011000
1011100
1111110011100100
1111100
1111111100100000
1111111100001100
1111111001111011
1111110011000111
100000001
101110001
100001110
1000100101
1111111110101000
1111101111111000
1111110110001010
1111110011011010
100100
10000111011
1101010010
100000011
100010000110
10011001110
111110011
1011001001
100011011
111100000
1111100
1111101110101010
100
10010011010
1111111010010110
101100110
10000101001
1111111110110000
1111111100001101
1111110110101110
1100111000
101100000
1111110111110111
1111111000001110
1111111100110011
101110101
1100101
111001010
1111110111011111
1111110111110000
1111101100100001
1111110101110011
11000011010
11111011110
11001011101
10101000010
10110000100
1000101001
1010110011
1111000100
1100110111
10000100111
11001011011
1100111110
10110011
1111110011111010
1111111111011101
101010001
1111110101001100
1110110010
1111111100000111
1111111110110111
1111111000000110
1111101100000100
1111110000011111
1000100001
1111111101110000
101101101
11101110
1100001000
11110001
100000111
1111111110100010
1111011100
11001101010
10001010010
11000100100
100100111111
11010101100
1010001111
10011011110
110001010
1011001011
1011
10000001001
1111110001100010
1111111010111101
1111110011101111
1010110111
1111110110111101
1111111100010000
111011101
1111110111001111
1011
110011110
101101001
11100010
10100011010
11110101
1101110000
1110000110
10001110001
10000111101
11010110111
11101101000
1101001000
10011000111
11100101110
1001001100
10000001
1111111101111111
1111111100001101
1101100100
1101000
1110111100
101011
1111000
100100011
1111111000000001
1001101000
1111110110101001
1111111010011000
1111111100100010
1111110111010111
1111111110010101
1111110110110111
10110000001
11100010110
11100
101010010
1111111110011110
1011000011
10001110011
1111100100
10101100011
100001100011
10110110111
1101000
1111010110
101110011
100010110
1010101
1010000001
111000100
10110110
101011101
110100001
1111111111101100
1111111000110100
1001110
1111101011000001
111
1111111011001001
111001001
11100010
1000011100
110111100
1001111000
1111110100110101
1110101001
1111111011010010
1111111011101111
10001101
101111011
1110111001
1101000111
10000110110
1111100001
1111111111010010
100000
1011010011
1001110010
111011001
1111110000111101
10011110
11100011
1111110111100011
10010010
1111111000111000
1111111111110000
11011000
1111110100100111
1111111001111001
10000100
1111111110110010
100011100
1111110000000111
1111111001101000
1111110111000010
10001111
1111001
110110010
101101010
1001111011
1111111101110110
11111101
110110110
1101001000
1100000001
100111010
1111111010111001
1111111010010110
1011010110
1111110111111110
1111111000101010
10000100101
1111111100100111
1010011101
1111111000111110
1111110111010100
1111101100110110
1111101111101111
1111101110010010
1111110100011000
10111010
1111111010010001
110101000
11001000000
101011111
1011001100
11100100
1111110010101010
1001000011
1111111111010111
110000111
1110011100
1111111011001110
111100011
1001111110
1011111100
1
1111111011000100
1111110000001101
1111111110001110
1111111011100011
1111110100000101
1111111000100100
1000100
1111110111011111
1111111011011111
1111101010110111
100011100
110010011
1111111011011000
1111111101100101
1010111110
1010001110
1111110111110010
1111110111111010
1111111101111011
1111111011010000
1111111001100101
100111101
1111110100001001
1111111001000100
1111110011000110
1111111011000001
101010011
11110111
1110011011
1100011110
10000000011
1101
1111111011000011
1111110011110101
1111111011110110
1111111111011111
11011101
1111111011100010
1111111110101011
1111110101011011
1111111001100010
100011010
1111111110011111
1111110010101111
1111110000100101
1111111001111110
1001010
1001110111
1001001
101000
1111111011011101
1111111001000101
1111110110110011
1111111001010010
111
11001100
10001101
1111110100101111
1111110110101100
1111111001111001
1100011
110001100
1100100001
1000000111
1111111111100000
1111110010110011
1010101
100100001
100110
1111110110000011
1111110001010101
10010010001
101000000
1111111011110101
1111110110100110
1111110101100001
1111111110010001
1111111111101010
1000000011
1111111011101010
1111110100111011
1111111010111111
1100111101
1000100000
10100110101
1100000010
10010
1111110110001110
1111111001110001
1111110111100101
1111101101001010
1111110001010111
1111111111000111
101111111
1101001010
1100111011
100010011
1111110111010110
100110011
10011101
1111101110000110
1111110010001010
1111111000111011
1111111011101100
1111110110000111
1111110001000110
1111110111001001
101101000
101001111
110011
101001011
1111101111111000
1111111010000010
1000100010
1111110000111000
1111111101000001
1011100
11110001
100010000
1111111000000000
1111111101111000
1111111101101001
1111111001011010
1111111001111100
11101111
100101111
1010011110
1001001100
1100101001
110001
1111111101010100
1111110110010100
1111110001001111
1111110000001110
1111111001100011
1111111100101000
1111111111011010
1111110010010000
1111110111011111
1111110111011110
1111111001110110
1111101101010111
1111111100011110
1010110001
1111111001111000
101010011
111011101
1111110101100110
1111110111010110
10110100
1010101011
1111110011100001
1111110011110101
1000111110
111111
100101111
11111001
11101001
111101001
1010000000
1100111011
10101101
1111111000111010
10111110
10100
1111111000001110
1000
1111111110011011
1111111110011111
100100
10000000
11010110
1111111100101101
1111111111111000
100100001
110111101
1111111100011000
1111101110010011
1111110001101000
1111110101011010
1111111111010101
101001101
1111101
1111111111110110
1111111101110010
11011011
1001111111
1100111100
1101001010
100000101
1011000010
1101010101
10000101101
11111111
1111111011110010
1111111110101101
1111111101000111
1111110101100000
1111111101110101
111101
1111110110101000
1111110101001000
1111111000110101
1111111010111100
1111111010100010
1111111011111010
111100001
1100110110
11100111
1111111111001000
101100001
1011111000
10100000
1000011011
1111111100000110
10011000
1100111101
1000011111
10000010100
10000000000
1100101101
1001000100
1111110100
10100000000
10111100011
10010101001
110011100
11
10001110
1111111110111100
111
1111111010010000
1111111100100111
101101010
1111110
1111111100111010
11011011
100111011
1000000110
1111111101111000
1111111000110100
1111111010101100
100010010
1010110100
10100101
101000010
1111111110001010
111011110
10010100110
10101100001
10011110110
10000110010
1101010111
1011111100
10010100110
10010101101
10100000101
1100001101
110000101
101101100
1010101001
1010000101
111010010
1101001010
1001011111
1001001101
1000011110
1111111111010111
1111111101001101
10101110
100001011
100100111
1011010
1111111100011011
10110001
1010001001
1011110111
1000100111
1011000100
1111001010
10010110000
10101101110
10111010110
10010010001
1110101011
1011001010
