1111110101110011
1111110111100101
1111111010010110
1111111111000010
1111111100110111
1111111011001101
10100010
11001110
1001001000
1110001
1111111010010011
1111110111101110
1111111100101111
1111110111000101
1111111010000101
1111111010110000
1111111010101001
1111111001110100
1111111011001000
1111111000110110
1111111011100011
1111111010001110
1111111101000011
1000110
1111110111101001
1111110110111001
1111110110111001
1111110101011101
1111110011100101
1111110110010111
1111110111111001
1111111011100010
1111111001111100
1111111001011010
1111111000110110
1111111111001101
1111111001001000
1111110110101111
1111111101010001
1111111110100111
11100010
1011110
1111111111101111
100011100
1000010010
100011000
1001101011
1001101011
101110011
1111111101100010
1111110011101001
1111110111110000
1111111001101001
1111110110001000
1111110101001100
1111110101000100
1111110111001000
1111111110000000
1111111010110001
1111111011110001
1111111100011101
1111111000101010
1111110101010100
1111110110000111
1111111001110111
1111111100111010
100100
100111000
11111
1111111001101010
1111110111110110
1111101011100110
1111101101111001
1111111001101100
1111110110100100
1111111111001100
1001010111
10001010110
1111111101100111
1011100100
1001100011
1111111010111010
1111110111001001
1111111001110010
1111110110110101
1111111010100001
1111110010110100
1111110011101000
1111110111110010
1111111111000101
101
1111111011110100
1111111000001000
1111111101000100
1111111111101101
1111111001010001
1111111100110100
110101
1100100011
111110110
1111111000001100
1001101011
10001100010
111111
1100000
1000111101
1101000
1111111111000011
1111111101000111
11001011
1111111001111111
0
1010111100
1000001
1111110010110101
1111111000101011
1111111000100000
1111101110011010
10000
110110000
101101001
10110101
1111111110100001
1111111010100101
1111110111010001
1111111100011000
1111111101101111
1111110101100011
1111111110110001
1111110001111010
10110110
1111111110110011
1111101010011011
1111111010010111
1001010101
10011110101
101101
1101000111
1111101110101000
111010010
1111110100000011
1111111110010100
1001101101
1101001100
101010
1111110011111001
10010111
101111
1111101101111011
1111110101000011
101111
111010011
1100000111
1111111100111100
1111110100110101
1111111100011101
1111111101011001
1111111010000000
1111111100100100
1111110100011000
11011011
1111110111011100
1111111111010011
100001
1111101111010101
1111110010010100
1111111011010110
1111111010111000
1111101110001011
1101001
1111111011101001
1111001100
1010010001
1111111110110000
10000
100100111110
11001100100
11111111
1111100110110010
100110111
110010011
1111100110110000
1111110011100011
100111010
110110001
110010000
1111111111010111
1111111100101110
1111111101101110
1111111010001010
1111111100111111
1111111010000110
1111111100100111
1111111010101101
1111110100111001
1111111010011111
1010110110
110011110
1111111101000000
1111101100100101
10110011
11110111101
1111110000100110
1101010110
1111111010100000
1111101010010000
1111110100110010
11011001110
1101001110
1111111100100101
1111110100100010
1111101111110100
1111110100101110
1111101110001111
1111111111001001
1111111000011000
1111111101111001
1010000111
110110011
10101101
101001101
1111111001111100
1111111000100111
1111111110100001
100010101
1000010
1111110001000011
110011100
1010101
101001001
1111111110000010
1111101011
1110110011
10100111110
10010010110
1111111001010001
1111110101011001
1111110110011000
1111001001
11000111100
11010000110
1010000000
1111111101010000
1111111101000010
1111100111010111
1111110001101011
1111111000111010
1111110111111110
111100011
1111111010001100
1111110011101010
1111111000110111
100100101
110011111
1111110111100010
1111111001111001
101
1111111110101110
110000101
110010001
1000101
10100111001
1111000101
110011010
1111111110101110
1111111111011100
1001001110
1011110011
1000011110
1111101010101011
1111111010010111
1001010010
10111100000
1111111010011010
1111110011110001
1111110011010001
1111100111110011
1111001110
110111011
1111111011111010
110001101
1101000110
1100011100
10010010
1010110011
111101010
111001001
1111111101101101
1101
1010110110
1100111110
110111011
1110101111
10000010
1111111000000001
111111101
1111101001010111
10101011
1100000011
1111111110110101
101100110
1111110101011101
10110010
1010100110
100010110101
10000110110
100001
1111101101010001
100101001
101100
1111101010000100
100100111
1111110000110000
1111111101100111
11011111011
1000101
11001001011
111110001
1111111111000000
1111111001110011
1111110110100011
1111111100111111
11010111
1111111100110000
101100010
101001101
11011010
10110001000
10011100101
10100100010
10011011001
10010111
10100111000
1111110000011100
1111110001000100
101101101
1110000000
11100011
110110101
1111101111111100
1111110111011010
1111111001001110
1101010111
100000110
1110000100
11011001111
10111000110
1011001011
10011010011
10000101001
1111111110100010
1111111000100111
1111111010011001
1111110000011101
1111110100101001
111111000
10011111001
111010001
100110101
10000100
1111101001000000
1111111010000000
1111111001101001
1010000000
10010110010
1000101110
10111010
10111011
10000110
111011111
1010011000
1011111100
1010011100
1111110110001111
1111111001001011
101101000
101011110
100000000010
100001001001
10000110111
11100011110
1011010000
1111111101001001
1111110111111010
1111111010001001
1111110011110000
1111110110110100
1000000111
1110011101
110101001
1110110
1111111001101000
100011010
1111101010110010
1111111101001110
1111111110001101
1111111100111001
1111111111001000
1111110110101101
1111111100101100
1110110111
111111101
11101001
1111110010011001
100011010
110110001
11000100
100001001010
11101101110
101101000
110011111
1101001011
10011111101
1111111111100111
1111111010101000
1111111100000100
10100110
1111110111011101
1111110000011010
1111101110100110
1111110001110011
1111111111110001
1111110101101000
1111110110011110
1000011
1111111000110010
100110
1111111000110001
1111111011010110
1111111001110100
1111100011100110
1111111100110100
1111111001111110
1111110001111010
100101000010
1111110000010000
1111111010010001
11111011
1111110010111010
101000
100110011111
1000011110
1011111100
10010011101
1000111011
1111110111001011
1111111001001110
1111111100000010
1011000
1111111001000110
1111110100000001
1111101001110101
1111101100111010
1111110101100111
1111101011101100
1111101000010010
1111111111101100
11011010
10010111
10111110101
1011110
1111110111100101
1110010010
1111111000011110
10101011101
1010100
10000011101
1111111010111010
1111110101101010
1111110000
110111100
1101110
10001011100
1010010001
1111111101101100
10010110011
101111010
10111110
1111110110101011
111001
111010
1111111011101111
1111111111111110
1111110111001011
1011000
1111110000101110
101100010
1111110110011100
1111101111101110
11111001
1111111101001111
10100110101
1111101111110011
100110010
1010111000
1111110111011001
1111101000111000
1111110010111101
1111100001
1111110111011100
1111111111111101
1001110
100101001
1111111011100111
1111100011001100
1111111100011011
1111111011110110
1111110011101100
1111110011000000
1011100111
1111110110000111
1111110111010101
1111110011110100
10000110
10111101
1111111011111111
100101101
1001101
101110000
11111001
111010100
1111111001001110
1111111110101110
111000101
110100100
10011
1111110011000111
1010000000
1111110011011110
1111111011110111
1111110101001001
1111110010011001
1111110111001010
1111111001000100
1111111110100001
1111110100010011
1111101011100110
1111110000001001
1111101101101001
1111011100111010
1111100110010011
1111000011
1111111010100100
1111110111101101
1111111010111011
1111111100000000
100111
101000101
110101100
10011001001
1000100011
10111001111
1000101111
1011010001
1001111011
1111101100111100
1111110110110110
1111111110110110
1111110010110001
1111111101011100
110000111
1111101101101011
1111110111100011
100000001
1111110010000010
1111111000011010
1111111001001011
1111111001100101
1111100111101010
110010000
1111101010001001
10101100
1111100110110101
1111101110000110
1111101110010101
1111111001100101
1111111011001011
1111110111000001
1111110111101111
10100101
10101001
1011010111
1111111110101011
1011111000
1110010001
1111111011111000
1110000011
1101110111
1111111010101101
1111111111100111
1111111001001101
1111110100001110
1011010111
1000101000
1111111111111111
101000011
1010000100
111100010
1111101111010111
1111100011101000
1111101001101110
1111111010010110
1111101100111100
1111101101100010
1111101100101110
1111100010111110
1111101101000010
1111111001010011
1111101100111001
1111111011010001
11010111
1111111010010010
1100101110
1111110111
1100001000
1101101
1111110001000011
10000111111
10101011010
1000
110010
1111110101100101
1110111000
1011011111
1111111011000100
10010000101
1110111010
1010001
1111111011111101
1111111010111110
1111110110110110
110011111
1111101110101100
1111110011100011
1111111110001000
1111111010001100
1111110011111101
1111100110010010
1111110001000001
1111111001100101
1111100111000111
1111111101101100
1111111110110010
100000101
10001010000
10001010111
1111110110101110
1111111011100111
1110001100
1010011001
1111110111100110
1111111101011000
1100101101
1111101110011011
1111111111111100
1111111111000001
1111110110011111
1101101100
111110
1111101101100011
1111110001111001
111111101
1111111101010100
1111111000010001
1111101001101010
1111110000100101
1111100011110111
1111110100110101
1111110100100010
1111110101100111
1111110111110000
1111111110110001
1111110000111110
1111111110000000
1000001101
1010001000
100111010
1111111110011100
10110011111
1101111011
1111110110100110
1111110001110011
1111111001100110
111010010
1111100101010101
1111100010101001
1001010011
1011011001
11000011011
100001100000
10000000001
1111110100100101
1111101100000110
11111011
1111110110000001
11111000
11110111
1111101101010101
1111100000001110
1111111011010011
1111100011111000
1111111011011110
1111111000100101
1111111100101110
1111111010101100
1111111100100111
11100001
1111111011001001
1111111001101001
1111111000011111
1100100110
1111111100010110
1111101000001010
1111011011011000
1111110010111101
1111101011111110
1111110101110001
111001001
10000010101
10011110101
100011000111
1001110110
1001000110
10010001101
1101000110
1111111101000000
11111101
1111111111011100
11101001
100111011
11000101
1111101011100100
1111101111011110
100001
1111111011111010
100101
1111111100000011
11000111
1111111011111101
1111100111000000
1111101001111010
1111101110011110
1111110010010111
1111101001111110
1111110000001110
1111101001110011
1111101110101101
1111100001111010
1111110111101110
1010000001
10011001110
1001001001101
110011110100
10010101000
100001101
1111101010111110
1111111100111111
1111111111111010
11001110001
101001110
111111100
11000011011
1000011001
1111101100110010
1111110000101000
1111110000011110
1111111001111110
101100
1111101110100011
1111110010101001
1111110000111000
1111101110110101
1111110011011010
1111100100011110
1111010111101010
1111011100000111
1111111011101110
1111110001001010
1000001111
1111110011011100
1111101010011010
101011100000
1001001011001
111111011001
11100000111
1111101110000100
1101
1111101101110010
1111110111111010
111001
1000011001
1001011101
1111111001111101
111000000
1111111001010001
1111101111001011
1111111010100110
110110
1111111100110111
10110011
1111101101001010
1111101111001000
1111101010001100
1111110011101011
1111110100110111
1111100101011010
1111101011101000
1111100011001000
1111010000101000
1111011000100101
1111111001100110
1111100011100010
10110001001
1011101111000
1110000011100
101010101010
1111111011101110
1111101001111110
1111110010100100
1111110011000110
1111111010100101
10010100000
10100111
1111110010010001
1111101001101110
1001000011
1111111100000011
1111111100011100
1111111000110101
101100101
1111111111001011
1111111111100101
1111111000111010
1111111010010111
1111101101111100
1111110000101110
1111101011111000
1111011110001111
1111011100000100
1111011100100011
1111100011111011
1111111011111001
1100010010
100011010100
1010001001010
1100001010001
1010011001111
10101111101
1111100001001110
1111100001010001
1111110001111000
10010001
1100001010
11001
1111111110000111
100110100
10001110011
11101100110
1111111011111000
111101
1111111011101010
1111110010101110
1111110111101100
10110101
1111111001011000
1111110111010011
1111110111000011
1111101101011100
1111101110110111
1111100111111101
1111101100011010
110100101
10000100010
10111100100
11001101100
1000110001100
1100011111001
1001100011011
110001110011
10000010011
1111101010111100
1111110100101011
1111100010010101
1111111000111000
100110101
1110000000
1011010010
1000001101
10010000010
100010111
1111111101101000
100110111
11010110
1111110100111101
1111110111001101
1111111100000110
1111111001010101
1111111000000101
1111110011111001
1111110010011110
1111110101011100
1111110110000010
1111111111000010
10110110111
100100110110
100100001110
111101110100
1000101001101
1010100000010
111011010000
100100100011
1111110100000101
1111010000110000
1111011010110101
1111101001000111
1111111000000011
1101100
110100101
10001100110
11010010011
100001010010
11100011101
101100100
1111111100001000
1111111010010011
1111111000101000
1111111101010110
1111111100000100
1111110011000111
1111110011100010
1111110111110010
1111110111100000
1111111010011011
1111111101010000
110100011
1111011111
100000101101
110010001111
1000010011110
1000001110101
111010101110
10110110101
11011101
1111111011000001
1111111010011010
1111111001100001
1111110101001001
1111111010010000
10000000
100111110
1111000100
111010000
1101011000
1100110110
1111111001101001
1111110101000101
1111111001011001
1111110111111100
1111111100111011
1111111100111101
1111110101000000
1111110011100110
1111110110110010
1111110100101000
1111111000111011
1001101
1010110101
111111100
1101101111
11000001110
100100000101
101000111010
100100000001
11010010000
1001101110
1111111011010111
1111110111111001
1111111000011010
1111110110000001
1111110100101110
1111101010101011
1111110001010000
1111111010101010
1111111010110101
1111111110110010
1111111100110101
1111111001101010
1111111001111100
1111111100110010
1111111110011011
1111111011001111
1111111000111000
1111111001000100
1111110110101101
1111110101111111
1111111001010010
1111111000000000
1111110111110011
1111111001101100
10101101
111100000
10001011
1001110110
10001000000
1101000010
1111111
111110
1111111001111010
1111110011011011
1111111100101100
1111111101100011
1111110111100111
1111111011100100
1111111101110010
1111110101110110
1111111000101111
1111110110100111
1111111000110111
1111111001100100
1111111100111100
1111111111000101
1111111101101100
1111111101011111
1111111000000110
