1000001101
11101111
1011110
101110010
10000100
1111111101001101
1111111101000101
1101010001
1011011110
1111111110000100
1111111110100101
111100111
10110011
100110100
100000110
10110000
10110011
1111111101111100
1101
10110
111111
10111001
10101100
1111111110101101
101111111
10011000
1010
1111111110110111
1111111111100100
101100001
11110111
1101010
11101110
100001101
111011000
111111000
10110000
1011011011
1101001001
1010100100
1111111111000000
1111111101001001
10011
101000
111111
1111111110101100
1111111101010011
1111111011111001
1011111110
1110101000
1101000010
111111001
10111010
1111111001111100
1111110100111111
1111111100110000
110000001
100000000
1111111111110111
1111111011101000
1111111100110001
1010001
1111111110101101
110110
10001011
100000110
1110100001
1100110
1000101010
10110111
1110000001
1110001110
1110001
1111111000101000
111001
110001000
1111111100010101
1111111001001111
1101000
100100000
10001110011
111000011
1001011000
11001001
111001101
1
1111111001100110
1111111010000001
1111111011011010
1111111001011110
1111111100011011
1111111110011000
100111
1111111011110001
1111110110001010
1111111010101110
1111111110011100
101
111100
1111100
1001001011
101110010
1111111000100101
1111101001111110
10001110
1100111
101010010
1111111110010101
1111111011110010
10111000
1111111110011110
1111111101000010
110010100
1110110101
101111011
1111110011010110
1111111011001010
1000000110
1111111000001010
1111111100010111
1111111011100011
11101111
1100010
10011
101110110
1110100
1111111110000010
11010001
1111111001111111
1111111011100001
1111111011000110
1111101110010110
1111111101000100
10001100
1111111101010001
1111110011100110
1111110110010110
101000001
1111100111
1111110110001000
1011010100
10010111101
1010010110
10001111010
11000011110
100001010
1111110011101011
10000101101
1001000010
1111110100110101
1111111000001111
111001100
1111110101000101
10100101
1111111101010110
1111111011101101
1111111111111110
11010
1111111101100000
1011011101
1111111011001000
1111111011101101
1111111001000101
1111111011100010
10101
1111111111000100
1111111101111001
10101001
1111110100111100
1101101100
1111111100111011
1001110010
1111101100110011
1111101011011111
101010010
10000001110
10001101101
110000100
1111111100000100
1111111011101111
101110001
1111110001100110
1111101101001010
1111110101101111
1111111110010111
1111110001001100
1111111111011110
11110111
11010011
1111111111100011
1111111101110010
110000111
10100
1111111100100000
1111111010110011
1111111100111100
11000011
111011011
1111111110101101
1001011010
100001001
1111111101001010
11000001
1010010101
10011010010
1111110011100101
1100111000
1100000010
1001110001
1111111001011101
1111111100100000
1111110111101010
1111111011110101
101010010
101101011
1111110011000010
1001
1111111101010100
1111111110100110
1111111011111101
101
100011100
10111010
1000001000
1101110
101100010
111011011
1001001001
10111
1111110101010101
1111111111101111
10010101
11010010
1001110001
1110100
1111111111010010
110
1111110111001101
11100000
1101100000
1111111000010010
10
11011000100
1111101100010001
1111110000011101
1111110111000101
111011
10101100001
100010100
1100010
1001111010
11000001
110100100
100110
100010000
1011001111
1000010101
111001000
110101110
1100
1111110011101000
1001100011
111000010
11101011
1100001100
10101100
1111110111000010
1000001001
1000111011
1111110000011100
1111111101000001
110101101
10010001
111111011
1111111101000111
1111110010101110
1111111100010100
1000110100
1111111010000111
1111101000010010
1111111110010000
1111110101000011
101010111
111100101
1101001001
1111110111101110
1111111000101000
1000100001
1110000011
10000001000
110111111
10000110
1111110000101011
1000010100
101101
1111101010100101
1110100
110011011
1111101111100110
1111111111000001
1011110101
11110
10101100
1111111110110101
1111110101011101
10010101010
100010010
1111110111110100
1111110101100010
10011101
1111110111001000
1111100110101000
10011000100
1111101010
100111111
10110111011
10000110101
11001000
1010
1010101011
1101111101
101111010
1111111000111100
1111111010111001
1111110010110001
1100011101
1000100101
1111110111110010
100010011
1111111101100010
1101001000
11001011
111101111
1111111001010111
1111110011001000
1110001101
10001000
1111111000001000
11110001
1111111101101111
1111101101101100
1111110111010011
1111111011010000
111101010
10010100000
1111111110
10100010110
100110000010
101010110100
11011101
100110000
1010001100
1111111100101111
1101110111
1111111011011011
1101000
1111111010001000
1111111000001000
1111110101000101
1111111011001010
1111111010001110
1111111001100001
1011101011
1111110001110111
100111001
1111111001110001
1111111000011000
1111111101011100
1111111100010010
1111111110011010
1000100110
1111111010000101
1111110010111010
1111111111110111
1111111011101000
100010011
1110010010
10101111111
10011110100
100001011110
101000110101
1110111110
110100111
1010101011
1111111101111101
1010110110
1100000001
101111001
1111111101100010
1111110000010110
1111110010101101
1001111000
1111110110110111
100001001
1111111111111000
1111111000010100
10110000111
1100101001
1111111001111001
1111011000
1000001100
1111110111101110
1111111011101100
110011
101100000
100010110
10001010010
11000000010
11001101110
11011010001
1011101100
1001101111
1001011101
11111100
1111111010011000
1000111000
1111111000110010
1111111100010111
1011110101
1010010101
11111010
10111100
1010110010
10000011
1000011100
1111111111101100
10
10001001
1100111010
1111101110111010
1111101101101000
1111110101110001
10001011100
1111001
1111111001000100
1110001011
1011101110
1001001000
1111111111000011
11110001111
1101000110
1001000001
101101100
101111111
1111111011111010
1111101111101111
1111110011010001
100000110
1111111011110101
1111110110110010
1111111110000000
110111101
1111110101110100
1111111101000000
110011000
10011100
10001010010
110111011
1010000110
1111110101110100
1111101110001111
110011010
10110110
111000011
1111110111000101
10101010001
1000000010
1011100
11011000
10000110000
1111111111101101
1111111111000100
10111101
1111110100111100
1111111100100111
1111111110001110
1111110110001000
1111100001001110
1111101011111111
1101011
1111111011111001
1010010
1111111001110010
1111111000100110
1111110001111111
1111110111110101
11111
1111101110100011
1111111010000111
1111101101011101
1111111000111101
1111111011110111
1111111101001001
101101110
111111
1111111001000111
1110111000
10111110001
1111110101010101
1111111101111001
1111111110001001
1110100100
1111110100100101
1111101010010010
1111110011011101
1111011100011100
1111110101100100
1111101100011101
1111011010101011
1111011011110011
1111100001001000
1111111111010010
1111111100001100
1111110111010110
1111111110001101
1111110010110101
1111110110101100
1111101100000000
1111101101101100
1111101010011100
1111101000001100
1111101111000000
1111110001101111
1111110110111111
1111111110000110
101000101
1111111110001111
1111101111110010
1111110000000000
1111111111000111
101110010
1111111000100011
1111111100101111
1111110010100111
1111110000110000
1111110100101111
1111111011110110
1111110001010000
1111100001101000
1111011100001111
1111001111100000
1111010001100001
1111011100011001
110000010
1111110110110000
1111111000001011
1111111101001000
1111110100110111
1111110000110001
1111111101100110
11110
1111111000101000
1111101100010111
1111110110111110
1111110111100000
1111111101011010
1111111010100110
11111000
1111111001000100
1111111110101101
1111110100101101
1111111100110100
10111010111
10101101
1111111101010000
1111101001110011
1111111010100010
1111010100011110
1111101000110111
1111100100110001
1111010101110110
1111001010010100
1110111010000010
1111001010111100
1111011100111011
1010101
1111111000011100
11101100
110111000
1111110110010000
100101110
1010000101
1111111010011010
1111111011110000
110001110
1111111001100000
1111110110101001
111101
1111111100000100
10111010011
10100101
111001111
1111110001110100
1111110011000000
1111101111011100
1111110111110011
111101101
1111100101110010
1111100100000101
1111000100100100
1111001101100111
1111000111011111
1111011011100010
1111000101110010
1110111011010101
1111001101111001
1111100011101001
100001111
11111110
101100111
1111111111011100
11110111
1010010001
1001000
1111111010001011
1000010001
11100101
1111100001011110
1111111000010110
1111111001010110
1111101010000100
1111111010110100
1101010
1011110000
1111101110010101
1110111010
100101101
111100001
1011101
1100010110
1111100100100001
1110111010000111
1110111101101110
1110111010100100
1111100101110101
1111010011111111
1111100011111101
1111100000010100
1111110011000011
100100111
101010000
101110011
111101
1010111011
1111111101101111
110110101
10110111011
1111111001100110
1111100101111010
1111111101111111
1111101111011100
1111111010001010
1111101100111011
1111110011011011
11101011111
1111111010100001
1111100110011010
1111100000011001
1111110111101110
1111110100100001
1010010111
1111011001
11011101001
111101010
1111100100101101
1111011111110000
1111100010100000
1111100010111110
1111110100000000
1111101111000000
1111110010101110
1111111111100001
1111011
10111000
111110110
1110011101
110100110
1001010100
1111110100100000
1111111100101000
1111111100000000
111101
1001001100
1111110111100100
1111101010111010
10001100011
111010100
1111111111110110
1111111101011101
10011
1100011000
10111100
1111111000110000
1101110001
101001111001
101011010001
1110001111
1011011
101011011
1111110001011101
1000111100
1111111111011011
1111111101001101
11010011
101010010
100111111
1000100001
1110100010
1011101000
1001001010
1111110110010001
1111111100001101
1111111010111110
1001010010
1111111101110100
1111111001101101
1111101110010001
1011111111
110100101
1111110110101101
1111100100001010
1111101111001011
1100000101
11101101001
1111010110
110110001
10111001100
110010010111
101010000100
1001101110
10101011
1110000
1000011001
1010110111
111111001
1001101011
1101111000
1111111110111110
110100010
11000011
1111110110000011
11011
1111111100101100
1100011000
1001111001
1111111100011011
1111111101000010
1111111011110110
1111110110101110
1111110010111111
1110000001
1111111010100001
1111101100000100
1111110000110001
1111111110010011
1101110110
1101100011
1011011001
11011110111
100010101000
100011001111
11011000010
1111110111111101
100011
11010010001
11111101000
1011110011
1001001100
11010000001
1110101001
110000100
1111111001000100
1111100011111001
1100111
1111110100100001
100100110
1011011001
100000000
1101111111
111110100
1111111100100111
1111110111100101
1111101101100111
1111011100110001
1111100011100100
100001011110
1010111111
1100000111
10111100101
110001011011
110110011110
10100111
100111100111
11110000100
1111111101001101
1000011101
100001110101
100011010001
1110010000
111110010
11001111110
10010101001
100110011
1111101111110110
1111101011011001
10000
1111111011001100
1111111110101111
1111111011100001
1111110111100011
101000101110
1000110011
1111110111110010
11010110
1111011010111001
1111000000101100
1111100000000010
11000100100
100101001111
110111001
100000101000
10110001111
11001000010
100001100010
100001000011
11100001011
1100110100
100010000
11111110011
11001010011
10000110010
1011000111
10000101101
1111110110
1101101011
100001110
1111110011000011
1111110001100101
100010010
11011001111
1011011100
1111111000011100
10011010111
11000001
1011010110
1111011111010000
1110110001111100
1110100101010111
1111100001100101
11110101101
100010110110
110110
10110001101
101001010011
1000111011
11110001110
11001101111
10101100100
100001011001
11001100111
100100110011
11001100001
10001110111
10110101001
1000101101
1110100010
101100001
100101101
100010
1111111101001011
10011100011
101011101010
10111010010
1111111110100001
1111101101
1111111010111111
1111101000010100
1111010100000000
1110111011101010
1110110001101110
1111110000000101
10110001
11110010010
110001100001
101011001110
101011100100
10111000100
100111111001
101111001111
111011011010
110111000001
11010100000
10011110100
1101101010
100111001
1101101111
1011001011
110010101
1111111101010010
101101
110101001
1001101110
110110111
10111011000
11101110111
11100001101
1111111010111110
11100
1111110110000010
1111000110010100
1110010011001111
1110011101001111
1111010011001111
1111111101101001
11011101101
111011100101
101001000111
11011011111
101100111010
101010010110
101111110001
101110000000
100101110000
11000111110
10001100111
1000010000
1111111110000100
1111111101111001
10011110110
111000011
1111111000001101
1111110110101101
1111110111111001
111001101
101101001
1111100
11101100
101100011
1111111001000100
1111101110001100
1111001010000110
1110110110101111
1110101011011110
1110101000111000
1111000100001010
1111101110110011
1111110101101101
1111111101010101
1011001011
10110101100
10011101011
100010110011
101111001011
100101100111
100000011011
1010000001
11100100
0
1111111011001000
1111111000111011
1000110110
101100110
1111111111100011
10011001
101011100
1100001
110011
101000010
1010010
1010011011
1111111110100101
1111100111000010
1111010000000011
1111000010110001
1111000111111111
1111010010100101
1111101001010000
1111111001000101
1111101101100110
1111110010000100
100011011
1100110001
10111000010
100111010101
11101001010
10111000100
1101001000
110000101
1111101
1111111100110010
1111111010000111
1111111111000011
1111111111001000
11001010
111011
10110
1111111011001100
1111111110101011
1111111111111110
1111111001111000
1111110101000011
1111111000000001
1111110100111110
1111101001011110
1111101101100101
1111110010001111
1111101100010110
1111101111101010
1111111101110100
1111110111011011
1111110110110110
101111010
100111100
11010011
11001010011
11011100000
10110101101
10001001001
1100011000
111011001
100101111
101111
101101
101110101
