11
1111111011111101
1111111100010010
1111111111010010
101111
11010000
111000111
1110110111
1100001111
1001100001
101111110
11111010
111100110
110010101
11101101
1101101110
1011101100
1000110010
1000101101
110000011
11100111
1000001
1111111100001000
1111111001011110
1111111011001010
1111111011000111
1111111110010111
1111111110110111
1111111110001100
11100000
100101110
110100010
1101011
1111111110110111
1111111011000110
1111111110000000
1111111110100101
1101
10010010
1001000110
101110101
110011
110101
110011011
1000011010
111111101
1101101011
10110010000
10110100010
1010000011
1010101
110011000
101111100
1111111101110110
1111111001101001
1111110101110101
1111110111100000
101111
1110000
1111111101001100
1111111111000000
1111111110011010
1111
1010001
1111111111001000
1111111100001000
1111111100100011
1111111100001111
1111111001111010
1111111011010010
1111111010011101
1111111110000010
10010110
1000100101
1111110101
10010001000
10101101001
10010100100
10100101100
100011000011
100000100110
11000011000
1101111111
1001100111
101100011
101001011
1111111110110010
110100
1111111100011110
1111111000011110
1111111100001100
1111111110100101
1111111101110010
1111111111000100
110100101
111001100
1111111011110000
1111111110110101
0
1111111111101100
1111111111110101
1111111000101010
1111111110011110
1001101
101101000
1010110000
1100101111
1101110001
11000110
111011101
1111100100
10100101011
10001110111
1101001011
1011000101
1101111111
1011110101
111001000
1111111011100111
1111110101000010
1001001
1000111
1111111010000000
1111111110101001
10100100
100000
100110
11100000
1111111100111111
1000
1111111111001010
101011110
1001100010
1000011101
100100011
1011011001
1000100010
101111110
1111111111100111
10011111010
1010001100
10111001000
11110101010
10001000010
10100011011
10100101100
1000011110
1111110011010011
1111111110000000
1111111111001100
11001
11010
111111111
111101011
11001010
1111111110011000
1111111111111000
0
1111111110100101
1111111110110011
1111111111001110
1111101
110011100
101001111
11011111
10000000
1111111010011110
1111110011110011
100110101
11111111
11011101
100010010
100001101
1011111110
11011101011
11111011001
100010011011
1001110011
110011011
1001011110
1001110011
1111111100011110
1111110111111001
1001001010
1101001010
1111110111111100
1111111101000001
11111
1111111110100101
1111111011111101
1111111011001101
1111111010001101
10111100
1111111111000101
1010111001
10110001
1011000
1001000101
110001100
10000111
101010001
1100100111
1000110110
10001
1000001101
10111110100
100001011010
1011110010
10011100111
1111111100110000
1111111001100001
1111000111
1110010100
10011001
1111111110000111
1110000111
1001111100
1111110110100000
1111110010110001
1111110110100001
1111111101100100
1001
1111111111010010
100111
1111111011110111
1111111011001110
1110110
10111011
1111111010010011
11110000
1101000100
1110000101
1101101010
110011111
10110011
1110000001
1111001010
11001110010
10110100010
1110111011
11100100100
10000001101
1101111010
1100000100
1101110100
1100110
11000011
100110110
1101110001
111100001
1111111101101100
1111101001101101
1111111111000101
1100110000
101011100
1111111111001001
1111110000001011
1111110001110010
1111111010000110
10000001101
1001010001
1111111100110111
1111111100101000
1111101100
1100011101
10000001111
1000001
1101100111
11001011101
1000111000
1111110111111010
1000000110
1100100010
11001001
1111111111011011
111010
11101100
10010
10001000001
1111111011001100
100011110
1010010111
10111000
1111111100000010
1111110110111001
100101010
111001100
1111111111110001
1111110110000100
1111110001001111
1111111011110001
1010010110
1100111
1111111010011001
100110011
11000
1101011001
11010100010
1101100100
10100011100
111011011
10001010110
110010
1010111101
1111110101111010
11001101
10111001000
11011010000
10100101010
1111111101100110
1111111100100011
1111111111101100
1011010001
110001011
1111111001001111
1111110111111101
1111110100010100
1111111000110100
1111110
1111111100100111
1111111101000000
1111111100111100
1010001
11000010
1111111001010111
1111111011101101
1111111
110010001
1111111101001001
100100100011
100110011
10110100111
11100100010
1111110101101011
1111010110101000
1111110001111100
10000001110
1111111111111000
1111110100010010
1011000100
1010100101
111001101
1111110111001000
1111110100110101
1111111110001010
111111
1111110110000110
1111111001110100
1111111010000011
1111111111000101
1001110
10111110
1111111100000101
1111111010001100
100010110
110010110
1111111100100110
101000100
1001010101
10000000010
10010111111
10101100100
1011000101
10100100110
1111111011010010
1111100010001001
1111001110100010
1111011111010001
1111110011010010
1111110111000010
1111111111111000
110000
1111111111000100
1111111111011100
100110000
1111110010100101
100000011
1000010000
1111110001011000
1111101111110001
1111111010010011
1010000101
1111111101100111
1111111010110110
1111110110000110
1111110110010001
1111111101101011
1010100100
111101111
1000000110
1101101010
1111111011011110
10111
10111011000
10100111000
1111110111010010
1111010110000101
1111100001010111
1111010101011011
1111010100001101
1111100110110100
1111110100011011
1111111000111101
1111101110001000
1111101111010000
1111110001111001
1111101110010010
1111110000100001
100010010
1011000110
1111111101011000
1111110101011011
1111110100011000
1011001001
1111111110101000
1111111001100011
1111111100101111
101001
10010010
1000100000
1001110011
1001011111
1110010001
1110101111
1111110110101001
1111111111001110
1111111001010011
1111101011011101
1111100101100100
1111011010000001
1111010110111101
1111101100100111
1111111001100110
1111111010101110
10000
1111110110101010
10000101101
111111101
1111100100110101
1111101101111111
1111111110111001
11000110
1111111100100100
1000111110
1111110111011011
1111111011000111
10110011
1111111100011010
111101
100111010
100110001
110111101
10000011
1111111101011000
11011111111
10000100111
1111110100110000
1111111001110100
1111111011001010
1111111001001000
1111111000101011
1111100111010110
1111100110001110
1111101111010001
1111110000111100
1111111001100101
10001011
1111110111100001
1111111101000111
1111111010011010
10110010
1111111111011100
1111110101001011
1111110000111011
1111100001001001
11111100
10111001
1111111010100010
1111111011110111
1111111011010011
101000100
1110111
1010100
1111111110010010
1111111111011000
1010001101
1011110110
1111111010000001
101
1010001001
1111111100101011
1111110000101000
1111101000111110
1111011011100011
1111100100111001
1111100011000110
1111101010110010
1001001110
1111111011011111
1111111101010011
1111101111010100
1111111011001110
100011000
1111111111101100
1111110000101010
1111101010111111
1111111001001011
1001001001
1111111010101011
10111001
1111110111000010
1111111000111011
10000111
10000001
1111111000111010
11010100
10011110010
1010101001
1111111010100000
1111110111000101
1111111010011110
101100
1111111000000111
1111101101110001
1111110111011111
1111101111011011
1111111110000011
1000010
1111110110100100
1000110101
110001111
1010101111
1000000001
101001111
1111110111100010
1111111010001010
1111110111000011
1111110100001100
1001000000
10111011
1111110100111000
1111111111111001
1111111110001110
1111111010001000
100101101
1111111110011010
1010110
101110000
111110000
101110100
1010100001
1011011001
101110001
1010000000
101111100
1111101111001000
1111101011000111
1111110001101010
1111110110101111
1111111111111000
1111110101111010
1111111111100111
1111111101001000
10100011001
10110110110
1111111110111110
1111110111100100
1000100001
10101101
1111110001110001
100010011
1000010010
1111111010010100
11101111
11000010
1111111010010111
10111110
1100110
1110001011
1101101100
1111111111001111
1111101110001000
1111110011010001
1111111111000111
11
1111111011111001
1111101111101000
1111101011011011
1111100011101100
1111101001010001
1111100010001100
1111101101101000
11001001
11000001
10001100110
11011011010
101111011
1111111100000011
1111111111110111
1000101011
1100101111
101100110
10111000
1111111100110110
1111111110001011
110111010
1111111101011100
1111111101000010
1011011
111001110
1111100110
10010111010
111101000
1111110001010100
1111110100111101
1111110010001100
1111111111101100
1111110100100011
1111100100100010
1111101000000110
1111110011101010
1111101010000100
1111110100111110
1111111101011010
1111110111010101
10001100111
11001010100
11011001
1111111111110111
1111111101001101
1111111011111101
10010101100
1111110010011001
100011101
11100010
1111111100100000
1110100000
1010111001
1111111100010001
1111111010001010
1101011
111110110
1110000010
10100100000
1111011010
1101000
10011101
1111111001010101
1111111011001110
1111110100110100
10001011
1111111001101011
11101010
1111111001110001
1111111101011101
110111100
1111111000100111
1100110110
1011101011
1111110000010011
10111101
101010000
1111110000001010
1111111001100000
1111111000000000
1111111110001110
1111110010101011
1111110100111111
111011
1111110011011110
1111110101111011
1010111
1111111111010010
101000100
1001001100
1000111111
10101010000
1100000001
1111111001101010
1111111100101110
1111111111111110
1111101110001100
1111111100010110
1111110011000101
1111101000011101
1111100011001111
1111100110000110
1111100110011110
1111100111010001
1111111010011111
1111110100011101
1111101110111111
1111110100010110
1111110001101010
1111100000100011
1111110010100010
1111111111101111
10100111
1111101101101001
1111101111110001
1111101101110110
1111101011010001
1111111001111110
1111111111111101
1100000
101111101
1100111
1111111011100001
10100100
1111011
1100101110
1000001001
1110000001
101101
101101010
110001110
1111110111101100
1111101001110101
1111101100110101
1111011011101011
1111100001011110
1111101111111001
1111110111000011
1111100111001111
1111101110111000
1111101000100111
1111101110111111
1111101011011010
1111101010001110
1111101010000010
1111110011001100
1111101100100101
1111101111011010
1111110001111001
1111111001100001
1111111110101010
100000111
110100100
1111111111101010
1111110111111101
11111
11001101
1000100100
1010010000
10100
1111110111010000
100110101
1111000110
10010100111
1111111110110101
1111110110010110
10010
1111111110010000
1111110001110000
1111110010101011
1111110010010000
1111111001110101
1111110001011101
1111101110010011
1111100111110101
1111101001100110
1111111000110010
1111110101110001
1111110000100101
1111110100000010
1111111100000111
1100000
110000001
1111111111110000
110000001
1111111111001010
1111111110111110
10011011
100011100
1111111011000111
11100110
100111001
1111111101010010
1111101111111000
1111111100001111
1111111100011100
1111110110010101
1111101001110000
1111111100011010
111010010
111100000
1011100110
100010110
1111111101000000
1111111001100000
101101110
1111111011111110
1111110111000010
11001100
1111111100100000
1100
1010110
11111010
1010000
110001001
1111111101010000
110011101
1111111100010100
1111111110011001
1000100111
100111100
1111111111101111
1111111110101110
10010000110
1111110110010100
1111111110101001
10100110
1111111010110110
1111110101100100
1111111011110100
1111111100111000
1111110010111000
1111101110110000
1111111100001101
110011
101110111
100111111
11010100001
1111111101111000
1111110000101100
1111111100000010
1111111110101011
1111111110100010
110100
1111111110010100
1111111100001111
1111111101001110
10010
1000001101
101010010
1111111110000101
100111100
10111
10011000
1111111110010011
1111111000001100
1111111111001100
1111110
1111101111110000
1111110100011000
1111111100001101
1111110010011100
1111111101110000
1111101111101111
1111101010001110
1111101111111011
1111110101010111
1111110001100010
1011000110
1011
1011111100
110011010
101011101
1111111010111000
1111111010110101
1010000000
101000011
100110000
1100101
1111111111000100
110001010
111001110
111
1
1101
1011001100
110110011
1111110001010010
1111110100001010
1111110100111111
1111101110111101
1111110010000011
1111110111011000
10100000
110010001
1111110111101111
1011011111
1111111000100111
1111101011100010
1111110000001011
100011
1001010
1110100011
1011110111
1111111100011010
1111111011111111
11010110
1101001001
1000101101
1000100010
1000110110
1111111101111110
1011011
11101101
101011110
101110101
1000111011
10011100
1111111000011101
1111111001010010
1111110110001101
101111
1011100010
1111111111101110
1111110010011100
100001100
1111111011101000
1111111000001001
1111111101001011
1111111001010101
1111111001001101
1111110011100011
1111110101001110
1111111101100111
10001100
100100110
101001110
1111110111110011
1111111110011101
111110100
1111000110
1011000001
111001000
11010110
100111111
101100000
101
1111111111010010
1010001
1111111011011101
1111110100010111
1111110010011000
1111111000000110
1111111000101110
1111111011011101
1111111111101100
1111111000010100
1111110100010011
1111101100110010
1111110001111000
1111110100011011
1111111011001110
1000011101
1111111010101100
1111110110110101
11100
100011001
1010110100
1010010100
1111111110110101
10000110
1000111000
1011101111
111000010
111001110
110011111
1101001001
1100010001
11011101
11010010
1011111
101101
1111111110001111
10000000
1111111110001111
1111111100111111
1111111100100110
1111111000110010
1111111100001010
1111111110011000
1111111111110010
10011000
111110
11001111
1000010
1111111100101010
1111110111110100
1111111011001011
1111111110110111
111100110
1100111101
1001001011
110111100
1001110001
111100100
100100000
1010001111
111010010
1011010110
1100010010
100101101
11010000
11110011
100011110
111111100
1011011011
100011000
101001011
10111111
110010010
1000001010
100101011
11111001
10110010
110110010
1011101100
10000001000
1011001001
100110001
1011100011
1100110001
1011101100
1111110101
10000011101
1011100000
1010001010
1001101111
1010010111
1011000101
