1001011011001
1111011001000110
1111111110011010
1110000100111101
1111010000101
10001100001111
11010110101111
1100001101
1110011100010011
1110110011100001
100100011110
10000000110
101010101111
10101011011
110111001100
1111110110110101
1001111101001
1101010111000001
1110110100011001
1111100101101111
1111000101101
1000000110011
1101111000110001
1000010100100
1001110000111
1110101011100
1101001010110
1101011101000011
1110100101011110
1011101011010
