110111111010
100010000
1011001110
110110001000
1111111001001110
101111001001
101110101001
1111011010100
1101111101100000
1110010000011110
1000010110011
11100000101
1111110000100100
1110010011000110
10001010011
1111011100001111
1111011110100100
11110010010
1110110101101100
1111100111101010
1001101010011
100000001111
1010100001100
1010010010011
10000001010
1110010111011111
10011100110
1101110000100
1111110001010110
1000101101101
