1111111001111110
1111100100101010
1111100111111111
10000010
1111111011100000
11001111101
1111101111011110
1111000110010010
110000011010
111010100100
1111101010011011
1110111000110001
101111010
1111001011010000
101011111011
1011011111001
1101110011011101
110000110000
1111100100110010
1101000100000
1001011000
1110111001111101
1111110100101101
1111011101010110
111111000011
1111000111001011
1111110101011010
1111011011101011
1111001000110010
1110001001100110
