1010001010010
1111010110100
1101111101000101
1110011110110111
1111101110010110
1111001001110110
1111100011110101
1111110001110011
1101100000000111
1110000010100001
10101011101100
10111111011111
1101010101010001
1110101000101100
1110111111010101
1101010101001100
1111110101011000
1111100101100000
1111011000011000
110001100111
1111110010011
1110011011011
1111110010110001
1001110101111
11000101010001
1011001000111
1110110100101011
1111111001011011
100000101100
100100011001
