1111001010000110
100111000101
1111111001001000
1111100101000010
10100000101110
1100110101101
1000100011000
11010111
1110101111101010
1110101110111101
1101110101001101
10000000011000
1000100110010
1100011110010
1110010101000111
1111010101111110
1101000011000
10111010111
1000111100100
1101010111000100
1000110001100
1000011101010
11010101000
100001000010
111000101010
1111100010000000
10101100011101
100101110100
1101000000111
1000001010001
