1100010110001101
110010110100
1100110111010
1111100110000100
11000101000
1111011010111100
111101010111
1010010001111
1000111101111
110101011001
1101100111101111
1111100100111100
10101100101
1010100011
1110001010110000
10110001
111011110011
1110001101110
1000111010011
1111001100001100
100001010
1111110011010000
1111010000001001
1111010100100100
1111110000111100
1111100010100100
111110101010
1110101110111100
1111101110010100
1111111111001101
