1111111111011001
1101010010011010
1111110100111111
10100101110100
1110001001110
1011110010011100
1010100111010
1101100111110010
1010101101100
1101010111001001
1101111111111
100010011010
1100011110100101
1100100110111100
10111000111
1011000110111011
1101000101101
1011100000010001
1011111011010101
1110100110110110
