1110010101
1110010001
1010110000
1010100110
101100101
100110010
101010011
101001110
100000011
1110110
1111111100011100
1111111101101101
11010000
1011111
10011
11001
1111111111100010
110100110
1000011010
1001111110
110101110
100110000
1000000001
1000111001
111011101
1011001111
1011110101
1010110011
1001001001
1011011101
1000001001
1100111010
1010001101
1110001101
111111100
100100101
110110110
1001101
11110101
110100011
11001100
1111111011101111
1111111101011101
1010000010
111100
1111111110111011
111011
101010010
1111111011100111
1111111100111010
100100101
1000
1100
1111111101000101
1111111110101011
101
101010100
111001010
111101000
111101011
1000010010
111111001
110101111
111111011
110001101
11111100
100001100
11000010
1111111100111111
101001010
111100000
1111111010011010
1111110110011101
1111111011011101
1111111
110010100
1111111001110101
1111111101011101
1111101101100101
1111110001000001
1111110001011111
1111110111001110
1111110111110011
1111111001100100
1111111111110011
1111111101010111
1111111101110111
1111111101111011
1111111101001000
110
10011001
10000011
100101101
11111111
110110111
110011000
111011010
10001110110
10010011
1111110010000001
1111110111100101
1111111010110101
1111111101111110
1111110011011101
100101111
110010101
1010000001
100111011
1111111110111011
1111101010100111
1111100011110101
1111110110111101
1111111010101110
1111111101010111
101
1111110101100010
1111110100001110
1111111110000100
1111111111010011
11110000
10111
1111111101111010
101100000
1000101010
1001110011
101111010
100110110
1001000100
1000010100
10111010100
10010000001
1111111101010010
10001
1111111000110101
1111111101110101
111000101
101110100
1111110111000111
1111111010010010
10111110
1011001111
1000000001
110101011
11001100
10110100
1111101110100101
10000
1111110011101100
1111110010011011
1111110100110011
1111110110010001
1111110111100101
1111110100000000
1111111011110101
10100011
101000110
110100111
111100000
110000001
1100010010
100101100
10010110101
10001011101
1111111110001100
1010011101
10000010100
101011011
1011101100
10010010
101000011
1111110100100000
1111110110001100
1101011
11010000010
1111111010000001
1111110010010101
1111101111101000
1111011110100110
1111110000110110
1111111110000100
1111110011001010
1111100111101010
1111101010110000
1111101101010111
1111101100100111
1111110010111101
1111111010001100
1111111111001111
10100010
110111110
1010010100
10001000100
11100010
1011101111
1100001100
10001
111011100
110100110
1011100000
100101011
1111111100000100
100100111
1000000111
1100110
10001101
110001000
1111111010101110
1111110101010101
1111110101001101
1111110011001001
1111101011111101
1111101101110010
1111100000001001
1111101010000110
1111101100110011
1111110011110001
1111110111010101
1111110100000010
1111110100001010
1111110110101011
1111111011011010
1111011
1000101000
1010101010
1110000
1000110001
1000001101
1111100
1111111000000100
100101101
1000011100
10110
1010000110
111101
1000001000
110011101
1111110011101011
1111101101010001
1111110011111000
1111111000100100
1111111001101100
1111111011111110
1111111100000011
1111011101011100
1111011110011000
1111011001111111
1111100111011010
1111101001101110
1111110100100001
1111110010101010
1111111011101111
1111110011100110
1111101111011011
1111111001011110
11100110
1000100111
110100001
11010
1010000
101100111
10001011010
1011101111
1100110110
1111111010011000
1111111110000011
1111111111110001
11111000
1111111110001001
1111110001100010
1111011011
101110
1111101001111100
1111110111011100
1100100100
1111111010011101
1111101101010011
1111100110001111
1111011011110000
1111011011000000
1111011010011110
1111100100001110
1111101100101110
1111110101111011
1111110010100110
1111110100110000
1111111111001101
101101110
110000110
1001100101
100001100
111110101
110101101
110010110
1001110011
10101010101
1100110
110000
100110001
11011101
101001010
10000001101
1100000011
101111110
1001101010
1111110111000110
110000100
1111111110010110
1111110001111010
1111100001011000
1111011001001001
1111001011111001
1111010001010111
1111011011011111
1111101010000100
1111101010010000
1111110001000000
1111111000011101
110001000
1000100111
110000111
1101111111
111001110
1011010110
110001011
11100110
1111111011100010
10001111001
1111000101
1011101011
10010100010
1111111110100001
11000011101
1111001100
101111111
100000000
1111111110111111
1111110001110011
1111110000101100
101101011
100110110
1111110000000100
1111011100111100
1111001000001111
1111001001100000
1111011000011100
1111100010001111
1111100010010111
1111101100011001
1111110100010010
111001
1001001001
111101110
101110010
1000101
10101001
1000001000
1111111010111011
1111100111101101
1010100100
1011111010
10100111
1000101000
111100100
1110110111
110001
1111110
1000110000
10101100000
1111101010
1011101
11000111001
1111111110001111
1111110011010101
1111101101010100
1111000111001001
1111000010111110
1111010001011010
1111010111000111
1111011111010101
1111100011010110
1111101100010110
1111110110110011
1010110
101011
1111111110011101
10011
1111111000111001
1001010111
11010101
1111111011011101
1000010111
1000010000
11010001111
1001111001
100011100
110011010
1010001
10010100010
11010101010
1011011
1111111111
1111111010110011
1111111110011001
1110000000
10001111110
1011000110
1111010011000110
1111000111111101
1111001010100010
1111010101010000
1111011110011010
1111100101011010
1111101011000100
1111110100011001
11000110
1111111111000100
1111111111011100
101000101
1100
1111111100110000
100011
1111111111111110
100011001
1100111101
1110001111
101110000
1000100001
1000101101
110110100
1111101110011111
1110100001
10000001001
1000101100
111111
11110000100
100001011010
10111111110
1110001100
110011110
1111010110010010
1111001100111010
1111010001011011
1111010000001101
1111011101110000
1111101011110001
1111110000110000
100001011
11001011
1111111100101010
100110111
10000010
1111111010101001
10000010011
1110000110
1111111101010000
100011110
100000010
101100100
1111111100010111
1111111011111011
100100111
1111111001110011
1111101110010010
100111111
111111111
1010001001
10100
1001110001
1000100001
1010
10010101111
1111101010111100
1111010100101010
1111001101000111
1111001110110010
1111011011000011
1111101100011101
1111110001001101
1111111101011100
110101111
1000010
11111101
101101001
1111111010011111
10011010001
1111001011
1111110110011111
1111101010110110
1111110000001000
1111110000000111
1111111010100111
1010011
1111110000110001
1000101110
110100100
1111101010011111
1111111101111101
11111100
1011111100
110010010
10010110110
110111011
1111110000000001
1111100010000011
1111100101011001
1111101011000000
1111100110011011
1111100001011111
1111101010011111
1111110110010000
1111111111000111
111111000
1010010100
1010100111
110000100
1001110101
1011101101
1100011010
1111111010011011
1111110000001111
1111101100100001
1111111000010010
11110010
101000001
1111110100100011
1111100011100101
1111110110100011
111110000
1111111011001100
1111111000001001
11010010100
1111110000111011
101011011
1111110111110100
1111110111111010
1111101010011110
1111100111100001
1111110001000111
1111110000101000
1111101110111100
1111101010000110
1111110101000101
1111111110101000
110010100
1100010100
101011111
1001100100
101010111
1111110111110000
1111110011011101
1111111110000000
10001000111
1111111011111001
1111110111101100
1111111
1111101100100000
1111111000101000
1111110101001110
11100101
1111111001011001
100100100
1000011100
111001100
1101101
1111110100110100
1111101010001100
1111010
1111110000100100
1111110000011010
1111111000011011
1111101000101110
1111110011010101
1111100111000010
1111110010011000
101110011
1011001010
1110110100
100110110
10010100
1111111010011110
1111101101101000
1111110111011000
1111111001011001
1001101110
101100000
1111111011001101
1111110100111001
1111101110010010
110101001
1010100
10100
1111111011011011
11101001
110000110
1111111101100011
1111111111101010
1111111101001110
1010110100
1010
1111100111111101
1111110110110111
1111111111110010
1111101110000011
1111110001111101
1111110010100111
1111111000100010
110101111
1110010001
1110110110
101110
11011
1111111111111010
1111110111000101
1111110100011111
1111111111001011
1111101000101010
11001
1111111100000000
1111110101101011
1111011111011100
1111101100001011
1111110011110011
1111111101001011
1110000001
1111101001011101
1111111001010111
1111111101100101
1111101110111100
1111110001101010
1111111100101010
1111111010110101
111110010
1111011101
1111111010101110
1111110101000010
1111110001010100
1111111011111100
1111111101010111
1010111101
1011110100
10000101101
110101001
101110111
11010101
1111110100010011
1111110110010000
1111111100010011
1111110010010010
1111111000100101
11100001
1111111000010011
1111111011001101
10110111
11011111
1111100001110111
1111110001111001
1100011001
1111111100001010
1111110101011010
10011011110
11000110
1111110101001001
1111110101101101
1111111101011100
1100111000
1111111100010110
1111110011000100
1111110101011000
101000111
1111111101111001
1010101100
1001011010
1110111000
1000000001
101111111
11110
1111111111010110
1111111100110000
1111110110101101
100100111
1111111011110011
100000001
1111011101111000
1111110101100111
1111111000111011
1111101111010011
1001011110
111001101
1111111100010000
1111110001110010
1111110111011101
110100111
1111111110010001
10011100
10000010010
111000011
101000101
1011100110
1111111001001111
1111111110111010
100010010
1110010001
1010001110
110110101
1111010100
1001110100
1111111111111110
1111111110111111
100000
110101011
1111111001001110
1001011011
1111111111000000
1111110111101100
11011110
1111111101100010
1111111111001111
1111110101101001
1111111011111110
1111111010011111
11010000
1111111110101101
1111110110111011
1111111011000100
1111111110110111
1000111010
10001001110
1111101100110110
1111110011100010
1111111100111111
1000000000
1011010101
1001010000
10101011101
10010001100
10101000
1100101001
1111111111110110
1111111010001111
1111110001011111
1111111100101100
1011000010
11011000
110001110
1111101010011100
1111111000001101
1001000010
1111111110001100
1111110110010011
1111110001000110
101110110
1011010
1100110100
1100010010
10001000110
110001111
1111110110111110
10010100
1111101001001110
11000011
11100000000
1111111110010111
110010010
10011010
11100000
1110100110
1100101110
10000110
1111111111011111
1111111111001111
1111111111011000
1101101
1111111010100010
1101010
10110011
1111110000101111
1111110011010011
1111110110111110
1111110001111100
1111110110100111
1100011101
1100101101
10011110100
1111111110011011
1111111101100011
10001100011
11000000001
1111110100100101
1111111111100000
100000
101100101
10011011
1100111000
110001100
100101000
1111111010110111
1000101111
1110100101
1000101100
11101
1111111111110111
111011
1111111100011111
1111111110101011
1111111011101101
101000110
1100100011
1010010
1111111100101000
10110110110
100001010
1011001000
1111111100000001
11111100
1010011110
1111111100001101
1000101011
1111111111001101
1111111100011000
1001010
1010
1111111100010101
110101110
1000110111
1111111111000000
111001110
1111111001100110
1001000
10011010011
10010100100
1001000010
101000
101100100
100010011
11111011
1111111110111011
1111111010000111
1011000
1101000110
1001001000
1111101011011111
1111111101101110
1111110000101101
1111110100000000
1111110101110001
1011001
100
1010011100
1110100001
10000010001
110010000
1111111111011000
1111110001000100
1111101110111011
1111111101000100
100011
1111110110011000
10110110
1111111010001111
1010011111
10001001011
1001000011
101010100
11111101
100111111
101101000
101010100
100000100
1111111011000010
1111111010000010
1111111010100110
1111111000001010
1111100101101001
1111101000100110
1111110010010000
1111111101011011
101001110
1101001111
10110100
101110001
1111111011011010
1
1111110011111110
11000
1100101100
1011000010
100010
1111101110110010
1111111001100000
10101001
1111111101111110
1001001011
1111111111
111101111
100011101
101000111
111010110
1000011101
111001100
1000111111
101010100
1111111101110000
10011010
1111111000001100
1111110110000100
1111101001001100
1111110110010111
100000000
11001111
111111110
1111111100011110
111111111
1111111101001111
1111110101100101
1111111010001111
1111111110001011
1111111100101100
100111111
1111110101110000
1111111001111010
1111111100000000
1111111101111100
1111111111011000
1000101111
1101010000
1010010100
1000100111
101110000
1010101010
1100100010
1110101101
1001000101
101110111
11010100
11000000
11010001
1110110
1011001
1011111100
10000111
1010101010
1110010010
111100111
10101101111
10001110110
11110111
11110010
1010101001
101000111
11000010
1111111110000001
1111111111011000
111101111
111000110
110000011
111000101
1000011111
1000001001
1000111000
1001011001
1101001100
1110110011
10000110110
10001001000
1010110101
1000110111
101011001
1111111111111011
1111111100110111
1111111100100000
10111
1111111110111101
110100100
1101111100
1101010100
10000111000
1010000110
1111110101100001
1111111101001001
111001001
1111111110101011
100101000
101001000
110000001
1010000010
1010001001
110010100
1000011001
1011010010
1010001011
1001101010
1001110001
1011110100
10000001001
1111111101
1111101101
1011011001
1100100111
1101100011
1011011101
1011111101
1101000001
1101111101
1110011111
1111111001
10010110100
10000100011
1110110010
1011100111
1101001011
1111001001
1100011001
110111101
1001010111
1011010001
1010010000
1010100101
1110101110
1111010011
1101000111
1110011101
1100011010
1011110101
1010010101
