1010010100
100100111
1110011
101110101
111011000
111000000
11101100
1111111101001110
1111111010101011
1111110111110101
1111111011010101
1111111100110011
1111111000010011
1111110110100000
1111111001011000
1111111110001001
1111111110010101
10101
1111111010100110
1111111100111000
1111111111010000
1111111001000011
1111111011101100
110001
1111111110110100
11011
101011011
11110100
11100010
101000010
1001100011
1000111011
100010110
110010111
1101011
11011
100111101
110111
1111111011100101
1111110011111110
1111111101111110
1111111101101010
1111111101100000
11101011
11001111
1111111110001110
1100100
1111011
1110011
111001011
1110110
10101
1111111110000100
1111111100011110
1111111110100011
1111111100011000
1111111101101010
100010100
110100010
11111
1110101
100000000
100011100
110001100
10110
11101011
10011011
11100001
1011010
1111111110110010
1111111010110111
1111110001000111
1111111101010010
110010100
1111111110110010
1111111011011101
10000001101
10101111111
110100101
100001001
110111100
1001000000
101100000
111000010
1111111100100001
111011
11111100
111000011
100010101
1111111111000110
111000
1101110
1000001
11000101
111000100
100101100
110110
11101101
1011011
1111111001001100
1111111110100000
1111111010100001
1111110111111100
1111110000100100
1111111100001000
1111111100101110
101100111
1010000010
100100111
1111111010111010
1111111110010000
110101100
10000001111
110111000
1111101111011011
1111110100111011
1111111011000000
1111100101
10111
110011110
1111111110011011
1111010
1111111110110010
1110100
100110000
100101000
100101101
110100101
101101010
11001100
1111111100101011
1111110101001110
1111111110000110
1010101
110100
11010010
1111111111001000
10001111000
1111111111101000
1111111010000011
10000011101
110110011
101110100
100011010
10000101
1001011110
1111111100001100
1111111010110101
101101100
1001100010
1111100000
100001100
1111111110000001
100100100
1010010101
1011000100
100011111
10001000
100000010
101011001
111001111
1010100
1111111001110001
1111111000110010
100011
1111111100110101
1111110111011101
1111111001001001
111110100
1100000111
100010100
10100001
1101001101
1111110110010110
1111110111110100
1111110000111101
1111111010110011
101101000
1000010111
10101010100
11010010
1111111100001110
111001010
1101001010
1111111101101100
1111110110100011
1111111010001101
1111111110110000
11101010
100110011
1001011
110000101
1001010101
11010011
1000101110
1111111000101010
1111111111011101
1111111110010110
1111111100101011
1111110100101100
1111110100011110
1010010000
100011101
1000011
1010100
1111110011000011
111011111
1111111010111011
1111111010110001
1111110110011101
1111110111011100
100001010
1100010111
1110101111
100110101
10001001010
1111001
1111101111101010
1111110100011101
1111110010011011
1111111000001110
1001
1111111111011101
1001010010
1100000
1111111110001001
111010100
1111111100001111
1111101011100000
100001011
1111101111101001
1111011111010111
1111110011011111
1111111101101101
1011111010
10010010010
1111111110110010
101100010
10011010100
10100011001
111000
1111111001110101
1011110101
101101011
11001001100
10001001000
1111111101001100
1111111010100110
1111111110111110
1111111001100100
110010010
1111111101110101
1111111001101011
1111111110111100
10010101
1010100100
1111111101111011
1111111011001110
100010
1111111110101000
1111101110011011
110110
1111110110111101
1111110100001111
1111110100000101
1111111100010100
1111111011101001
1111111100000101
10101
111000001
1011110101
1111110000
1111111110000011
1111110001000001
10011001011
1101010100
11110011
10011100001
10000001
1111111100110111
1111111010010011
1111110001010010
101100111
101100011
1111111001111000
1111111001010000
101011010
1001001011
10100010
1111111001000011
1111111010000010
1110
10101110
1110111101
101
101010001
10100111101
110001011
10111101
1111111101111110
1011111100
1011010000
1110000111
10001010010
1111110110100111
1111111010000011
11011101
11001011
10111110111
11011010011
1101000000
1010001101
10000001010
1111110110111101
11110111
1101110100
100010010
1111111110011110
1111010
1010101111
1010010010
100110110
1010
1111111011001000
1100001111
1110100010
1111110100110000
1111110000100111
1111110111011101
1111110100010111
1010111
1111111110010100
11000111
1101011111
10100000011
10100101101
1001001111
1001010101
110110011
1110101101
11101111011
1110111110
110100101
111111111
1010101101
1111110100110100
1111111110011110
10001001001
1111111111011110
1111111110011110
11011010
1100111010
1110100
11100101
10011110
110100101
1111001000
10001110
1111110101110000
1111111011110100
1111110101000010
1111110100000011
111111110
10000100000
10001010110
1001001011
1000101011
110110
1111111110001001
1111111011100001
1111101000010001
1111111101110001
10000000111
1011111001
10100001000
1001101100
100100
1111111000000000
1111111000110110
10010011
1111111010000001
1111101010010111
1100000
1001011111
1111110101000100
1111111011110000
1111110110101101
1100101
1111111001110010
1110011101
1111111101010110
1000111101
1111111001111000
10000
10100010000
1010010001
1111110110100100
11010110011
1000010000
10100010
10111100100
1111110010010101
1111100011001101
1000100101
11101111010
10111011011
1111110100
11001100111
10110100
1011011
10011011000
10001000110
1111111011101000
1111110011001010
10010
1000100100
1111110001011100
1111110111001101
1111110110011101
1010011
1111111111110100
1111111110110000
1111111010010110
1101010010
1010100101
1111111011001010
11010110
1001011000
1110100010
1111111010011111
111110011
100010111
1111111110100000
1111111000001110
1111011110010100
1111011011110100
1111111110000111
1101100010
110000101
100010011101
1000101010
11010110
1101101000
10111111011
1011101111
1111101101100001
1111111100011011
110000001
1111111100010101
101000111
1111111110111110
1001100110
10000110111
1111111001000001
1001101101
1111110101000110
111101111
10000110
100001000
1010011
1101111010
1111111111001001
1000100110
1100101011
1111110011011001
1111111001000100
1111100011010010
1111011100111011
1111101110011111
1111111000011010
1111111001101110
100101000
1011101100
1011111100
1101010010
10111000011
1100100011
1111110011100110
10111001
110101101
1111111110010010
110010101
101
1111111010101001
10000010001
10100010101
10111001100
1111101111101010
1111111100011001
1111111110100001
1111111010100010
111000010
1111111110110111
1101010001
1111111011110011
1010100100
111101011
1111111111100111
1111100100010100
1111110000111010
1111101111100000
1111
1111101001011011
1111111101010011
1100011101
1111111100001010
10100110110
1100001110
1111111011101001
1111110010100111
110001
1111111110101110
101111111
1101001010
1111111100011110
1111110111010100
1010010110
1111010011
11100000
1111110010101110
1111111001011111
1111111011001100
100010001
101100001
1111101001101011
10000100001
1111110000010100
1111101000100111
1111111011000100
1111101101010100
1111100101010010
1111010100110001
1111110110111011
1111000
1111101010110010
1011
11100001
1111101111010011
1000001011
1111111111011100
1111101111110011
1111111101011111
1111111001010110
1111110110111110
1000100011
10100011
1111111110001000
111111000
1111111001010100
1010111101
1000011100
111000
1111110000010011
1111100110100101
110111010
1111110001001100
1111110111110011
1100110000
1111110101100011
1111111000111010
1111110011000010
1111101110111101
1111010110100100
1111100011010101
1111110101101011
1111100110110110
1111111111101010
1111110001001101
1111111011110000
1111110101010010
100101110
1111111111001100
1111111001000111
1011000101
1111111111100110
1111111110111000
1010000011
11011001
1111111110011111
10100101011
1111111100100111
1111110011100110
1111101100011100
1111101001000100
1111101010101000
1111101001000000
1111111111100010
1111110110110000
10001110
1111111101111001
1111111100010000
1111101100001101
110111000
1111101110010111
1111010111011000
1111101001011111
1111100110010110
1111110000110010
1111111111001100
1111110001111100
1111111101110001
101000101
1111111001010110
1111111101101000
1000100001
1110101110
1010011101
1001110000
1010100010
111111111
1011
111100101
1111110010010011
1111110010111001
1111101111011110
1111101001001111
1111110101000110
1111110111010100
1111111101010011
1111111000011000
1111111000011100
1111110001001110
1111011011111011
1111111010011001
1111110011010110
1111110000000001
1111010110000011
1111101001001010
1111101001001100
1111111001011101
1111111010110010
1111111000100101
100101100
1111111011100100
1111110111100000
1001000011
1100000110
1001000001
1101001011
1111100
1001101110
111011100
1111111110001000
1111110111111000
1111100100010110
1111110000001000
1111111000001100
1111110001011010
1111110101101001
1111101011101100
1111101010101111
1111101100000110
1111100111010101
1111101111111010
1111011011000010
1111100110010101
1111100100110001
1111101100001000
1111010101101110
1111110011010010
1111110100010100
101111001
100100000
1111110001011000
11001110
101001100
1111111000000100
101101101
1111110111100010
1000101011
1001101110
1000010
1010110111
110110010
1011010
1111101101100000
1111100011111101
1111100101101110
1111110111100011
1111101100010101
1111100001011100
1111100101110011
1111101000010110
1111101011000001
1111101100010000
1111100011100001
1111101101110010
1111110001001101
1111111001000101
100110011
1111110010110111
100010010
1111101100100011
1000101
1111101
1111101110101001
10000110011
111011011
1111111010111011
1000011
1111110111001001
100101100
100011011
1111111100010110
1011011111
111111011
1111111111000100
1111101100000000
1111101000100110
1111100111101010
1111110010110111
1111110000010111
1111100011100001
1111101001100111
1111111000111010
1111101101010000
1111101010100111
1111110110111011
111011100
1010011
1010110
1000
100000010
11111110
1111110010011001
1111101110101100
1111111010000100
1111111010101100
111100100
1010001
110111111
10000000
1111111011001011
1111110100111111
1111111100100011
1111111100000111
110011101
10100111
1111111001011110
1111101010110101
1111101110110011
1111110000111010
1111110000000010
1111101111010011
1111110011011000
1111101101101111
1111110000111010
1111111101000111
1111111111111001
101010010
100101100
1010110
110011100
1111111000000000
1111111000101010
111011110
1111110101111110
1111110111111000
1111111010001100
1111111101011110
1111110010010011
1111110101101001
1111111111000000
1111111101011011
1111111000100100
1111111010001111
1100
1111111101110101
1111111111010000
1111111100000010
1111111000100000
1111110100001100
1111101101010100
1111110001010111
1111110111011100
1111100101001110
1111101000110100
1111111100011111
1111110000110110
1111110000101001
1111111000100001
101000111
100010110
10010001011
10010100110
1111110001110001
1111111101011001
111001010
1010001001
1111111110100001
10101101
1111110110000000
1111110110110101
1111110110101101
101010101
1000100
1111111101011000
1111111100010000
1111111011000011
1101100
11110101
11001
1111110111111000
1111110110111100
1111101111001100
1111110010000111
1111111011010000
1111101001110101
1111101001110101
1111110001100001
1111110110100111
1001101000
1010111011
1111111111010011
10000001100
100001110011
1010101000
1111111111010011
1111110101011010
1111110010010001
1111111111110001
1111110101110101
1111111111011100
100100100
1111110010110111
1111111011101010
1111111101011011
1111111100001100
1010011
1111111100011000
1111111111001010
101001111
110111110
110000001
110100110
1001101
1111110110001000
1111110000100110
1111101110010100
1111110010000100
1111101010010001
1111111001110000
1111110100000010
1101001010
10101001101
1000000010
10001101101
10000111011
1000100011
100100111
1111100100110010
1111110101000111
1000011000
1111110100100110
1111110010110101
1111111100110001
1111101011110011
1111111011000100
1111111110100100
1111111001101001
110000
1111111011111110
1110111
1011101001
110011001
100100011
111110111
11011010
111010101
1111111110011000
1111111010001100
1011000001
1111111100100010
10110101
11000010
100000100
101011000
1101011110
10110100000
1101000110
11010
10000011001
1110100
1111111001101011
101100001
1111110100101110
1111101100010010
11000001
1111110111010101
1111111010010000
1111111011000001
1111111011100100
1000010110
10001100
10001111
101100111
111101011
100101111
11010011
11111000
101001011
110111001
111110111
101001111
1111111110010101
1000111100
1110100011
10000101100
1101111010
11011001111
1010011110
110000110
1000011001
1111000110
1000001101
1111111110001010
1111110101110001
1111110011101111
1111110111010010
1111111100000101
10011100
11100
1111111100010101
1111111111001111
100100010
100101001
10100000
10101001
1000001001
110101110
1000100101
1111010
111100011
111111110
110111000
1010001
1111111001010100
100011101
1101010100
1001001111
1110110001
111010111
1111111110000101
1111111000110100
1110011001
1111111111000011
1111110100000111
110000
101111
1111111011110100
1111111001101000
1111111011100011
1111101
111000110
1111111101111110
11100100
111011000
110101100
11110000
100000101
1001111100
1100100111
1101000000
1001110101
1011001000
1100010011
1001000000
11110000
1111111110100010
1111110110101101
1111111010001011
1111111000001010
1111111111000000
1000101001
1101111000
1110101111
10001000110
1000000011
101101111
1000010011
101100000
100100010
1001110001
1000011001
1110100111
10011111011
1011110101
1110010110
1000100111
1000000000
100110100
101111110
1000101111
1110001001
1111001100
1011001011
110111010
1000001100
1010101001
1110101010
1101010000
1001100000
1000101000
10110110
1000101110
1011101111
1011010111
1100001000
1110011011
1111010010
10110100110
10000010111
1011111101
1011111100
10011111111
11001000000
11000000110
11001001010
10000011011
1011110100
111000001
1011001101
1011011111
1000100110
