1111111111001111
1111111100001100
1111111100101001
1111111001100011
1111111011001111
1111111110101011
1111111110101101
1111110101000100
1111110011011100
1111110100010110
1111110111110110
1111110110101001
1111111000010000
1111111110010001
1111111001100110
1111110110001000
1111110100011010
1111111001110011
1111111000000110
1111111010001010
1111111001110100
110010
100010000
101010101
1111111100000001
1111110110100011
1111111000111000
1111111100011001
1111111010010001
1111111010010100
1111110100011110
1111110100111100
10010001
1111111101110001
1111111010110101
1111111010101010
1111111101011110
1111111101100010
1111111010011100
1111111010000100
110011010
1111111110010011
1111111000110100
1111111110010100
1111110011011110
1111110111110101
110100111
1010111100
1111111001011111
1111111101111000
1111111110011110
10011
101100001
1000011100
1001010100
110111000
110011
1111111011101000
1111110111101000
1111111000010111
1111111001110100
1111111001001001
1111110011100110
1111110001000001
100110101
101010111
1111111011010110
10000110
1111111010100111
10000001
1111111100010101
1111110101011101
1111110100010001
1111111111010010
1111111001001010
1111110010011100
1111101101000100
1111111011001010
10101010
1111111110101000
1111111000100100
100000011
1100011001
10010010111
11101000
101101100
101001111
110101001
110010010
1101011
1111111111010100
1111111011000010
1111111011100111
1010101
1111111100111001
1111110110110011
11010111
101010010
10000011
100010100
1111111110101000
1101101
1111111000010000
1111110000101101
1111110011100101
1111111000010000
1111111100110011
1111111110101100
101000110
1111111100101101
1111110110000111
1111111010111111
1111111100010000
1011110
1011110000
1011010111
1111111110110101
1110100111
111111011
10011111
10100100
1111111100000001
1111111010110011
1111111101110011
1111111011110011
1111111111110011
1001011
1111111111100010
111100000
11010
1111111100000011
1111111001101010
10100110
11010111
1111110011001001
1111110111111100
1111111110110010
1011010
1100111
1111111111110100
1111111110000011
1111111011111111
11111110
100101110
1111111010000100
1101110
1011000100
1111110010110001
1111110100011010
1111111110010010
101100001
10111001
101010010
11110001
1111111000010101
1111111111111011
11111101
1111111110101111
1111111111101010
1111111111101101
110010101
101000
1100111
101
1000001011
1111111100001100
11010011
111111010
1111111010001101
110011011
101
1111110110110101
1111111001011001
1111110100101010
1111110001010110
1101111010
1111111110101110
1111110111111100
100000010
1000001001
1111110101101001
1111
10100001
1111111111011001
1111111001101000
1010010110
110010101
10001100
110101011
11001
1110011
1011000
11000100
1111111110100101
1010110
1111110111111010
1111111110100100
110011
111011100
111001
1111110000111110
1111111110111011
1111110011110111
1111111000100001
1111110100000110
1111110100010010
1010001
1001010
1111101001100001
1111110010101001
1111111101100001
1111111111110100
101111
100000000
1000010101
1000010010
1111111011100101
1111111000100101
101110100
1111111110001101
1111110100110010
1111111001111101
1111111101100111
110010100
1111111000100110
1111110110000000
1111110100000111
1111101110011100
1111111100111000
1010011001
1111110111100100
1111110010011100
1111111101000111
1111111111010101
11000000
1011001010
10011001011
1111110111000101
1001011010
1111111101111001
1111110010010111
1100111
1101011011
10000100001
100010100
1100001111
1001101100
1111111111001001
1111111110011100
1111110010011011
1111101111111000
1111110111010010
1111101010110101
1111110101110011
1111111010010000
100111111
1111110110111000
1111111110101100
11001001
1111111101110100
1101101110
1100010010
1111111001011111
101110110
10100001001
10101001
1111110100101101
1111101000110100
1111111011011110
1111110111110011
1111111111101110
1111111110010001
1111110001110011
1100100101
111010100
10011001
1111111111001101
1101000011
1111110110010110
10
1110000111
1111101110111101
1111111000110101
1111111110011000
1111101110011011
1111110011111111
1111111111110111
1111111100001100
1111101110011001
1111111101010010
1010000
1111110110001111
10001010
1000101101
110111010
10000001001
101111001
1111101011110000
101000011
1111111111101000
110110110
1010101
1111111000010001
1111110000001010
10011010111
1101101000
1111111001110000
1111110110100111
1111111010000000
11011001
1000101001
1111101111101001
1111111101010111
1111110111011110
1111111010001110
1000111011
1111111010011010
1111111011101110
1111111001100111
1111111011011001
1111101101011000
1111111010111010
111111110
1111111111100101
10110001
1011011
100000010
1111111110001001
1010100110
1111111000011010
1111111111011000
1111111001110001
11000011
1001000111
1001101111
1111110111110010
1111101110011000
100011111
1100111
11010
10011110
1111101010100101
1111110011000000
1111111110001001
110001110
1111111011011101
1111101100001110
1111111010100111
1111101110110100
110111101
10110
1111111001011010
1111111011000000
1111111011010010
1000010111
100101000
1100000000
10100
1010011
1111110111110100
110101
1010000111
10011011
1111111101011100
1101101011
1111111111101001
1111110010011110
1111101111101100
1111100111000100
1001001000
1111110110101000
1111111111000010
1011011001
1111111000110001
100100000
10001001
1110101011
1010011000
1111111100000000
111011000
110101100
1111110110101010
101100
1111111110001010
1111110111000110
1111111100100010
1111110111
1101010111
1111111111110000
1010100100
10000000010
1111110001101011
111011010
1111111110000110
1010111
1111110001111000
1111110100110011
1111111110110100
1111110011111000
1111110111110010
11110100
10011001100
1111111101000001
1111110101011111
1111111100100101
1000010111
1100100001
1111110000110101
1001101010
1100011101
11111011
10010011001
1111110011
1111111010011101
10111111
101101011
1111111001001110
10100
1100100100
1111111000101010
1111110011010101
1111111100110110
1000110010
1111111011001001
1111111111101010
1111111101100100
1111111000101101
1001100000
10001100
100011100
1111111000000111
1111110111100001
1111110001001001
1011111111
1100001001
1110010100
1000010000
1111111001111010
1010000110
110001010
1110100100
100010
1010101110
10010011111
1111010010
101101000
111100110
110000101
1111110100100011
1111111111100011
1110011111
10110000
110000001
1111111000000010
1111110111010101
111111001
1111111101101111
101001110
1111110011010100
101100
1111110111001011
1111110000101100
11011001
1111111000011011
1111101000101001
100001010
1111111111010000
1000011
1111110011100001
1111101111101010
1111110000000101
1101100100
1111110100100111
11110010
10100100001
10011101111
1001010
1011110000
1101001101
11100001
1111101100011110
1111111010111001
110010110
1010010100
11001011011
1111111010001110
1011011101
1011111110
1111111100111110
1101001011
101010
1111111001101010
1111110001100011
1111100101001001
1111101101011011
1111110111001111
1111110010101110
10000000100
10011
1111110101001100
1111110101111110
1101111001
10000011
1111111011100100
1111110100101011
1010100100
111101100
1010000
1111111100101000
10010000001
10001111000
1111111101110001
1111110000110010
11011001
1000000000
10010000110
10001101011
110110001
100000000
1111110000100011
1111111011011000
1111110110001101
1111111011000001
1111001
100100011
1111110010000111
1111101011101000
1111111100110000
11101100
101100001
1111111101110100
1000000
101110001
1010010010
1111110001110000
1111111110000100
110101010
1111110001101100
1111111010011001
1111101011111000
1111110001011010
1111011000
100110110
1111110010011011
1111111100001101
1111
1011101
1101110010
1111111101011110
1000101111
1111111111110001
1111110110111100
1111101011111011
1111111111010100
1111111101101100
1
1111111010011001
1111110101101100
1111111111101001
1111111110101101
1111110101110000
1111101110011110
11001101
101000001
1111101101001111
1111111101010111
1111110011010110
1111110001000001
1111111100001001
1111111111011010
10110100
1111111000000101
1111110111000101
111100000
10001010
1111111011001001
1111111110101001
1111111010110000
1111111101000100
110100101
1111111000001100
1111111100100000
1111111100111101
11010100
1100111
10110011
1111111101011010
1011000
1111110001011010
100111110
1111111010011000
1111111000100101
1111110101010100
1000101101
1100000100
1111111011100111
1111110111000011
1111110011011100
1111111101011100
100
1101111101
1110010111
10010010011
110100111
10000110111
1100100101
10100101
1111110101011110
1111111111100010
1111111010100111
1110101
1111111000111011
1111111110101111
1111111001000101
1011
10110010111
111011010
100101000
1010100011
1011110011
1111111101000010
1111111010011110
11110
1111111100001100
1111100110111011
1111101100011011
1111100111000011
1111110010011100
1111111110110111
1111111010011000
1010010110
11000111010
11100110100
10100111100
11011110101
1111100001
10000110110
1100000100
101101101
1111110000100001
1111111111110111
1111111100001010
100100110
1111111100000000
1111111000101011
1111101101111010
1111101101000001
1101100
1111101110111001
1111111010001000
1011110000
1111110011101100
1111110011011001
1111111001000101
1111111001111100
1111101111010101
1111101001110110
1111111101110101
1111111010010110
1111110100010010
11000010
1001110101
11011111010
10111111111
11111110010
10111011110
1010011010
10000000101
1111010101
11000111111
10000101100
1111110010010111
1100110
1111111000000001
1111111111011110
11001001
1111111011000111
1111101111101010
11011111
1111101011010111
1111101101001000
111011011
1111001101
1111100100101111
1111111111001100
10110001
1111110110100110
1111101110011100
1111101110110111
1111101010001011
1111101100100010
1111100111010000
110100101
10000000001
101011001000
101001111011
11100101100
10010000000
10010011100
10011101001
100100001
10101111100
11110110
1111110010100110
1010010100
1111111011011010
1111111001111011
1110011
1111111011001001
1111110111001111
1111111011000111
1111110111111001
101010100
11000000
1111101101110111
1111110010100011
10111100
1111100100011010
1111011101011000
1111101011000110
1111110011000011
1111110011110001
1111111100111011
10100011
10000000100
100111100010
101011011101
100111100010
101101100
100000010011
10000101101
1100000101
1111111111000000
1101000001
100110111
1111110011011101
101010011
110101
1111110101000111
1111111010100011
1111110010111101
1111101010010010
1111110101001101
1111111101001100
110101001
110110100
110100
1111110000011110
1111101000011011
1111101010010101
1111110000000100
1111100110000111
1111110011000101
1111101011011111
1111110010110000
10101011010
1000101100110
110010011000
11100010011
1101010001
110101111
10010101100
101010111
10000001111
1111111101010101
1111111111010010
10100101
1111101101110101
1111111101000011
1111110111111010
1111111001001001
1111111010110000
1111101111110011
1111101010110010
101000
1111111000111000
1111110111001001
1111101101011100
1111101011111001
1111111100001111
1111110010010110
1111101101110100
1111111011010011
1111011101100000
1111011001101011
1111100111010001
11111110111
110101000001
1010110000000
101111011011
1101110000
1001011110
10100111000
111000111
110110110
1010001111
1000111001
1000101011
1111111011101110
1111110100100111
1111111000011101
1111110101001100
1111110111101111
1101101
1111110110001100
1111101110011000
1111111000000111
1111111101111001
11001100
1111110011110110
1111100000110101
1111101111010010
1111101001001101
1111100011010101
1111011010010000
1111010110011000
1111101111111001
100111101001
110111001000
111100001011
101101101111
11111011101
1111101001
100010111101
1101100110
100100001
1010111000
10011010001
1010100011
10010101
1111110110100001
1111110011100100
1111111001110001
1111110111000111
1111110100001101
1111001
1111111111010110
1111111100000100
1111110111100111
1111110000010010
1111110000001011
1111110110111111
1111111000001110
1111110110001001
1111101101100111
1111101000010010
1111011110100001
1111101010010100
101011010
101001101011
110111001011
110011010010
101110110011
10010001010
10101111001
11011011001
110000111
10001011101
110011100
111101010
1111111101001001
1111101110000100
1111111001111110
1111110111000100
1111111111101101
1111111111011111
1111111011101010
1111111001110100
10011101
111111000
1111111010011101
1111110000011110
1111111000110010
1111110110011011
1111101100110110
1111111110101100
1111110110110001
1111100100011110
1111011000011010
1011110
11010101010
101100011000
111100001000
111000000001
101110011101
11011001100
1111101100
1000000000
1011001000
10010001001
100101101
1010101011
10101101
1111110011101111
1111111011101101
1111111111110001
1111111110011111
111101
1111111011011001
1111111000110000
1111111001110111
1111111110101100
1111111010101111
1111110011001111
1111110101101000
1111100110110000
1111101001000110
1111110111000011
1111101101110001
1111111001011111
1111111011110111
1000010011
100010011111
111000011010
110101101101
100100001110
10111011111
10000000000
1100010011
1001101101
1111001010
10110100110
1111111101100110
1111111101110011
1111111110010101
1111110111111110
1111111101011000
10101
1111111000001100
1111111000011001
1111111000101101
1111111010011011
1111110101110101
1111111010010101
1111111111110000
1111111000101001
1111111101010111
1111110000000000
1111101111110100
1111111000111101
1111111110000000
101110011
10100000
10011111
100000000111
101111100000
11110111010
10101111101
10011001010
1101100000
10010011010
1110010010
1111111110100000
1011010110
1111111010111111
1111110000001101
1111111001100000
1111111011101000
10110010
110111101
1111111010101010
1111110101110010
1111110110011010
1111110111000100
1111110111001101
1111111100100101
1111111101101110
1111111010001011
1111110101000100
1111110011110110
1111110101110111
0
10001100
1111111100111010
1111111111010000
1101101101
10011100100
10101011100
11000111011
10011010000
1100000110
1111111101
10100101100
10101010010
1111101100
111011010
1111111011011111
1111110101001110
1111110100110010
1111111011110110
1111111111100011
1111111101101010
1111111011011110
1111111000100000
1111111100001001
1111111101111000
1111111110100010
1111111000001011
1111111011111011
1110001
10010101
11001010
11001
1110010
1111111101100011
1111111010100101
1111111100011001
10000010
110111101
1101111110
10010011010
101101000
101101111
100000111
1111111011010110
1011100101
1110100110
101000010
1111110100111000
1111110100101000
1111110110001001
1111111011011010
1111111100111001
1111110110111101
