11110011
100101001
11101001
110111010
1011101100
1001110101
1001011011
1101000001
111011100
10010001
10110101
100100001
11101110
100011101
110101100
1001010010
110001110
11100000
100010111
1001011011
11110001
1111111000010101
1111110001110011
1111110110111001
1111111001001111
1111110111100000
1111111000111001
1111111010111111
1111111110001111
1111111101110010
100100110
1011110011
11100010
101010110
1000000011
1011010011
1011001000
11001101
1111111011111001
1111111100111101
1111111111000011
1111111101010100
1111111111101110
1111111110000110
110011101
111001001
10000010
110000000
110011110
110101
1110100
1100001010
1101000110
110001010
100000110
1111111010010011
1111110101101101
1111111100101001
1111111111010100
11101001
100101101
1111111111111111
10101001
1010010101
1111111100100110
1111111101011101
1000000100
1000001001
10011111
1111111001101100
1111110101010110
1111111001001000
1111111110010011
1000100010
1111000
1111111111001000
10001111
1111110011110110
1111100011110100
1111101100001010
1111110101000111
1111111010101001
1111111101011000
10101110
10000011
11111010
10001
11000101
101100
100001
1001010110
1010000001
10011011
1000100111
1011100000
1101100101
1111111110100010
1111111110010011
1010011000
1001010000
1011000
1111111100100100
1111110011000010
1111110101101110
1111111111011110
1111111111100001
1111111001100011
1111110111000011
1111110011111111
1111110111010100
1111101010101001
1111101110000000
1111110011111111
1111110100111111
1111101010100001
1111111101110100
100101011
1111111110001100
1100000
11001110
1001101000
10000001111
1010101100
110100000
100101111
1000011101
1100110110
10001000001
1111111110001011
1111111111001001
1111100
1110100
1000010
1111111110000000
1111111100110111
10010011
1111111101001111
1111110110010100
1111110110100010
1111111100111000
1111101101101010
1111101110010110
1111110001110100
1111111000010011
1111111011110001
1111111000100000
1111110011001000
1111111101101001
1010010100
1111111100101110
1111111100010101
11101111
1111111011
1011111100
1101010000
1011010111
100111000
1000000010
1011011101
1100101100
101001000
1110000
1111111011101111
100000010
1111111100101010
1111111000100010
1111110111110111
1100010000
1111111110110000
1111101101100001
1111111010100001
1111110000001100
1111101000110001
1111110000010011
1111111111000110
1111111101001110
1111111001001010
100011101
11110100
1010010000
10011011111
1111111110111110
1111111100100111
1111111011101001
100110110
1111111000100010
1111111111000100
1011101100
1111111111001001
1111111001010011
1010
11000011
10111101
1111111111011001
1111111100111010
1111111101011111
100111011
1111110100000001
1111110101001011
11101110
1111111011000000
1111110111010001
101110100
1111111010101110
110101110
1000000110
1111101111011010
1111110001110000
1111110011011000
11110
10011100010
101000
1111111110111011
1111111001001110
111000000
1000011110
1111111110111010
1111101111111001
1111110110111110
110100100
11010101
1111111111000100
10101011
1011000000
1111111010110100
1111111001011001
1111111001011111
10100100
1011
1111110010011010
1111110100100111
1111110110000001
1111110111100100
1111101100001101
1111111000001010
11111111
1100
111001001
1111110110011100
1111110100010100
1111110011111010
1111101111011101
1111111101111101
1111101110101100
1100101
1000000100
11101111
1111111010111000
10001101000
1111110101111110
1111110111001010
1000000011
10001000001
10010101000
1010111101
1111111110111001
1111111011100001
1111111000110011
1111111000101110
1111111011111000
1111110101101111
111110100
1111100101110001
1111110011110111
1111110111001011
1111111100010000
1011000101
11101010
1111111010010110
111110010
1111111111101111
1111111111100001
110101110
1111101011000011
1111111100011101
100011001
11001001101
1101111001
10100111110
1111110101000111
1111110100101010
111010000
110000001
1111111000000011
1100000
10010100001
10111001
11100011
1111111110000111
1111110110000001
1111110001111010
1111110000000110
1111111010001000
1111110101000111
1111100001100101
1111111100010000
1110111011
10000101
10111111011
1111111010010010
1111101110001000
1100011101
1111111100101011
1110000000
1111100111110111
1001
1111110101
1111111000011110
1010100011
1111110111101001
110101001
1111111110001101
1111111111010111
110001101
1110111001
1111101001101000
1111110001100011
10001011101
110010100
110001111
11110101
1110
1111110101011101
1111101110101101
1111101110111101
1111101100110001
1111101011110111
1111110111001111
1000011100
1111111010011101
110111111
1011010111
1000110111
1111111011110010
101010101
1111111110011000
1111101101110011
1111110101000011
1111111100100110
1111100
1111111100101011
1111100
1000101000
1111111100011100
1111110101001000
1111110011110110
1010101011
1111101111001111
1111110000101101
10011001110
1011111011
110100010
1111111111000110
11110000
1111111010111110
1111110001111010
1111110100100111
1111111010010000
1111110001111011
1111101111011000
1111110110110000
1111110110000110
10010100111
10010000
1110111111
10000001110
1011001100
100111
1111110000110110
1111100110100111
110011101
10011010
110011011
1111110101101001
1000000001
11000111
11100101
111111100
1111111111101010
1111101101000110
1111100110010011
1111111101100011
110100111
1111111010010100
1111111111000100
1111111100001110
1111110100101001
1111101001111111
1111110101000110
1111111101101000
1111110111000011
1111110001100110
1111100010111110
1100011101
10101011111
100010010100
100011010100
10100000100
1111110101111001
1111100111001111
1111101000101111
110101101
1111111110110101
1111100
1100011100
1111110100000101
1001110110
1111110100001010
1101010100
10100001101
1111111101000110
11011011
1111111011110011
1111111011010101
110100001
1111110111010100
1111111010001000
1111111001010001
1111111111100011
1101011010
1111111011010110
110001
1111111000111010
1111111010011111
1111110000001111
10001000010
1110010110
101101001010
100001101110
10000000101
1111101111000100
1111011000011000
1111110110000011
1110101110
10001101
11011000
10010111101
101010101
1111110001010110
10111
1000110010
1111111011001011
1111111110010111
1000100
1111110100001000
1111110111011010
1101
1111110111001001
1111111100111011
1111111100100100
100100111
11100011011
100100
101011
11101101
1111111111010110
1011101010
1010110101
100111111010
10110101010
100010011101
1101000110
1111100110111110
1111011111101011
1111101100001100
1111111011101111
1111111011111101
1000000010
100110010
1111111000001000
1111110111111011
101010101
1111111001101010
1111111010011100
1111110101111111
1111110110001011
1111110101101001
1111111001100111
11011110
1111111011101101
1111111011011010
1111111010110111
111000010
1011011111
1111111001100101
101001
1111111011000111
1111111101011011
1111111110000011
1011101000
10001110100
11010110001
110101100100
1111101110101000
1111010000011001
1111110011101100
1111101011110001
1111101100110110
1110110000
1111110100010010
1111110101101010
10000001
1011000011
101000101
1111111000101110
1111101111110101
1111101110011011
1111101010111100
1111111011111111
1111111110000110
11110110
1111111111100100
11010110
1111111100100010
1111111110101000
1111111111010011
1111111001111001
1111110000010000
1111100111011111
1111110001101111
10011001001
1111111111011001
1100111111
10100110011
11001011011
1111101000011101
1111000111001110
1111110100010010
1111111101110110
1111100110001000
1001111010
1111111101111100
1111110111101111
101011111
1111110010101101
1111101110100000
101001
100101011
1111111001111010
1111101110000100
1111111111000101
0
100010100
100001000
110001001
1111111010110110
10000100
101011111
1111110101111110
1111110000011011
1111100110101001
1111100110001101
1110111100
1111111000111010
1111111100110010
1001010000
101101101111
1111110111100000
1111100000011111
1111110000011110
1111110100000101
1111110000100000
11011010
1111111000101100
1111111110100001
1010000110
1101000111
11101100
111101010
10001001000
111001011
1010010010
100000110
100100110
1010100000
101010011
101010111
10
1000110001
10001000001
1111110101001000
1111101111101011
1111110000110111
1111101010001001
1111110001111001
10100101100
11011000010
1100010101
10110001010
1111101011000100
1111111010100111
1111101010001010
1111111000000110
1111111111010000
100011100
1111110110110011
1111111101011011
10100101
1111010010
100001101
1011100010
1111111000011110
11110100
10010000001
1111111001110010
1111111111101101
101010111
101101010
110101101
100011001
1101110001
10000010010
1111110111101101
1111110100011100
10001101111
10001110
1010101000
10000110
10100000000
10001111111
1111111010010111
100000111
1111101000101011
101100010
1100011000
1001001101
1111110101110000
1111111101001100
11111010
10001101
1111111100011001
11101000
1111111100100100
1111101000101011
1001111101
10011011010
10000000
101001110
100001101
1001000000
11011100
101000001
100100111
10100100101
1111111010111101
1111110110000000
11011101001
1111111011011101
110101000
101011000
10110101110
101011011011
1111101011
1011001000
11010
1011001000
1111111010001011
1111111110111101
1111111110111101
101000000
1111110110100100
1111111011111110
1111110000110010
1111111110011101
1111101110101011
1111110110100011
1111111110111011
1111111101010110
10100111
100101
10010000
1101010111
1101100
100101111
11011110
100011000
110111111
100001
1111110101000100
1111101000011101
11111110
110000011
1100011001
111100010
11000100101
11000011101
1111110011000010
10000111
1111111010000010
1111111111111110
1111110101001011
1111111111001100
111101
111011000
1111110011000001
1111110001111101
1111111100100000
1010100111
1111111011101101
1111110001010000
1111110101101011
1010011
111010
11000001
1111111110001000
101101011
1111111000100011
1111110110010111
1111111010010101
1111111110110001
111100110
1111110010010000
111110101
1111110111000101
1111111100111100
111110111
1111110010101000
1111100110
1111111101011011
1111111100000100
1111111111000100
1111110001110011
1101010100
1111101111101100
100000100
1111010111
1000011
1011100011
10001001010
1011000100
1111110111110011
1111110111010101
10001100
1111111110001010
1111111101011010
1111111011101010
1100000
1001010
1111111000110011
1111111011111100
100010111
1111111101010000
1010010110
1111111110100010
1100101001
1110111111
1010100111
10110010001
10101110001
1111101111100110
1111110110001000
1111111000011010
1111111111011110
1111111111010100
1111111011100001
1111100111101101
10110101
10010111010
110100101
101110010
1011010110
1101010101
1110010011
10000001010
1111111100110001
1111111110110011
11110000
100010100
11000101
100110100
1111111101010001
1111111000001010
1111001100
100101110
1111110100000001
1111111110101100
1111111010111000
1000011010
11111100
1111110110111101
110001111
101001111
1111111110001001
111010101
1111110011101011
1111110000011110
1111101111010010
1111111101010101
1011010111
101000100
1111110100001000
1111110101011110
110100100
1111111111011111
11000
10000100011
1111011100
1111001100
1001100101
111110101
1110100
101010110
11001110
1111111011001001
101001001
1111110
1111110110110011
1111111000100011
1100101
1111100101000101
1111101000100101
1111101000111111
1011101
110110000
10111011110
111101
10011110
1111111010000001
1111111001101000
1010110110
1111110000010100
1111011101001001
1111111100110100
1011000100
1011100110
1111111101100100
11011100
1101101001
111101000
111011010
111110010
111010000
11010110
100100011
110011011
11000
1111111110111001
1111110110000101
1111101001110110
1111101010101111
1111110110100110
1111111111110110
10001110
1000110001
1100101010
1010110010
1111110011011000
1111111100100111
1111111100010000
1111111010100111
1111111111001011
11010100100
1001000001
1111110111001011
1111110011010100
1111111110110111
1111111001101011
100100000
101100010
111
100100110
101101010
11001100
1001010011
111011101
111011001
101110000
1111111111110010
1000010101
11110
1111110010110000
1111110011001100
1111101110001100
1111111110111101
10001101
10111111
1111111101110100
10111010
1010111000
0
1111111010011010
1111111000111100
101011011
11101101
11101110
1111111111101011
1111110111001101
1111111000001011
1111111010001001
1111111000000010
1111111101110010
1111110011110100
1100110
1111111111010001
1111111010111010
1111111111110111
11101001
10100100
10100
1111111110100111
10000
1111111101001100
1111110010010000
1111110011111101
1111101100010011
1111111000100100
101101010
1110010110
1111011000
1111111011000000
1011101
1111111100111111
1111111001000011
1111110111010110
111110110
110110001
1111111111011101
1110010
1100000
111010
100010100
1111111100010010
1111110100010110
1111111010000111
11010111
110001100
10110110
11001011
1010011011
1000011001
110111111
1001000
1111111001001100
1111111000010010
1111111010111000
1111111100011100
1111110100110101
1111110110100111
1111110101011010
1111111111010111
111010110
1111111010101110
1111111111001111
1111111100101011
1111110010111100
1111111000100011
1111111000001111
1111111101101111
1111111101011101
1111111010010110
10000001
101011101
111001100
1111111110001111
1111110100111000
1111111110011100
11000110
1000111011
1000010110
111101000
1010111101
1111010111
1110011101
1000111000
1111111110100100
1111110110011110
1111111101110101
111000000
1011000110
11000111
101100010
1111110111001111
1111110101001010
11011011
110101000
10001101111
1101011100
100101000
101000110
1011100
1111111111011110
11101
1111111111000011
10011100
101111000
111110
1110101
1000010101
1001110110
1001100000
1000111110
1011111111
1100010001
1110001100
10000111110
1010000011
1010110001
1010011110
1000001011
1001001110
101110010
100011100
11000011
1111111111111010
11001111
100011100
1010011110
10000001110
10000110001
1001101001
1100011001
1111110110
1011001010
1011011101
1110101100
1011000111
110111100
1011101111
10010110001
10000011101
1100000100
1011111000
1100000011
1111110111
