1111110111000100
1111111000010110
1111111010111100
1111111001101101
1111111100101010
1111111100111110
1111111110001011
1111111110000110
1111111011010010
1111111110101011
1111111011100100
1111110110011001
1111110110010001
1111111100111100
111000000
11010
1010001
100110110
1100100
10101110
1111111101011010
10110010
101010000
1111111111111001
1111111101100101
1111111001010001
1111111010010001
1111111101000010
1111111110010010
10000010
101000
1111111110001100
1111111010101111
1111111010100111
1111111101010000
1111111101010010
1111111011100000
1111111100110010
1111111110101110
100000
11010000
10010000
1111111111001000
1111110011110111
1111110011111000
1111111110001001
111110010
11001101
1111111110010001
1111111100100000
1111111001000010
1111110110100110
1111110101110101
1111111111010111
1011001
11110100
11111100
1111111111110000
1111
10001111
1101010
10110011
11011010
1111111111111000
1011111
11001101
1111111110111000
1111111110101111
1111111101011001
1111111001000100
1111111101110010
1111111110100111
1111110101110110
1111111011011001
110001000
1111111011100111
1111110001000000
1111101110001001
1111111101100000
1111101011101100
1111100110110110
1111101001100011
1111110100011110
1111111000010011
1111110010000000
1111110111011100
1111111101001100
1111111110100000
100010111
1001010010
1000111010
101010011
11011
1111111110010001
1111111010000000
1111111010110011
1111111100000000
1101111
1100011
1111111100001100
1111111000011000
1111111101111001
1111111111100011
111101000
1111111110011111
11100101
100011001
110110010
1111111001110100
1111111011001000
1111111110010111
1111111101010100
1111111001011100
1111110011001100
1111111000000100
111111
1111111101111101
1111110010011010
1111111100110110
1111111101010100
1111111100111101
1111110101001011
1111000
11100010
1111111010101010
10000
1111111011100100
1111111000100010
1111111010011011
1011100
1111111100010000
1111110110011011
1111111011110001
1111111111110100
1100001
1111111001011111
1010101011
1011010011
100101111
1111111011001101
1111110011111111
1111101010001000
1111110000111111
1111110010000011
1111110111000011
1111110100001001
1111110010001010
10110100
110001011
11111
1111110100110010
1111111000001101
100010000
1111111100101011
1111110101101101
100010111
1010
1111111110000110
1111111110110011
1111110101100010
1111110110000011
10011
1111111001111001
1000000
1010111101
1111111101110011
1010001011
1101010
1111111011101000
1111111110101000
10011111
1000010100
1111110011101110
1111110101001111
1111111110010101
1011100
10001000
1111101110111000
1111100010000011
1111101110011010
1111111100011010
1000001111
110011001
1111111110001111
1111111010101010
1111110101011110
1111110110111110
1111110110111110
11000110
1111111101011001
0
1111111010011001
1111111101110000
100110001
110001010
110010011
101111111
1111010
1111111110000001
1111111100010010
1111111100000101
1111111010100011
1010111101
1110100010
1111111110001101
1111111110110100
1001
1010
1111111101110010
1111110011010000
1111110000110110
1111111101111010
1111111010110001
1111111100001000
1111111011010000
1111110100011100
1111110111100000
1111111110111110
1111111111101111
1111110110001111
1010111
101111101
1011011
1111110110110011
11011011
1111111100111000
1111111111110010
1111111001111010
1110000111
110010000
1111111111110001
1111111000011100
100000111
1001001011
1111111000111000
1000011111
111100001
1111110110000000
1111110011100000
1111110000010110
1111110110100101
1111111000111011
1111111011100001
10000110110
1111111110011001
10001011111
10101100001
1111110110111100
1001001011
10000010
100010010
1111111000110100
1111111100001001
110011000
1111111110110000
1111110010111101
1111110110111001
1111111110010000
1011
1111111101001000
1001001011
1001010000
1111110110101100
1111101111101110
1011000011
1111110011111101
1111110010111010
1011010010
1011111000
1111110110100111
1111110101000001
1111110110101011
10110101
1111111111010010
1111111001010000
1111111100100101
1111110100100101
1111111011011011
101100000
1111111101100101
1000
1111110111101111
1111111111100100
1111111101101010
1111111101111100
101111001
1111111110000100
1111111000000010
1111110011111100
1111111111011111
1000111
1111110110101010
1111111101010010
101100101
1111111100001011
1111100011111011
1010001111
10010
1111111110100110
11100010
1111111111101011
1111111010101000
1111111011111110
1111110001110111
1111111011111001
1111101100101111
1111111110100100
1111111110110011
1111110110011111
1111101110111101
110001111
101111001
1111110011101001
1111111110101011
1011001111
1111111001011010
1111111001101101
11001101
1111111111010100
1111111100000000
1111101110011001
1111111001111011
1111111111000100
1111111001110110
1111110111000101
101011010
11011
1111101000101110
110100
1111111100100111
1111111000100101
1001100010
1111110111100110
1111110101111010
1111100111000111
1111110110110011
1111101110100111
1111100100001110
110111001
1111110111011110
1111111100100101
1111110100110011
1111111000100100
10110101
1111101110011111
1101110
10011100111
1111111111110100
1111111111010101
100010000
1111111011000011
1111111000010100
1111101110100101
1111110100001000
1111111010110111
1111111001111010
1111110001100010
1111111101010010
1111110011101110
1111101101111011
1111101000011001
1111101110101011
1111101100000011
1111111010011101
1111110000100101
1111101011011110
1111101101010110
10000101
1111101111011101
1111110010001101
1111110111100011
1111111011101100
1111111001111111
1111101010001100
1111110001100001
1111111110000011
1010111110
1001110011
111110110
11101110
10110000001
1011100111
1111111100000010
1111111011000111
1111110111101001
1111111010001100
1111111101000011
1111111110100111
1111111011010101
100101011
1101010001
1111111001001100
1111101011011010
1111110101000010
1111111001011111
1111101101001110
1111111001000111
1111111011100011
10010001
1001111110
1111110011101110
1111100111000101
1111110001011011
1011011000
1111110011101100
1111110101001111
1111110101110110
1111110010110111
1111111110100000
110010000
1111110110011111
11001000
11110001101
1101001001
1111111010111000
1111110110111110
1111111011111000
1111101111110101
1111101111111000
111100001
1001001
1111111011011001
1111111110110010
1111110101000011
1111101100100001
1111110010111100
1111110000100010
1111101110011010
1111101110111001
101011001
1111111100010101
1111110110110000
1111111000101111
1111101111100001
1111101100011001
1111111000100101
111100010
1111111100001000
1111111100010000
100101010
1111110101110001
1111111110000100
11010010
1111111111010001
1111110001
1111000110
110001010
1111110110100011
1111110101110111
1111110000011111
1111110111000100
101110000
100
1111110000110001
1111101010011111
1111101011111101
1111100111101111
10101001
1111111101000110
1011111101
1111110111011010
1111111111101110
110101010
1111111001001101
1111111010110110
1111111100010000
1001110101
1111101100110110
1111111010000101
111001
1111111010101000
1111111101010111
1111101010001000
1101011
11100110010
10010111011
1111111011001010
1100100111
1010101101
1111110011100101
1111110011011001
1111110001010101
1111110000100111
110100
1111111000111110
1111100001000111
1111111101100100
100111010
1111110101011000
11101111
1111111000000011
1111111100001010
1111110100100110
1111111111111101
1111111100001000
1111111111011001
11001100101
101111000
10001110000
1001001001
100110101
101101001
10111
1111011100010111
0
1111111011110011
11101110001
10010110111
1111111100001010
1100101
111111110
1111110011011111
1111111110010101
1111111011011000
1111111000011101
1111111100101110
1111101111000010
1111100100111100
1111110101010111
1111111100011001
1111111011010010
1111101111101110
1111111101100011
1011001110
1111101100001001
1100111011
10001100011
1111111110111011
1000100000
111111
1100011
1111111101111010
1111101100100101
1111110111101001
10000100
1111110011101100
10010011
1111111110000110
100101001
1111111111000011
10011111101
10100110
1111111101111111
1111110000100101
100011011
100110101
1111110100100101
10011100
1001101
1111101101110101
1111101110010101
1111110110111011
1111110101000011
11011111
1111111011101101
1011010100
1111111010000101
1111110000000010
10101010
1111111101010110
1011100010
1000010011
1010111110
1111110101000111
1111111011100000
1111101000
10111111
101110101
1001100
11001
101011110
1111101110110111
10011100010
11010111
1111110011101001
1111101111111001
1111111111100100
0
1111111001001011
1111111101001001
1111111000010011
111000010
1001000
1111111000100100
11101
1111111001001111
1111101110100001
1000111
1111111001111111
1111110110110010
1010
11000101000
1110101001
111010111
1011100101
10010101
1010100000
1111111000000101
1010001010
10101101
110111100
1110101
100001011
11100111
10101000001
1111
1111110010101011
1111101101010011
1111111011000111
1111111001000101
1111111010101111
1111110110111010
1111110001001000
1010111100
1111111000001101
1111111110100000
1111111111101001
1111111010000100
1111111111011000
1111111011100000
1111101000110100
1111111100011000
101010001
1111110111100101
11101010
1111110110111011
1111101010010011
1100111000
1111111001011110
1111111011011001
10101000
1111110111101101
1000101000
1111110101
1111111100111010
11111001
10011
1111111110011110
1111110010011000
1111101111110001
1111111011111100
1111110001010111
1111110010011110
1111110100110001
1111111111101001
1000100110
1111111001000100
1111111010101011
1111111010111101
1111110100010011
1001000110
1011100110
1111111010100101
100000000
101101101
1111111000000011
110001010
1111111111110101
111001000
1111111100101010
1111111111110111
1111111100011110
10101110100
111100111
10100001
1101000010
1010101110
1111111110010010
101101001
101000000
1111110111100000
1111101011100110
1111111001010011
1111110001000110
1111111010000000
1111111111100101
1111111010001101
1111110111111010
100001000
1111111000000100
10011100101
1100011111
10100011
1111110101000111
1111101110000100
1111111110111000
1111100110111001
1111101111000101
1111110000111110
1111110110100111
1101110
1111110111010001
10110111
10101010100
11010011010
11111010110
10010010111
10101111000
100011011010
111110010
10101111
100110010
1111110010011010
1111110010000101
1111110110100110
1111110001101100
10001111
11110111
100011001
1111101101
10011101001
1111110101011001
1101111101
1001010010
1100000111
101110011
1111111111110001
1111110011110010
1111101100111111
1111101111110111
1110110100
10100000
111111101
10100011110
10111000110
10101111000
1111001010
11010010
10000001001
1110100110
1011011011
1101010111
10010011
111010011
1111101111011101
1111110101100110
1111110100001011
1111111010110101
1011001110
10010000011
10000100000
10010101010
10010010010
111101110
10100000000
11000011100
100101111111
100100100001
11001101000
1101111001
11111100101
100001100101
11001001100
11101001001
100110001010
100111000111
100101111010
1111111110001000
11101111
101000101
1111101000
1100011111
1000100101
1100110001
101000111
10001000
1111111011000111
1111110111000100
1111110000101010
1111110100111000
111001001
10101011100
11100100101
10111110100
100011010010
101111010101
100010100101
10111101001
101001001111
101000110001
111010000111
101111111110
100110000110
100000010011
101011001001
101000001101
100100010110
11010010110
1010011100
10101011001
10001011110
10111011010
1100001010
101010111
1111000110
101100001
1111111011001011
1111110111010001
1111111001100000
1111111110110001
1111110001100001
1111101111110111
1111111101110011
1111001111
11100101000
11100101110
11100001010
100110001011
100100111001
100010100111
111000011110
100101001001
100111110101
101011010011
11011000000
11010011001
11010001010
11000000001
10000010110
10111110000
1100110011
10001000100
10100100
1100000001
10111001100
1111111010101110
1111111111100010
1100001000
1000001110
1111111111101100
1111101110111000
1111110110000000
1111101101111110
1111101110101001
1111110011111110
110010101
1111000011
11011011000
11100010100
10111010100
11110010011
11111000110
11011101011
11001010010
10010111010
100000100000
11111110000
11011101011
10101000001
1111100010
10001010100
10101100001
11000011110
1111111101100110
1111111111100110
1010000011
1100100000
1111111101000010
1111111111000101
11011011
1111111000110010
1111111010101001
1111110000000100
1111100111111100
1111110000001111
1111110010100001
1111110111011010
1111111111000010
1001010101
10010100100
1111010001
1011000001
11011100010
100011111011
1110101000
1011001001
1010011010
11010111000
10100110101
1111101101
10111111100
10000011111
10011101111
110010001
111000101
111101000
101001111
10011100
1111111000110110
111101
1111101110001101
1111101110101110
1111110010011001
1111110011111100
1111110001010100
1111101110101000
1111101101100010
1111110011010111
1111111001000110
1111111100110101
1111111001010101
1111111110111000
1000100001
10001000110
11100011100
11100100111
10010011011
1010100010
1001110100
1101011110
10110001001
10010111
110011011
1010110000
1111101001
110110100
10011110000
1111100011
1111111111000000
1111111011011011
1111111000100010
1111110111110100
1111100111101001
1111101100011001
1111101111001111
1111110000000011
1111110001111001
1111110011010100
1111101010110101
1111110010100110
1111110101111001
1111111000110100
1111110011100000
1111110100111110
10100010
1101010000
10000101011
1001001010
1011001010
1010101110
110001001
10101111100
10110101110
1101100101
100011001
1011110101
1011011101
1111111101011101
1111111111011110
111001000
1111111010010010
100001100
1111110010110110
1111110000111010
1111101011101011
1111101011011110
1111110011001111
1111110100001101
1111111011100101
1111111100111000
1111101100101011
1111101100001011
1111101110101101
1111101110000001
1111101001111101
1111101110011011
1111110011101010
1111111011001100
1111111111110100
100001010
1001000010
111111110
11010111
100001111
100011110
1010110001
1111111111010111
11011010
1111111111001000
1111111011111000
1111111011100000
1111111010010101
1111111101001101
1111110110010011
1111101110001110
1111101000000000
1111100111010011
1111011100100110
1111100111010111
1111110011100000
1111111010100100
1111110110111011
1111101110000010
1111101110111000
1111101100110001
1111110000000010
1111110010101111
1111110000101011
1111110101110101
1111111100001111
1111111010011110
1111111011011110
1111111111001101
11100101
1111111111000101
1011000
11100001
11010110
11101
1111111011100001
1111110011010100
1111101100001101
1111101101101110
1111110001110110
1111101000000111
1111101100010001
1111101010111110
1111100101111011
1111100110010100
1111100100101001
1111101000110101
1111101011110011
1111110010100010
1111110010000001
