100011101
1010101010
1000001010
1100110000
111111011
101011000
1110010
1111111110000010
1010001000
1001101100
10000111110
1001010101
101100101
10100000
1111111101111100
11111
10011111
1111111101001010
1111111111001111
1111111111011110
100101
10100101
1111111111010100
1111111101100100
11111001
101011010
110111100
110011110
111111000
100000101
1010001011
1101111011
101001111
1001000011
1100001011
1000110111
101010010
101011110
100111100
100111101
10000011
11110101
1000011101
1111111011011100
1111111011100110
110110110
1111111100001101
1111110010100000
1100111
1010100001
1000000000
1111111101010111
1111110110010110
1111111011111100
110000
11111111
101100000
11001101
111101
110110111
11101110
10001110
1011011001
1110000001
101110000
1001111101
101111101
1111111011010101
1111110111010111
1111110100011101
1101100
11000000000
1111111110001000
1111101000111110
1111101110101001
1111101100001101
1111111011100011
1111111110011000
1011001001
111000001
10011000010
10001101000
10000011111
101110
1111101101111001
1111101111010100
1111111010010100
1111111110101101
110010011
1100111
11110000
1011101
101011000
1111111111111101
1111111111111110
1001001110
101001110
1101000
1100101100
1000101111
1111110111000000
1111101111111000
1111110101000101
1110011110
111000110
1111111001110110
11001001110
1111111111111111
11110010
1111101101101010
1111101110001001
11110101
1111111111100100
101011100
1111111111111101
1111111010100000
1111101011101100
1111101111110000
1111111110000100
1000100
1100100
101100110
1000011000
110101000
100001101
1111111011110000
1111111100101111
10011110
1111111110111011
1111111111111011
111111101
1011111111
1000000000
1100000001
1111111100011000
1111111101100101
1010011101
110101111
1001110
1111110110000111
1111111001011010
1111101100010101
1111111101001110
1001110110
1111111110001100
1111111011000101
1111111111010110
1000101010
11101110
1111101101111011
1111110000111001
10000101101
10010111110
10001011001
1011101110
111001011
1010010
1111111111100110
1111111111010111
1010100
11010000
110011111
1110101
1000110001
1111000111
1111110111000011
1111101110010010
1111101100100111
1111110011001000
1111110101001100
1111101000010110
1111110111011001
1111111111110011
10110001
10010111111
1111111100101111
100101011
1000
101100
111000110
1111100110000111
1111110000000010
1001111001
1111111101001011
1111111100111001
1111110110000111
1111111010011010
1011101
1111111110100000
10101010
1111111101101001
1111111111011101
110110111
1000010001
1100000
10111
1011010100
1111111110000001
11100100110
1100110101
1111101100110110
1111110011110000
1100100100
1010101110
1111101111011011
1101010111
1001010110
1111011100000110
10100101
1001101111
1111111101110000
1111101111000011
1111110011011111
1111101111111010
1001100
1101010001
1001101
1111111001001101
1111111001101111
1111111111000010
10100100
1011100
1111111111111001
1111111111000000
10001110
101111000
111110000
1011001110
11111
10010010
1111111111111001
111000001
100001001
101110001
100111100
1111111111100111
1111101000100000
110101000
1110001101
1111111000111111
10101011111
100111010
1111111110000100
1111110001010011
11001000
1111101
1111111011110011
100110
10001011001
10100100101
1010001101
11111010
101001000
1111111110011011
1111111101001100
1111111100000110
1001011
1100
1000111100
1000011110
1111110101000000
1010011011
101111001
10111100
1111110001011110
1111111100101011
1111111111100111
100011110
1110000001
1000000000
1111111101001000
1111111001011001
1111111011111111
10010001011
1111111000001110
1111100110010110
1111110101001110
1111110001001100
111001011
1111111101001001
1111111011100001
1001111001
1011001101
1111111100111111
1111111001000100
1111111011001100
1111111100100111
100001110
11111010
1111110111010000
10110110
1010110100
1000011110
1111111000001110
10100110
1111111001010101
1111110001010110
1111111110111101
10101110
10010
1111001
111111101
101111101
1010001101
1111111100100000
1111110001111110
1111111110011111
1111101011000001
110010
11111
1001111011
10010
1010001110
101011110
111010
1111110101000100
1111111101001010
1000
10110111
1010001101
110111001
1111111011010111
1000100100
10000110011
1111111000100101
1111111010000110
1111110100001101
1111111101101010
1111110111001101
1111110110001000
1011011010
1111110110000101
11101010
100011001100
1110001
10010010
100001110
1111110111100100
101100111
1111110101001011
10010111
10001011111
1111111100111010
1111111001110011
1111111010111000
1001001000
1111111111101111
1111101000101010
111011
1100011
1111111110110101
110001011
110110100
1101100101
101110001
100111011
1111111011100110
1111111110001000
1111111011111110
1111111110011111
1111101110111000
1111110101100011
1000000101
1111111110111000
1111101100
11110000010
11001011110
10000100000
1011101
1111101100110101
1111111011101101
1001010000
1111101111001001
1111110010101100
1000000
10101001
1111101101101001
1001100011
1111110011001000
1111100000110110
1111110000011101
1111111100001111
1111111110101110
101101011
1100000101
1101000010
1111111111101100
100101000
10101001111
111000
10001010011
1000110111
1111110011010111
1111111110001110
1111110011100100
1111100111000001
1111111010010010
10100111101
1100010011
10011001100
1111111010000001
1111100110000010
1111101100010001
1111101110111101
110110001
1001
1111110110011001
10111100
1111111001001010
1111101111011100
1111110001001001
1111100101101101
1111101101110100
1111111011110001
1111111001100101
1111111111110101
10001110
1001110
1111111011000000
10101010
1101011110
1111111110011100
11000001101
1010010111
1111111001101100
1111101100000101
1111111111111011
1000111010
1000100100
1111011100
1001110001
111111111
1111111111010101
11100111
1011010
1000000010
1111111011001001
110000
1111010100000000
1111101100001110
1111101001000101
1111100001111100
1111100000010000
1111110010011000
1111110010111110
1111110111000110
1111111010101011
10001
1111111111100101
1111111001110011
1111110101000101
11100010
1011001011
1100100011
0
10110000110
1010100000
1011101011
1000011
1111110100111000
1111110110111001
1000101010
110110111
10010110001
1100001110
1111110011000000
1111110111110111
1111111110001010
111001001
11001111
1111101001011100
1111111111100000
1111100110101011
1111110110010111
1111100100110100
1111110000001110
1111110111111010
1011001
1111111010010101
1111111011110000
1111111110001101
1111111101001100
100011111
111100110
1001100100
11111100110
1100101000
1110101010
1111101
1111110110010010
1111111001100111
101100110
11110001100
10101100
10111010
11011001101
10010001010
1111110100000001
1111110000010000
1111101101100101
1111100000011100
10100000101
1111111000110000
101101010
1111111110111111
1111101100100111
1111111100011100
1111101011000111
10010101011
1001000111
1111111010000110
1111111110010011
111100100
1111111011010100
1100000011
1000111001
100000110001
10100011110
1111111000011100
110100110
10101011100
101000010
1111110110110010
110101
1101111010
11101001111
1111111100101010
1111111100000000
10100000110
1101010000
1111110010010110
10101
1111111001000010
11001011
1111101101101100
1111101000101100
1100110110
1111111010000110
1100000010
1111111011000000
10101000010
110011100
1111111101111000
1111111110110010
1111111010100011
1000101
111010100
101100110
1111001101
111111001
1111111000010101
1111110100000001
1000010100
10010010000
1010
110101110
1111110110011010
10100100011
1000110101
1111111000110010
10101111
1011100111
1111100010100101
1111101101000001
1111100010101000
110111011
1111101101100001
1111110100101111
1110001100
1111110111101111
10101101110
1011101
1111101010
1110010000
1000101
1111110111001110
1111101111010100
111101101
1111111111
1011111111
1111111111110000
1111111010010011
1111111011100101
1111110010011110
10000111010
1111110001111101
1111111001011110
10111011100
1001001110
10110101000
100000100101
1111110000010010
1111111001000100
1000011000
10001111
1111101101101000
1111100110111110
1111111000010100
1000111101
1111110101010000
100011101
110100101
1110110100
1101110
100101110
101001100
1100010
1111110011011110
1111110011100101
1011001001
1010101001
101111010
1111111000010111
11001100
110001
1111111110011101
1100111001
1111111100011010
1111111000000011
11011101
1111110001010000
1010001011
11101100111
11010011
1111110010010111
1010010
1111111000000010
1111011110110011
1111101100000010
1111110000001001
100110110
111011100
1111101000111110
1000010101
1111111000100110
100100111
10000010111
1111111
11101010
1111110100101111
1111110111100010
1000000000
11110010
1000011000
1111111110111100
1111111001001111
1000111001
1010001001
1111111011110100
1111111001110100
11100001
110100111
1111111001101110
10
10110000110
100000110101
1111110011011111
10010011
1101011011
1111010110001011
1111110001111110
1111101000100000
1111110111001101
1111111011000111
1111111010111000
1110011000
1111110100001110
1111111100100101
1101110001
1010100110
1110111
1111110110101100
1111110000010000
11110011
101001000
100011000
1111111111000011
1111110001100010
110000010
1111111111100101
1010011111
1111111100001001
10100101
100101
11000101010
1111101101111110
10001101000
1111110111100011
1111110000100011
1111111101010011
1111111011011101
1111110010101001
1111100110010100
1111110000110001
1111101101110110
1111110100000001
1111111100000110
1101001001
1111111100011010
1111111100001001
1100101
100101
1111111101101001
1111111000111001
1111101111011011
1111111111101011
101001110
1111111011100010
1110
1111111001000101
1000000011
100101110
11011011
111011010
1111111101110100
1111111110010010
1111101101110100
1100011
1010110100
1111111111011001
10111000000
11000101110
10111111111
1111010111110110
1111010111101111
1111100010011101
1111111010001101
1111101111100001
1010101100
1111111010011100
110111100
1111111010001110
1111110110110110
100111011
1111111011000010
1111111000110110
1111111000111110
1111111110010100
10101111
11101101
1111111111010100
1111111111101000
10110111110
1111111010110011
1111110001010011
101000101
101011100
1111101110110011
1111100010010111
1111110111010011
101011011
11000111100
11001101100
10111101101
10100100110
1111010110011010
1111100001110000
1111011011111000
1111101111010100
1111110111100110
1111111001100100
1111111010110111
1111111010010101
1111101111100100
1000000011
1110000101
1111111101001011
1111111100101011
100010000
110010101
1111111110110110
1111111011101010
1111111100100010
110010010
100111100
101101101
1111111100100001
1011000110
10100111111
1111100101001000
1111010011100100
11001011011
1101110101
100000100
10100010110
11011001000
100110010
1111101110011011
1111010111110000
1111000011011110
1111010011100101
1111101111001011
1111100110100010
1111111010111010
1111111001111101
1111110010101011
101101110
1100010001
101000110
10000001
1001110011
1010000
1111111111000101
1111110110001000
1111111011101100
1111111111100001
1111101111000011
1111110011000101
10100001011
111010101
1111101000010001
1111001111100011
1111101011010111
111101100
1111111100101001
11000001001
110111011101
100000111001
111101100
1100110
1111100100010111
1110111010111111
1111010101011110
1111011100111110
1111110101010110
1011011001
1111110011101111
1111111000011101
1001111001
101100000
100011101
1000001011
11000001
1111111111101001
1111111111011100
1110
1111111001011000
1111111011101011
101100000
110000101
100
1111101011001001
1111100001011000
1111001110011001
1111101111010010
10110101000
101101000110
100110111110
101011111000
101011100101
11000011000
1110111
1111111001011010
1111011100111010
1111010110100010
1111001111001101
1111110000011000
1111110111011011
1111101111011111
1111111001001111
1111101110
1100001010
1000000101
1010010100
1111111
1111111111111111
1001010
1010001110
100011001
1111111000111010
1010000011
1111110010101101
1111011111111010
1111001100100111
1111001011100011
1111100100010000
1001010010
100111111000
10101101111
1010101100
1000000010001
101011001000
10011001111
10100001010
11000
1111100011100001
1111000111111010
1111001110100010
1111111111101010
1011101
1111111010001010
1111111010100100
101111010
1000110100
1011110
1111111110011011
100000111
110001
1111111101001010
11010010
11001101
1111111101101011
1111110110100101
1111011101110001
1111000111011010
1111100000100000
1111100011111011
1111101101101100
111111
100010001101
1011000100
100001001011
100011001100
100010010111
10100001110
1101110011
1111111001100011
1111010101110101
1111001001100011
1111011100010001
1111110111001001
1111110111010010
1111111001110010
1111111110111000
1010
11111000
1111111110101001
1111111000100100
1001110011
101000000
1011100
1111111100101100
1111111110010100
1111111111101001
1111110110110110
1111110000101100
1111101110100110
1111111011011001
1111111111001001
1000111
1111111101001001
1101001101
101100101111
100110000001
11010000011
100011001100
101110110000
1111001101
1111100011110011
1111100101010101
1111100100100110
1111101110011111
1111111100101000
1111111010011111
100011000
101100100
111100100
11111010
1011011
1111111011101001
110111101
101100100
100100110
100000
1110101
10111101
1111111110100111
11011001
10001011
1111111110111010
1101111
1111111111100000
1111111100101100
1110010110
11100101001
1011111101
110011001
11000110100
11000101000
1111111001110001
1111110011011001
1111110101000010
1000010
1111111101101010
1111111110000110
1111111111001000
10011110
1010100
100101000
11110011
10001001
1010
101011111
11011111
100000110
10010000
1111111111001111
111101010
1001011110
10111001
1111111100011110
1111111001000110
1111110110010010
1111110101000011
1111111100010101
1111111101011000
10111010
1001110110
1011001001
1100001101
1011011
1111110110001000
1111111000010010
1111110100110100
1111111101100000
11001011
100101011
1111111110101101
1011001
11010101
1111111111001100
1100010
110000
1111111111010110
