1111110010110111
1111110001110001
1111110011010000
1111110111001001
1111101111011000
1111101100000111
1111100101111110
1111101110110100
1111110100001000
1111111011100100
1111111001111110
1111110100011000
1111111111110110
11010100
1111111010100000
1111110111011001
1001
1111111111100011
1111111111110101
1111111111011111
1111111100011101
1111111000011001
1111111000011000
1111110100001010
1111111011000010
1111111000000000
1111110111101110
1111110010100101
1111110100101000
1111110110000111
1111110110110100
1111110110010010
1111101100011010
1111101110111011
1111110111110100
1111110110000010
1111110101111011
1111111101010110
1111110101110110
11100100
1101000
1111111100100000
1111110101110110
1111110001100011
1111111111111110
100001100
1111111100110111
1111111000101111
1100010100
111110010
100101110
1111111111100000
1111111001000110
1111110100111100
1111110000111100
1111110001110010
1111111100000010
1111110111101010
1111111101111101
1111111101101111
1111111011000101
1111111100101000
1111111101101010
1111111100000010
1111110101100010
1111111000010011
1000110101
1111111111101111
1010000
1111111110010000
1011
10010
10001010101
111101111
10
1111111001011101
1111111011011010
11
111101110
1101000111
1010001101
1111111011010111
1111110101101001
1111110110001101
1111111101001000
111
100100100
1111111111111101
10001010
1111111101110110
1111111011011100
1111111011111001
1111111110100111
1111110011101010
1111110100100011
1111111010000101
1111110110001111
1111111100110100
10000100
1111111100001111
1110110000
100101001
10
1111101001011000
1111111011001001
101001111
1111111001001110
100001
100111000
1101011
1010000111
10001011
1111101001100101
1111110110110111
100001101
10000100000
10100010011
10000011111
101010101
1111111111010000
1111111011010001
1111111101001111
10001010
1111111100011011
1111111110111001
1111111100100011
1111111001100101
111111
1111110011001101
1111111000010101
1111111110011010
10000111
101000011
1010100101
1010111011
10000000
11000010
11111111
1000100001
10001110001
1111111011100111
1111101110001010
1111111000111110
1111110011010000
1111100000101000
1111111100010101
1010110
1110100010
1001101011
1000000100
1111111110100100
1000100110
1111111110011111
1111110101101101
1111110111110111
1111101111001001
1111101111001000
1111110110001101
1111111000111111
10011110
1111110100111010
1111111101101011
1100000010
111110100
1100111000
1111001000
101011110
111110011
10000010110
101010101
10001100011
101011011
1111110111011011
1111110101000100
1100000100
1111111001010100
1111110011111000
1111111101100101
111000110
100001000
1111110101111000
1111110100011001
1111110010110001
1011001001
11010001011
1101010100
101001100
10101000
10000101
111000
1111111100010011
1111111011101100
1111110011101010
1111111011111101
1110110101
1110010000
1011111100
1111111110110100
1111110010001010
110001000
10100110100
1000001001
1110000100
1111111110001000
111010100
1111110000100000
1111111100100101
10010
1101001010
1010000010
110001001
1111100100101101
1111110000010001
1111111010010101
1111110110110000
100000
110110101
11000000101
11010001001
1111111101
10100010110
111010011
1110110
1111111010100000
1111110100111010
1111111011001000
1110101000
110101111
1101110110
1101011110
1011011111
1111111001101011
111010
1111110011001111
1101011
111100100
1111111101001101
1111101100101011
1111101101000111
1111111011001001
1111110110011011
1001000
1111110101111011
1111100111110001
1101001110
100011010100
11111001000
110000000001
11110001010
1011001001
11000011010
100001000001
100001101101
10000010100
101110110
1111111000101010
1111110100110011
1111110111110100
110010000
1001111100
1010100101
10110000010
1010101011
1111111110101111
10110000000
1111110010111111
110001100
110111000
110001010
1111101000001100
1111111010111111
111001110
1111101111001001
1111100001011001
1111111000101100
11010010010
11000100110
10100001100
11011010111
101101101010
101001010101
11011011001
10010110001
100000110111
100000010010
10000011111
11101011
1111111101100101
1111110000110110
1111110110011111
100000000
10110011001
110111101
1001100110
10010010101
1000101001
100011001
1111111110001010
1111111010111011
1111110111010111
1111101111101001
1111110110010101
1111111110101010
100001
111001000
110100101
10110001101
111101100001
101011110100
110001110011
100111001001
111100000110
111001001010
101001101110
100011101011
11011011000
11100011101
111101111
11100100
1111110110100110
1111110111000001
1111111010010101
1010100111
10101111110
11111011
1000000011
1110111100
100001001
1111111011011011
11110010010
1111111010101011
1111110101101110
1111111001101010
11011001000
11110000
1111111000100000
11010001000
1001100101001
1000011010000
111101111110
1010000010101
1001110101100
1001000001001
1000110100101
110101100011
110000101101
101001100111
11110010000
10110010001
10000010011
1000011100
1111111000101100
1111101110010110
1111111010110100
1111111010110001
1011111111
1110100
1101110111
1100011101
10101000000
10101011
10011111001
110011101
11001
10101110
10010100101
101111100101
100111100011
1001100000111
1001100101110
1010010001111
1000101010001
111111110110
111110100101
110000001111
100000011101
100100000111
11111111001
10100011111
10011101101
10001110100
1110110100
11001110
1111111000100111
1111111010110001
10101100
100001100
1000100110
1111110101110000
111111101
1111111111011000
1010001111
1111111011100101
10010101001
1010000111
1111111101
10011001010
11111000000
111100001001
1011000011110
111111101110
110011000010
111001010111
100011100100
10000010000
111110100
1100110000
10101110111
11110111000
10010101000
1111111100011110
110111000
100100101
110011110
1111111101010110
1111110100111011
1111111100111101
1111111111110011
101111010
100001111
1111111110111010
1111111000111101
1111111010000101
11001111
1000011100
11000000111
11110100110
11010110110
101001111
10010000110
110001010000
100111011011
10001101101
101000
11100001
10110011010
110101101
1111110101000001
1111111101110010
1111110011001001
1111111101001100
1011000011
1111111001011001
10001111110
10011010
1100011
1111111011110010
1111110010111100
1111110101100110
1111111100101111
101000001
111011101
110100000
1111101010000101
10011001110
1111010
10111111010
1110110100
1010100
1100100
1010110000
1100011000
1010110000
11011101000
1111111101000011
1111111001110000
1001101100
1100101110
1001011001
1111111110111001
101001000
100010000
1111111011100101
1010010
100100111
1111111000010110
1111110100111100
10101111
1111110010010101
1111101100011010
1111111111011001
100100111
1011110000
10000001110
1111110110101101
11111
1110010100
1111110000000000
10010000110
1111110101011111
1111111001010010
1111110011101100
1111111100000110
1111110010011001
1111101011110011
1111101100111000
1111101110111000
1111100101000111
1111111110101110
1111101011101001
1111111000110010
1111111110111110
101101011
1100001010
1111111110010100
1111101010001100
1111101000100011
1111110100101101
1111111011000100
1000101101
1111101100011001
1111101000001001
1111111010001011
1111111101011111
10010011010
1110111100
1111111110011101
11110001
0
110011000
1111111110011011
1111111111100100
10110101011
1111111110001001
111111010
11111111
111010100
1100101100
101001
1111111100010100
1111111011111101
1111101011
1111111000001101
1111101101000100
1111011001010110
1111100111100000
1111111100100010
1111110000100110
1111111100101110
1111111001101100
1111111000111001
1111100101010110
1111110000100000
1111101101010001
1111111001111101
1111111101111011
1110010000
1111111110111000
1011010
10001101
1111111110100011
1111110101010101
111010101
1111111
1111111011001100
1111110110001110
10010010
1111111100100001
10010011
110111011
1111101110110101
10010111
1111101111100000
1111111001001001
1111101101010111
111010010
1111110110000011
1111111010000110
1001100010
1111111010100000
111100100
1111101111000111
100010111
1111110111111011
1111111101110001
1111101101010001
1111110101001110
1111111111010011
1111110011
1111111011001001
1111111100110011
1010111100
1011010111
1111101101
1111111101101010
11000001
1111110001011101
1111111101100001
1111110011101110
1111111001111010
100000011
1111110000010100
1111101011000000
1111101001001101
1111110010001000
1111110101010110
1111110110011111
1111110011111111
1111101101000011
1111101010001010
1111110100111110
1111110111010011
1111111010101001
1111111101110001
1111010
100011100
1111111101110010
1111110000111011
1111111100110110
111
1000001110
111010101
1111111101000000
1010110010
1111111111010101
101011000
101011100
110101011
1101111
1111111011111010
1111111100100100
1111110111011011
1001100011
1011000100
1111110111001100
1111111111010000
1111111100000011
1111110110011110
1000100011
1111101101010100
1111110110001110
10100010
1111101110100001
1111101110101011
1111101010001100
101000101
1111110101111101
1111111001100110
1111110000110000
1111101111001110
1110101
100101110
111101011
10010100101
1111110101100000
1111111000110101
110001101
1001100000
11010101
11110101
110110110
1111111111011110
1111111100000101
1111100111101110
1111110010010001
1101110000
1111111000000011
1111111110000011
1111111001110001
1111111010110100
100000100
1111101101111011
110000
10011100
1111111110011100
1111110001110010
11000000
1111111101100001
1111101111001110
1111110100000101
1111110010000000
1111101111111001
1111110101010101
11011
1111111101000011
100101
1111111100001111
101000
1111110110111110
10001100111
1100110101
1111110100100100
100111100
10010100
1111111101010110
1111111011101111
1111110111111110
1111110000011110
1111101101101001
1111111111101101
1111101110111010
1111110110000011
1010100100
1111111001100010
1111111010100011
1111110000111110
11010011100
1111111101000101
111100010
1001010
11010101
1111111111110010
1111111000100101
1111111010101000
1111110111111100
1111111100111100
1111111010001111
1111111010001000
1111111001001001
100100000
101111100
1111111100010011
1111110111001101
1111111011111110
1111101000101010
1111111110100000
1111111010000010
1111101011100100
10011111
10000000
1111100100110101
1111110
1111111010111110
1111111011001001
1111110110110001
1111111000000100
10001110111
1111110010010001
1100000100
1001001
100100101
1000011
1111111011001000
100100110
1100010
1111111111000011
1111110110010100
1111110011111010
1111111011110000
1111
1111110011010011
1111110100110111
10010010101
1111101001101010
1111101101010010
100011111
1111101001010001
1010101
1111111000010011
1111111000010001
1111110000010010
100101001
10011110
1111101010010101
1111111001100010
1111110001111000
1111111111101100
111
10001100
1111110101110111
1111111100111101
1100010110
1001101
1111110100001010
100000000
11010011
1111110011011110
1111110101010010
1111110100010001
1111110110110111
1111111101110001
10100
1111111010111101
1111111000001010
1111110100110000
1010101
10010000010
1011110111
1111101001000110
1111111111010110
1111110110000111
1111110000010011
100001001
10001001010
1111111101111111
1111111111010111
1111111001011110
1111111001011100
1111111000011010
10101110
1111111010001111
1111101001100010
1001101
1111111011100001
1111111101101000
101001011
1101100011
1111111111001111
1111101010000011
1111110010001110
1111111100111001
1111110001000000
1111110001001001
1111111000100010
1111110110000010
1111110111111011
1111101000101001
1111111010111010
1111111110110010
110110
1111111001011101
111010010
10010100
1111110011111011
1111111000111100
1111111000011100
1111100100011010
1111101111111110
101001001
10100000
1111110100001010
111110000
1111111101011001
1111110110011101
1111111010000110
111010011
1111111111100001
1111111110100100
1111001111
1111111001011110
1111110011100111
1111110101111001
1111110110010110
1111110010101010
1111101110110010
1111110110000010
1111111001010011
1111110101001111
1111111111011111
101000101
1111110111001110
1111110000111001
1010011010
1111111101000011
1111101111101111
1111110110111101
1111111010101100
1000011000
1111111111010111
1111110010000100
1111110111101001
1001110011
1111111111111111
11110000
10000011
1111101100100111
1111101111011001
1111110011011011
1111110111011000
1111111000011101
1111110110011110
1111111000010011
1111111011101010
1111110000011000
1111111011001111
1111110111111101
1111101010110101
1111111001110101
1111111100000100
1111111100011001
1111111010011011
1001011101
1111111100001101
1111110000001011
1111110000111000
1011010001
1100100
1111110001100110
101001010
10011001
1111110100001100
1111101101010010
110111
1010110101
1111111110111011
10100111
1111111110101111
1111110001100011
1111110010101001
1111101111001001
1111110111011111
1111110010110011
1111110000000010
1111111001110101
1111110101001100
1111110000101100
1111111111000011
1111111010010110
1111110000011110
1111110100110010
1111111100011000
1111111101101001
1111110011010011
1111111111010010
1111111110011010
1111010000
1111111010011101
1111110111011001
1101100
1111110101100001
1111111000010011
1111111111000001
1000
1111110100011101
1111110000100010
1111110001010001
1111111100101111
10011111
1111111100011001
1111100111011110
1111110101110000
1111111010111111
1111111000011011
1111110110010101
1111111101001111
1111111101000011
1111110101110101
1111110110010010
1111111111111110
1111111101100010
1111110001100111
1111101111111000
1111110011100110
1111110110001101
1111110010011010
1111111001111001
1111111110001110
1111111010011011
1111111110110101
1111111110001100
1111111110111111
11100101
101111010
10001011101
1001101011
1010100110
1101010101
1111111110100111
1111111111110110
101101110
1111111110000010
1111111000111110
1111110110001101
1111111000100000
10110
1111111101101111
1111110011011101
1111110000110111
1111101110100001
1111110001000111
1111111101101001
1111111111001000
1111110111010100
1111111000010010
1111110111000000
1111111011111111
1111111101010111
1111111110011110
1111111100100101
1010110
101110011
1110011
1111110101000010
1111110111110110
1111111010101101
1111110011010001
1111110111001010
1111111111110011
100011101
11100010
1110100101
1000111001
1001111
1111111100000010
1111111000010010
1111111001111110
1111111000010001
1111110101110011
1111101111001100
1111101010001011
1111101010111011
1111110010001110
1111110110011101
1111110101010001
1111110111001000
1111110010000101
1111110000001110
1111111010100110
1111111000101101
1111101111010011
1111110001011000
1111110011101000
1111110010100111
1111110010101010
1111110110001101
1111111100101101
1111111001111110
1111110111011010
1111111101000111
1111111000011001
1111110011111010
1111111010110110
1111111011001101
1111110110011001
10001100
1111111100101110
1111111100110110
1111110111001010
1111110011101010
1111101101111101
1111101001000101
1111101000110111
1111101011000011
1111110010011110
