100001011001
1101100101100100
1101001001111
1000101101101
11001110100
1101010001000000
1110001111011101
111110000100
11110000110010
10010010001111
1110111100100110
1101000001001101
1011000100000
1111110100101011
1111010101100
10001111110011
1101010000100100
100100
10101111010110
1111010100111010
1010001010110
1110110110010111
110100111001
1110110010101100
101001100100
1111001110101011
1110101101010011
1000111000
1100001111100
1101100010110010
