1011100011001
1111000101111101
1110101111100111
1101001011000
1101110100010110
1111000011000
1111000010111110
1110110000111100
1110010000111001
1110100101000110
1000101001
1101010011101
1110110110100101
1010000001110
1111110110001011
1111110110011110
1000111001001
1111110110110010
1111110110010100
1111100111000001
1110110011111010
1110011011011100
1111010011101
1101000000101
1110111111010110
1111001010010100
1100000111101
1011000101101
11010
1110111000100
