10100000001
1101110010101000
101011001101
1100111100101
1100011101000000
1001101100100
11111011010
1111111001101111
1111100110111001
10001001101
1111001111
1101111010110010
1111100111111001
100111100110
110001010111
1111110001001
1111000011100111
1111011000000111
1111100001011011
110110001101
1111011111001011
1101101101110001
1111011000111001
1001001111000
1101101001110010
100010011010
11000000000
1111011000011101
1101101111100011
1101111001000
