10101010110
1010111001001
101111
1101101110001010
10001110101000
10000000001
110111010111
1110111111111111
1111000000011101
1111111010111110
1011000001011
101100011001
1110101100001100
1111110001011000
1111010010011001
1110001011100100
1001000101001
1110011110010101
1101100110000010
1111000001100
1111001011111110
1011011110110
1101011011011010
110011001100
1111100011000100
1110011111001
1111111000101011
1110000011101110
1110001111000001
1001111101100
