1111000110100110
1100110101
101111011001
101101011010
1111000001111011
1111101011011011
101001001110
10001110111000
1110110010111001
1111101100011101
1110111101100110
110100110101
1111011110010111
111010111011
1110000110011111
1110101100111111
1110100111111
10011001
111111001000
1110011111001011
1010111011111
1111101110000100
110000011011
1010011000110
1010100
1110111101000100
101011001010
100011100010
1011010001
10110100010110
