1010000111
100100001101
10101100100
1110010001100011
100110110010110
111011100000
100001011100
11001000
110100001010
100001111100
1110011111111101
1111110101011001
1101110100011
1111011010011110
11011010111
100110010001
1111011101011101
111010101110
1110100100011101
10000111011
1101101010101000
1110101011010
1111010011011001
1110110111001100
1110011100001010
1110111101001011
100010010011
110011000010
101010110
1100100000011111
