1101101100010011
1100110010000
1110101111010
1110011110001100
1000111100001
1111100100001111
1111010010000111
10011001001
1111011011110111
1111101000000100
1110011011100110
10001110111100
1101111000000101
1110100011001
1101101111101001
1110000011010011
1011000110001
1100111111111
1000100000
101001001000
1111000010000110
100000000011
1110100000111011
1001001101011
1111001101100101
110100010000
1100100000100
1111010001111011
1111000000011010
110010100101
