1011010011101
1111000110011001
1111111100010011
1000111011
1110100101111001
1101011010100011
1111001010101100
1011011001111
111000011001
1111111011001101
1100011011110
1101000100
1111011011101010
1111110110111101
110011001000
1111001111001001
1011011100
1110100010011011
10101100010010
1110100101100111
100100100101000
11000000001
1011101011000
101110111101
11111011101110
11111101100
1110001111000010
1111111100001010
1101010100011
111000000111
