1111000011111110
1111100011001010
1101010101000
100001111111
1110111101010001
1101000010110001
1111101001110001
11010010100000
1010111010111
1101000010100
1111110001100010
1101110001011110
1111101110101001
1110000111100001
1111011011101011
100111010
1111110101001000
1000100011100
101110100001
100010110000
11101010011
1111110011010010
1111011010110001
10000110011
1111110010000001
1111001000001110
1111000001001100
1111110110100110
1111110011100111
10110011100
