1101100000100101
1100000001011
11111010110
1101110001111100
1000011101100
100100001011
1101100110001001
1110011110000110
1111001110101100
1101110111
1100000010010100
10101100001011
1101011111101101
100111011111
1111110111010
1001011111110
1101001011100001
1111001100100001
1011111100100010
10011000000010
