1100010100111011
1100101000001011
1110111011111000
10110010000001
1100111110100000
10011101100011
1110100111111111
1100111011000110
1111101111011110
10100000110111
1011110100111
1110100100001101
10100111011110
11010100100101
1110101110011101
1110111110100100
1110100000110011
1100010011000100
1110110000010011
1101100010001000
