1111001101011111
1111101010000
1101111001111111
1100101111100110
1111110010111011
10010100000
100001011001001
1011111111110100
1011110101101110
1101000111000000
11001010101101
1100100011100100
1111111111100100
1011111110101
100011100111100
1101000010110000
11100011101
10100111100011
1011011011011101
1111010000100100
