1011001110011000
110011100100
1001000110110
1110000011110100
1101010110101000
1111001100101011
11001101110
1101010100111110
1110010000010111
1100011100111111
10110000000011
1111101000010010
1110100111111000
1100101001100100
1110110010011000
10110000101100
10111000100001
1110011101001000
11010010101111
1111111
