1110011001100000
1110011101011111
1100010110
1100011001010
1110010000011110
1100001001001101
11110011001
100011101101
1011111010101111
11010001010110
1100100011011101
1101110001001001
10011001111100
1100101111101001
1011100001000111
1110011010100011
101101100101
10110111000000
11000000010101
1111010101100000
