1111111110001001
1111111100011111
1111111011111101
1111111001000111
1111111110111110
100110110
1010111000
111101110
1111111110110001
1111111011010010
111000
1111111111100011
1111111110101100
1001000
1000111110
100100001
1111111110110001
1001100
1111111110100100
1111111110011110
1001111
1010001
1111111110111001
101001
1111111101100110
1111111101100111
10000011
1110
1111111111010111
1111111111001010
1111111101011010
1111111100101100
10000001
1111111111010011
1111111011101001
1111111010000110
1111111100000110
1111111000111011
1111111110110011
10110010
11100010
1111111100001000
1111111011010111
1111111110111110
1111111110011010
10101111
1100101111
1100001110
10100010
1111111000111110
1111111011010011
101111110
1011101110
1000101101
10011100
1111111101100011
1111111100100110
11
10010001
1111111110000100
1111111011001101
1111111100001110
1111111010001101
1111110111101101
100010001
1111111110001111
1111111101010101
1111111110011011
1111111011101100
1111110101111111
1111111111100001
1100101101
1001011110
1001111110
1111111110111001
1111111011110111
1111111010011111
1111111110110110
1111111111111110
100000010
1010010
1111111001110110
1111111100011101
1111111110011100
10111101
1000100111
101100011
100010101
1111111010011001
1111110100010110
1111111100000010
1111111100000001
1111110101110000
1111111001111100
1111111100010100
1111110101100101
1111111110011001
1111111111101110
10001001
10010010
110101
1000110
10000111011
1100110111
11010001011
10010000001
1111111101101000
1111110001011110
1111111010000110
1101011011
1000111111
11010110
10101111
1111111101111111
1111111111111100
111110000
1111111000110000
1111110111000100
1111111111000110
1010100
1111110111100111
1111110100000100
1111111001011100
1111111100100010
1111110110100111
1111111011111011
1111111010000011
1111110110101001
10000101
10110100
1111000
1111111111000001
1111111001110010
1111110011100111
1001111100
1000000000
11111000
100110110
1111101111100111
1111111111001110
1010101111
1101011100
1111100001
1111111010011100
1111101100001001
1111111001111111
1111111011010111
1111110111111110
110111011
1111110100011110
100010
1001001
1111111101110100
1111110100001110
1111110110100101
1111111101000110
1111111100110100
1111111001001000
1111111101011001
1111111000001000
1111111011110011
1111111101010110
1111111111110000
1011110101
100100101
1111110001011110
11101
1111110001010101
1111111000111010
10000
1111111011011110
1111111011111111
1000001000
11011100
11001110
1111111001010001
1111101100010001
1000100110
1111110011101110
101100001
111011101
101010010
1001001
1001010100
100111110
1111111011110110
1111110111110000
1111111111100000
10001011
1111111001101010
1111111101011000
1111111101011101
1111111101111000
1101000
110101111
1111001010
10110000010
1001001010
101101100
100101010
1111111101000100
1111111010110011
1111111001100111
1111111100111011
1001000111
1011011101
10110
1101110011
1111110101010000
1111111001000011
1111111110111010
1111111110011100
111100100
100010100
1000101100
111011100
1010101111
1000101011
10101011
1111111011111011
1111111101100101
1111110111001111
1111110110011001
1111110110110001
1111111110010100
1111111101011101
101011011
100000101
1010111110
10010101111
10000011111
1101001001
10
1111111010010111
101
1010100000
1110101001
110010001
110100110
110010000
10010011100
1011111111
1111111101101101
1000110001
10010011100
1000110100
100100001
1111111011111101
1111111010110000
100000011
1111111010100010
1111111111000010
110011110
1111111111101000
1111110111010010
1111110110001000
1111111001000100
1111111100001101
1000101111
1111111111111001
1111110111101000
111110010
10101101001
111001101
110100111
11111110
10010
1111111111011001
1111111010010100
1111110101010110
1010001
111001111
1111110100000001
1111110110010110
1100001000
111100010
1010101000
1001001001
1111111001011011
11100000
11010
1010
1111111111101010
1001111101
10011111
101101100
1111111110001101
1111110111111110
1111111000100001
1111111011001001
1111111010001100
1111110011011100
1111110110111001
1000101011
1111111011001001
111111
1111110011100101
1111111110001100
1111111101111011
1111110101101010
10100111100
111001111
1111101100101100
11101110
101110111
1111111111011000
10000101111
100101000
1111110001101000
100000111
1111111111111101
1111110110001000
1111111000011000
1111111011010110
1001010
100011100
1111100100
1010111100
1001000000
1111110111001101
1111111000100001
1111111110011110
1111111101001000
1111111010100000
1111111100110101
1111111110011101
1111111100000100
111001100
1111110101011111
1111111111001111
1111111001000000
1111111100111010
10000100100
1011110010
1100000001
1010111100
1111111110110111
10000000001
110010
100001011
1111111101010110
1111111
1010101011
1001101
101010
10000100
110000110
111100101
1000100001
111111001
1110101101
1111110110111000
1111111001100010
1111111001001011
10000110
111111110
11010000
1111111110111001
11100011
1111111011110111
1111110000000000
11000010
1001
1111110110100010
1111111100101001
1100000
1111111000111000
10100
1111110110100000
1111111110001010
10001010
1101011110
1001010101
1111110111000001
10101111
1111101
1111110111100010
101010101
1000111111
100110101
101001
1111111110010100
1001011000
1111111001111011
1111111000101001
1111110100011011
1111111000101010
1111111101100100
1111111001010101
1111111100111001
11011001
11110011
1111111010100101
1111100110001110
1111111010001010
10110100101
1001111110
1111111000010100
1111101001011010
1111101111011000
110010101
1111111110101011
110111001
1111111101001110
1111110100001101
1111111101000101
110000110
1110011
1111111001110100
1001011000
101001010
1000100
1111111011100110
10010000
1001001101
1111111011100100
1111111110101001
1111111100000011
1111110110100000
1111111100110100
101101
1111111011010100
1111110111000101
100100111
1111110111111000
1111110101000100
1111110111001110
1111111110101101
1000010000
111100110
11011100
100000011
1111110000001010
1111101101100010
1111101101011001
1111101111010001
1111111101011001
1111101
1111111101000001
1111110111100101
1100011101
1111000001
1111110011011100
11001010
1110101
1111111101000011
11100111
1111111100100101
1111111110010101
11000010
10110000
111110
10000001
1111111101001011
1111110101000110
1111111100110011
100111010
1111111101110100
10100100
110000000
1111111011111101
1110100111
11010100010
1101010001
1111111011000101
1111101011111101
1111100011111100
1111100110101011
1111101001010011
1111100110110011
1111110111111000
1111111011001101
1000001100
1001001000
1010011001
1000000000
1111110110111110
1111111011111000
101010000
101101010
100001
1101010
1010011011
10011000
111010110
11101000
1111110111001001
1111111111101011
100110110
1010111110
1010111011
1011111110
100111110
1111100011
1000101001
1001001010
1111111010000110
1111110101100110
1111100110111110
1111101100011011
1111110010010010
1111101101011101
1111101100101000
1111110101100110
1111110101000111
1111111001000100
10001011001
1111111001111001
1111110001011000
1111110110011111
10111111
1110000
1111111111101110
11110101
100110001
1111111000010010
1111111001010000
1111000000
1000101
1111101001001011
1111111110110011
1101010
11001011
1111111111111011
10100011110
101000011001
10000111110
1111110111011110
1111100010110100
1111110100001010
1111011101010100
1111011101001011
1111100001100110
1111101100011000
1111110110101011
1111111000000010
1111110010101001
1111110000110111
10000100
1111110111111010
1111110110010101
1111111101001010
1111111110111101
1111110011100100
100011011
101100
101111101
1111110100000011
1111110011001000
100110001
110001101
1100100110
1110001011
1100110001
10001110
111101
1111111101
101011010111
101110011111
1111110101011011
1111100001000111
1111100011000111
1111110000010111
1111110001010001
1111110100011100
1111100011110011
1111101011100110
1111110011101011
1111111100101000
1111101110100100
1111101110000010
1111111110000110
1111111001000001
1111110010111110
1111110100011011
1111110111001110
1010100001
1101001
100111101
1111111011111111
1111111001111010
10101011
1011001101
11000101100
10010011011
10100011101
101011101
1111111111000000
10000010001
101100000100
101111111100
1111110110100100
1111010101000001
1111100010100001
1111101101011110
1111110011011011
1111100111111001
1111100110111001
1111101111010101
1111101001010100
1111110001111101
1111100111011011
1111110000111001
1111110100110001
1111111111111001
1111111101111010
1111111011000000
101000100
101010001
10011000
111000001
10111111
1001100000
110100001
1010011100
1111111111010110
100100
1001111010
110001110
1100111101
1111101100
110011101000
111101110001
111001
1111100001111000
1111110001011101
1111101110010110
1111100000010111
1111111001111111
1111110010001101
1111100010001100
1111101100011011
1111101100100000
1111110111011110
101000100
1111110111010011
100001101
11110101
1111111111101011
1000001011
1111111101111101
1111111111101110
1111111110001101
10100110
1110000101
1110001101
1111111011101000
11011110
1111111010111100
1111111001101001
1100100000
1011110101
1010001101
110001101000
1011011111000
1111111111001100
1111011101000101
1111100011011011
1111101001110011
1111101011111100
1111110000000100
1111110011111010
1111111000110100
1111110001101011
1111100000011111
1010010
1111111001100001
1111110001011010
1111110100001100
1111110111001111
10000000
1001001101
1111111110111110
11100100
110000111
100000110
101011011
10001001110
10000010100
1100000000
1111111110000101
100010111000
10110010100
100001101
100100101101
1000000100000
1011101110100
1111110110110001
1111010101000010
1111100110000111
1111101111100011
1111110110011101
1111110011010011
1111110111000010
11110101
1111011010110110
1111011101101001
1111101100011100
1111101101010110
1111111001100110
1111110000111110
100101011
11110110
1000100000
1111111110010110
11001011
1100001111
10011000110
1100011010
11111101
1000010110
1000111101
1111111101010011
10100111111
1100000000
1111111100001110
11001111011
1010101010011
1100111001100
1111101111110001
1110111110100011
1111100111111100
10000101
11010001
1111100101001000
1111110110010110
10110010
1111101111110000
1111101010111110
1111101111100010
1111101000011110
1111101100101101
1111111100101101
110011111
101000111
111111010
1000110
1111111110111011
1001011101
1001111010
10001011000
1010111011
100101011
111010010
111000110
11110001101
11000111001
111000011011
101011111001
111101010011
1000100010000
1111101101110101
1111010111111001
1111110010100000
1111101000100101
1111101110110111
1111011011000010
1111110101010111
1111101010010011
1111111111100111
1111110000011010
1111100110000001
1111101010000000
1111101011100110
1111110101000111
1100110
1001101101
101100101
1111111010110001
1111111001001111
110001100
10001011101
10101000101
1101100010
10000100101
1010010010
11010111010
101000100100
100101111010
110010001110
100001011101
111100100010
1000100101110
1111111000000111
1111011101011101
1111110000000001
1111101110110000
1111110011000011
1111101100000101
1111101001010011
1111011011010101
1111110001001100
1111100110000000
1111100110100111
1111110010010000
1111101110001001
1111110110111111
100111100
101011010
111010
1111111101011001
1111111001111000
1111111111110010
1100111101
10001110001
10110001101
11000100000
100100110011
100001111011
10011111100
11100010010
10100011100
10000101101
11001010111
10101010101
1110110111
1111101110001000
1111101101011101
1111101100100110
1111100100101000
1111010010000110
1111101001011110
1111110001001000
1111101101000101
1111110000100110
1111101001010111
1111101100010111
1111101011011101
1111111011100011
1000000101
1111111110001001
1111111010101010
1111111111110100
1111111110000101
1000011
110100000
1101111001
10001100111
10010011001
100000110001
100111000111
11001110001
10100110001
100010011011
11010101111
1100110110
1111111110001111
1111111101010111
11100011
11100011011
1100101
1111110110111010
1111101001011010
1111101111011001
1111101011100110
1111111011110111
1111111100110110
1111110100111011
1111101101011111
1111110001110101
1111111001001100
1111111011100101
1111111000000100
1111111001010000
1111111110111110
1111111101011001
1110101
101010
1100001010
1101111110
1111101111
10100000011
1111001100
10010111
1111111111111000
110
10010101011
11001010010
1111111111100100
11010010
10001011011
100010011000
1110100011
1111110100011100
1111110100111110
1111111011011100
1111111001010110
1111111011101011
1111111010011001
1111101001100011
1111101001010110
1111110100101101
1111111001100001
1111111100000101
1111111011011110
1111111010110111
1111111100101101
1111111100111000
1101001
11011100
101100000
1011101011
1010011100
1111100010
1001110101
1111111101100000
10010110110
1111000000
111111111
1111111100000100
1111111000000010
1111110110000000
1000110001
11101
1111111111110001
101111101
1111111110110001
1111110110001000
11001110
1100100
1111110000000111
1111101010011010
1111101110101010
1111110111011110
1111111010011111
101
1111111111001011
1111110111100101
1111111100010010
1111111100101011
1111111100101001
1111111001111000
1111111101100101
1111111000011110
1111111101101011
100001110
1010010101
1101010011
10001100000
11001001011
10110101000
101001011
1111111110000000
111011001
1101110111
11011
1111111111110011
1100101101
1111111111001001
1111101111010011
1111110110111100
1111111000011101
1111110111100110
1111110100000000
1111110100100110
1111111010110110
1111111100011000
1111111100011001
1111111011010100
1111111001101001
1111111100110001
1111111100001001
1111111100101000
1111111011000101
1111110110011101
1111110011101011
1111111101000011
11110000
1100101010
1011110000
1110000101
1011001001
100000101
110001010
1000100000
110110111
1111111111111001
1111111100111101
1111110111100101
1111111100000010
1111111000000011
1111101101111111
1111101110010011
1111110011100010
1111111011111100
1111111001110110
1111111001011001
1111111010010001
1111111110011000
1111111110110001
1111111101111011
1111111010111011
1111111101101101
1111111110101001
1111111110111101
1111111100111000
1111111111000110
1111111100000110
1111111110110110
11010000
110010001
1000111011
1010110011
1100110001
100000010
111011
100011100
11001100
1111111110001000
100011101
100101101
10110011
1111111110010110
1111111001101001
1111110111100101
1111110111011101
1111110110100011
1111111000100110
1111111011001101
1111111010100110
1111111111110101
100
1111111100001111
1111110111010000
