1111111111011110
1010011
1010111110
1010101101
10001010100
1111100001
1111010101
1110011101
101110000
1010000
1111111010001001
1010010100
101111101
1111111111110111
100110110
110011000
101111100
101001100
1111111100111000
1111101111110111
1111110111000010
1111110100011100
1111111000011001
11001111
111010
1111111111010011
10110000
11101110
100000011
1111111111010111
1111111111001100
1101011
1100100
101000000
1011101001
1011101011
1110011011
1011001010
10010100010
1011010111
1000011110
111100101
1111110110100001
110110110
1001011011
1111111110101011
1111111111000110
10001011
1111110010010101
1111110010001000
1111101110000101
1111111000101101
1111111011110001
1111110111100000
1111111101110100
1111111111100110
1111111110001100
1111111101111100
1111111100011001
1111111100000010
1111111110001101
1111111100111110
1111111011000010
11111100
1111111010011111
10010110
1101110011
1111010111
10001111000
10111001001
1101100011
101000100
1011110010
1000010001
1111110100110111
1111110010110101
1111111100010010
1111111011100001
1111101010111000
1111101110010001
1111101000110011
1111101011111111
1111100101010011
1111110011001110
1111110001101000
1111110001001111
1111110110000001
1111110100110010
1111111000110001
10101001
100001
1111111100000101
1111111011011100
111000110
100111000
1000001101
1111111010011000
1100
1101110100
101110100
111001011
10011000100
1000011
10110011
1001110001
10111101011
1111111011101100
1111110110001011
100110011
1111111100101000
1111110001010001
1111100111000111
1111101111111000
1111111010101001
1111110100001110
1111101010100011
1111101011101000
1111100111100000
1111101110011110
1111110111010110
1111111011010010
10000100
1111110111101110
1111111010011000
1101101
110011001
1010100001
101001010
1101100
1111111111101010
101000001
1100
100101000
101011111
1111111101011100
1111111110001101
100111111
10100111000
1111101110111101
100010000
10111010110
1001001101
1111110011000110
110001
1111111011110100
101100111
1110
1111100111110110
1111101101111111
1111110011110011
1111110010111010
1111101010001101
1111101110110010
1111001
101100000
1100100
1111010
101010001
1001010110
1111111100011000
101110000
1000011000
1011011110
110010011
100001110
1111110011110010
111101011
10100010001
111001110
10101110010
1110000001
1111111001000010
10001010101
1111111100110001
1111101100000101
100000010
1111110100110100
1111110011011000
1111101101010110
1111011110110101
1111100110101000
1111111010100100
10001001
1111110101101100
1111100100110000
1111111110100110
101000000
1111110111011000
1111110100111110
101000
100001100
10000110
10111111
1011101010
1100110101
1100010011
1111111110110100
1111110010011010
10011100100
1111111011000011
1111101001000100
1111110100010111
1001001110
1100001011
1111111100110010
1111111101000110
1111101101101000
1110110
1111110100111111
1111110101000100
1111101011100100
1111110111001001
1111101000011111
1111111000011000
1001001010
1100100
1111111100110111
1111101100010100
1111101110110001
1111110100100100
1111110010110001
1111110110101000
1111111111100110
1100001110
11011110
1110111011
1001100011
1111111110010100
1111111000110011
1111111110011000
1111110000110000
1001011
1111111101101000
1111100100100001
101101000
1001000110
1111111111000000
101001110
1111100101110101
1111101100011111
1111111011101111
101010101
1111100011111001
1111100100110000
1111101111001110
110110101
1111101101111101
1111101010100000
1111101101011110
1111111001001011
1111110000101011
1111110110101110
1111111000001111
1111111001010001
1111111101100100
111010001
111010010
111000010
1000010001
100101000
1111111101001010
1000011101
1111111001101000
1110111001
1111111011110011
1111101000111111
1111111010100001
10000101101
1111111101110101
10001100000
1111110011111000
1111111110101111
1010110
1111100110001010
1111100000100011
1111111000010011
1111110111010011
1111111011001110
101101
110000100
1111111010100011
11010011
1111100
11010010
1111111100101010
10010101
10101111
1010110010
100101011
100101000
10001010
10110110
10110
10000100
1111101010111110
1111110010011101
11001
1111110100100001
1101000100
1000111
111011010
1011101001
1111111001001011
1111111001001100
1111111001011000
1111110110000100
1111101110010111
1111110111011010
101111001
100100000
1010011110
100111010
1111111101101011
10101010
1011110110
1111111111101100
1001010110
10000101010
1111110000
1010001110
1111111111000100
1111111110101011
100110110
1111111110110001
1111111110110000
101011011
1111110000101000
1111011101101000
1010111
1111111100011110
11000100100
111000
1011000110
1111111100010001
1110000
1111110010011000
1011000
1111110111011111
1111100010010011
1111110011011110
1111110010010111
1111101011001011
10010111110
10010101001
10101010
1111111111010010
111000110
110010110
1111111111010011
1011111100
1111111111111001
1111111100010000
11111000
1111111100010100
1000010111
10111110110
101000010
101010100
101001101
1111101101001011
110000
1101111
1000001
1111111000101000
10001000
1110001000
1100110010
1111111010011010
1111100001011011
1111101110001010
1111110100100010
110011110
1111111000011010
1111111111010000
1111110101000011
101100010
1111110110101101
1111011110011001
1111110001000101
1111111101101101
1001110000
100001001
1111111011001101
1111111001110101
111100010
1111111001110010
1001111010
10000001111
1111110100111110
1111110001000001
1001011000
1111110000001110
1111110110010110
1111110000111000
11100101
1111111000101100
10100111
10001010000
1100000100
1111111011010001
1111101111100011
1111110010111101
1101010
1111110000100001
110011100
1111111000001000
1111101111011101
1111111011001100
1111111011100011
1111101010011110
1111100111000110
1111110100110000
1010111111
1100110110
10110110
110011
100111101
1111111100110110
1111111110001111
1111110100111000
1111101100000111
1111100101100111
11101000
1111111011000000
1111101001101101
1111100011001011
1000101
1111111001001110
1111111000010001
1111101111101101
111001
1111110111111011
1111101111111000
1000111111
1111111011001100
1111110011001000
1111111111001110
1111101011101101
1111110010000110
1111110001001001
1111110101110111
1111111110011000
10000011000
1111010011
1110101111
1101100111
1011
10001100
110110101
100100000
1111110101000000
1111100110110011
1111100100111011
1111101100111000
1111111100101010
1111110110100000
1111110011111010
1111101101011100
11001001
1111110111001110
1111111110101101
1111111000010100
1111111110001100
1111101000100110
1111111000011111
1111011001
1111110100010010
1111100111101110
1111111100110100
10111111
1111111111110100
1111110101010110
1100000001
1011000111
1111101001
10010010011
1111100011
100101100
1011110
1000111000
10010101
1111111011100101
1111110101011110
1111110110100010
1111111000001100
1111101011001110
1111110000101011
1111110001001001
1111011111010111
1111101111101000
1111110100000010
1111111101110000
101101110
1001100110
1011000101
1011111101
1111111001000010
1111111101111011
1111111001111010
1111101000100010
1111111001100110
1111101011110010
1011110110
10101110011
10101010
100010101
1111110100111000
1111111000
10001001101
1001101000
1010011
1001000111
1111111111000111
10011
1111110111111111
1111110000100000
1111110110001111
1111110011111111
1111011011011101
1111101010001110
1111110101110101
1111011100100110
1111110100111011
1111111100011011
1110100111
1111111101111110
10101001
10001100100
10001000000
111000010
1111111011011111
1111010111110000
1111111001111000
10111100000
1111110010000110
1111111111000001
10100001011
1011100100
1001010110
1111100
110100110
10000100100
10011001
100000110
10011110
1111111010011110
1010011
1111111110100110
1111111000111100
1111111101010111
1111101111010000
1111100101010000
1111110010011111
1111101110010011
1111111100010100
10000110111
10101000111
10000000
10000101011
1110011110
110011000
1001111011
10110000111
1111011010
1111111111001010
1000001011
11010000001
1000000101
10010100011
100111101111
10001001111
1111100100
1110000100
10000111110
100001001
111101001
1011100000
1111101110111101
1111110001001001
1001110
1111110011010101
1111101011001111
1111111001110001
1111111011111100
1111111011011111
1111110011110000
1111110011111101
1111111000101110
1111111011100011
101010010
1111111010111011
1111111101100010
1010011111
1111111110111100
1111111111010011
101000011110
1101000101
1110111111
1100110101
10000111
1111111000111011
1100001110
1111111001100101
1111111111101011
10100101010
1100100100
10011011
1010011101
10111010
1111110010101010
1111110101011010
1111111000000101
1010110101
1111101111100111
1111111101101101
1110110110
100111001
1111101011101110
1111110110011101
1111100100100000
1100100
1111110100111000
10101000110
1110110011
1111100
1111110101101010
1111111011010101
110011010000
10001100010
1111111000110111
1111111101111111
1111110001010110
1111110100101000
1111100011111111
11101111
1111110100110000
1111111110111000
101010000
1000010111
111100000
1111111010101000
1111110001111101
1111110101111010
1111110101100111
110110000
1111111010101010
1111111000100010
11100111
1111101010110000
1111110100001111
1111101110101101
11000010100
1111110100110110
1111101110101000
11000001
1111111101011101
1101100100
10000010000
110101000
11101000101
10110000
1011011011
1111110010101001
1111100110110010
1111110110000001
1111110111001110
11001
1111111001110010
1111110110000110
110100
1001100110
110101001
110110100
1111111111010100
1111110110011000
1111111101101110
111101
1001010
1000001
1111111000011101
1111111001100111
1111110001011110
1100000000
11000000110
1111110011010100
1111110100011000
1111110111110100
101000111
110100101
1001001100
1111011000
11011011111
1111111011101000
1111110100000000
10000010011
1111100000001010
110111
1111111101111000
1111101011101011
1111111101010011
1111110110000100
110000110
11100000
1111111010010111
111110100
111111
1111110111100111
1001011
1110000
1111111110011111
1111110100001010
1111101100101111
1000101
10010010111
10001101101
1111110001100000
1111110001110000
11011100
11010110
10010001000
1111111111100110
11111100
1010101011
100111010110
11000000000
1111110010101110
1111111001010000
1111111010010000
1111100111101011
1111101101011110
1111110110000010
111110
100111110
100011010
1111111110001111
1111111000010100
110101101
110000011
1111110011111110
1111110101110001
1011010101
10011011110
100001
10001010001
1100000111
11010001
100000101
10011111000
1011000101
10011101101
111011100
111000101
10111001001
1111111010011000
1101001100
110101110110
11001000011
1111111000011010
1111110100010000
1111101001110010
1111101010101010
1111100101100111
1111101101000000
10010110
1111111110100010
1111111110001011
1111111110110001
1111110100001010
11100011
1111111110111000
1111111000111010
1111111000110000
10000101010
10000100111
1111111101001101
1101101011
100000011110
1101010010
11010111101
11000001001
1011001000
1000101101
1111111010011110
100011100
1010000101
1001110011
101001101001
101111110010
1010111010
1111110101001110
1111110010100110
1111100010100101
1111111011110010
1111100111000111
1111100111001110
1111111000000000
1111111110100010
11110011
10110100
1111110111001100
1111111111101111
10100010
1111111101011000
1111111001000010
1000100011
1111011010
111010100
11000010001
110010010000
101100110101
11101000000
111100011
1111110100111011
10000000
1111110100101010
1111101110010111
1111111110110011
11010000110
101011000001
111001010100
101001100101
10000010110
1111101010101011
1111100111000111
1111101010011010
1111110000100010
1111101001110010
1111110000010100
1111111011110101
11111001
1111011
1111111001011010
101101100
11100001
1111111101101011
1111110000001110
1111110111100110
1011011111
11000101001
11101111110
100000010011
1110010010
101111010
1001001101
10101111
1111110110110111
1111110001000000
1111100001011111
11100101
100001110111
100011110100
110000010010
111011000100
10101100101
1111111001010110
1111110101001100
1111101100000101
1111110111101111
1111101011100100
1111111001000101
1111111110011100
10011001
1111111110111010
1100
110100101
11100100
1111111110101110
1111111010001001
1111111111010011
1111111111110011
1000111000
11010011100
10111010101
1000111
1111101110010011
1111111001010001
1111111001100110
1111110000001100
1111010011010001
1111101110101001
1000001110
100111100110
101110110110
110110011101
111011010010
1111011001
1111110101010111
1111111110011100
1111100111011011
1111101110000000
1111111111111001
1111111010010111
10010000
101110010
1100111
101110000
100100010
100010111
1000100000
10111000
101101010
1011001010
111000100
11000110001
10001011111
1000010010
100000110
11100
1111100111000000
1111010001001001
1111100010010000
1111110000000100
1111111111011110
11101100111
111110110101
1000111010011
101100110001
10100011101
1111111001011110
1111111111001000
1111110111000100
10010111
1000001
1111111010010011
1111111111001100
11100000
100111000
100101111
1110111
11110
110010101
100101101
10100110
101011010
1011101011
1001110100
1100000110
1000010111
1111111111000001
1111110011110010
1111100100110101
1111011011101101
1111101010111110
1111111110001101
10100111010
101101010110
110100001010
110100010010
101011001010
1111010001
11001
1111111000000000
1111111001100010
1111111000100000
1111110101000100
10000110
1111111111000011
11110000
101011111
11010001
1111111111011111
10000111
101100011
11011101
11111000
10101000
11001000
1111110110111101
1111110010110100
1111101111010100
1111110101110111
1111110000010011
1111101011111011
1111101101101110
1111111101010001
10010110111
100000001010
11111001010
11010111111
11101110000
1101111010
10011111
1111111000110000
1111111010101000
1111111100100100
1111111010110000
1111111101111010
1010011111
1001111101
110110101
110000000
10100101
110010100
100001011
101000100
110111000
110010010
1111111110101110
1111111100000111
1111111110100011
1111111101010011
1111111011111101
1111111111010100
1101101
1111111100010101
1111111001000001
1111111010011111
10100000
1000000010
10100000101
10110110001
1110001100
1011001011
1001010111
1011101
1111111100101110
1111111010111010
10
11000001
1000011001
1011010011
1010010001
1010011101
110101110
