1111111011110001
1111111101110011
1111111101110001
1111111111010000
1111111110111001
1111111110100010
1111111100100000
1111111011000010
1111111000001111
1111111000100000
1111111100001101
0
101011
100001010
1111111110011100
1101001
1011110011
10011010111
1100010011
1101101100
11010100
1111111101100001
1111111011110100
1111110111000010
1111111100100010
100110
1111111101110101
1001000
1111111011101110
1111111011000010
1111111101011011
10011
1111111100001111
1101111
1111111110111001
1111111111100111
11101010
1111111101001010
1111111000111001
1111111100110000
1111111000001100
1111110111010100
1111111100101001
1111111111111101
1111111101101000
1011010011
100011001
10101001
1010111110
10001111100
10001101101
1000010101
1111110001100101
1111110011100110
1010100
1111111110101101
101100100
100110100
101111010
100000100
1111111010101101
1111110111011011
1111111010001010
1111111011100000
1111111000101000
1111111111100110
10000010
10000
11001011
1111011
1111111001100100
1111111100011011
1111111110111101
1110
1111111110110010
1111110010000011
1111110001010111
1111110000110011
1111101101111010
1111111101100101
1111011
1111110111010010
1111110001100100
1111110110110111
1111111000100110
1111111000100110
100011
1000011110
1010001010
110011010
100101011
1111111111010001
1111111101011111
1111111001000001
1111111011000111
1111111111111101
1111111110011110
110010110
100100000
100010100
1100100011
1001101
1111111010110100
1111110010011000
1111110110101110
1111111111100111
1000100100
111110111
1000100000
1101010
1111111000010101
1111111110011101
1111111011100110
1111110011100011
1111111101111001
1111110110101000
1000010010
1100011011
110010111
11000110
1111111111111011
1000001000
1010111000
111000
1111110111110110
1111111000110101
1111111000001101
1111111110000100
1111111110001010
110111111
111010110
111000111
10100
101011001
1111111111111101
1111111110111100
1111111111010010
1111111110101001
1111110111110101
111111100
100010000
1111110011
1101110100
10101010
1111111100011010
1111111011000100
1111111101110011
1111111100000111
1111111001100110
1111110111001011
1111110111101000
101010
1111111001100001
1111110111100010
100100110
101100010
1111111101010010
1111111
1111111100011011
1111111110011010
1111111101011010
110011101
100110100
1111111100010101
10100111
100000110
1111101110111000
101100110
1010101100
1111110110011111
1111101111111100
1111111101011110
1111110000101101
1111110000100010
11101100
111100100
1111100101110011
1111100011101010
1011010
11000011000
1010111000
1111110111101101
1111111011001101
11011001
1100000
1111110111010100
10011110
1101011101
1111111110100110
1111111111010010
1111111101000100
1111111110111000
1111110010000011
1001101
101111001
110111
10010010
1111111110101001
1111111110110011
1010001
101
1111111010111000
1111111110000101
100010111
1111110011110110
1111110111010110
1111111010100100
1111111111101000
1010010010
1111110000000111
11011001010
10101111101
1111111001000110
1000001
1111111011011011
11011101
1111110110010000
1111111011100101
1111110011011011
1111111011111000
1111111111011110
110000
101101110
11010001
1111110011101110
1111111100010000
1111111110011110
11011000
1100000
1111101100100100
1111111010011011
1111110110001111
1111111100100011
1111111010101011
1111111000000010
1111111110110101
1111111100010011
111010100
1111111100010111
1111111000010110
1111111100001011
1111110010110110
101100101
101010111
11010110
1111111101001111
1111111010000010
1111110100100000
1111110100001110
1111110100010001
11110000
1111111101110111
1101001
1111111011001010
1111111111100110
1111110111011111
1111111010101100
1111110101110101
1111111001000101
10011111
1001011110
1000101
1111110000011011
1111110000010111
11011001
1111110100101101
1111101010010000
1111110101001101
1111101111010010
1111111110011100
11110100
1010110111
1111111111000011
1111110101110000
1111100101110101
111010000
11011001
1111101111011011
111110000
1111111000000110
1111110010011111
1111111100011011
11000110001
1111111111111101
1111111110000011
1011100
1010
10010111
1111111001100000
1111111101000111
1111111010001100
1111110000011110
1111111101111011
1010101
1001100101
101010000
100
1111011101
1000011100
1111110000011000
1111101101110001
1111101111000001
1111011010010101
1111110100011110
1111110111110110
10100
1011011
101001001
1111110100110001
1111100100101111
1111111100011010
1111110010101000
1111111000001000
11101
1111111011110111
100000110
1001111011
1100110100
1100011101
10101000
11100001
11001111
1111110101110011
1111101011111010
10010010
10010110
1111111011011011
1111100101101011
1111101111111101
1111111001110001
1111111010100000
1111110110110000
1010011
110010111
1111101100101111
1111110110100000
1101001101
111111011
111001000
1111111110000101
1111110100011000
1111111111111010
1001011101
10000011001
111011111
1011010111
111
1111101111101010
1111110111100001
1110110110
1000001000
1111111011101100
1111111110111011
11
1111111110010000
1111101101101101
1111110110000110
1111000011
1111110110110000
100101000
1111111000001110
1111101110010000
10101100
1111111010111111
1111101011010111
100101
10000100001
1111110010011010
1111101011001000
1111110100000010
1011000
1110100
1111111111111100
1010001010
100010011
11001110
11011011
1000011
1111111100111110
1111101101101111
1111111111101101
1001001
1110110
1111110011011101
1111111100101101
1111110101111110
1111111111000010
1111100101100111
1111101110100100
1111110011010000
1111111010110000
1111111011001011
1111110000010110
1010
1101001
1111110100100110
11111011
1101
1111111010100100
1111110010101010
1111111001110000
1111111100100000
1111100010100001
1111110011010100
1111110110010010
1111111010010110
1111110010011110
10101010
11000000
1000011
1111111010011111
1111111110101011
1111011110
1111111011101001
1111111010101101
1111111000001100
1111111100100110
11001101
101100001
1111110110100001
1111110101011000
1111110110111011
1111110011110100
1111111100001010
100100010
1111111111011111
1111111000010001
1111111011101111
1111111001001010
1111101001100000
1111110011011001
1111111101011001
1111101111100110
1111111100101001
1111110110000010
1111111011111011
110
1111110101100111
1111111101111010
1111111010111000
1111111101010001
1111111101101011
1001100
1111111101010101
100010111
1111110100000001
1111111101110010
11111101
11100010
1100110101
1011011110
1001101100
110001100
1011010101
101001101
100111011
1111111110111110
101011010
10000011001
1111
1111110111110101
1111101011011101
1111110010100001
1111110101101011
1111110001110101
1111100010011101
1111111110100000
1111101100000110
1111111100001001
1111111010011001
10011010100
1111101101011111
1111101011001001
101
1111111100111110
1111111000100011
1001010101
1111110110110010
1111111011011100
1111111101100110
111111110
110001011
1111100001
1010011011
1101010
111100010
1111010010
1111110110010101
101100101
10000000
1111110010110000
1111110001000110
1111110011101010
1111110000101100
10100
1111100110010110
1111101101010111
1111111000001011
1111110100111001
1111011011110010
1111110100001010
1111110011001111
10110101
1111100011111000
1111111000110111
1000011101
1111111010001000
11110110
1110010101
1111111110000000
1111111110000111
100110001
1110100
1111111110110011
111010000
111010100
111011000
1111111001001001
1111111100001011
1111111111101110
1111111111000001
1111111100001001
1111110011101001
1111110111001101
1111101001100100
1111110011010000
1100011
1111110111110111
111110
1111110100111000
1111110110100100
1111101011110001
1111100001110101
1111011101110101
1111010111100011
1111100111100110
1111101011111011
1111111100010101
1001111010
10000001110
1101100110
1111111010001111
1111111111110101
1110110
111000101
1010000
1110100101
1101011
1001010101
1111110100000101
1111101010110111
1111111100001101
1111101110100001
1111111111100001
1111111100101110
1111101010011100
1111110111011101
1111110011110101
1111100010110010
1111100100101010
1111110110101101
1111101110111010
1111101001111101
1111110011010100
1111110100001110
1111100100110001
1111001101101001
1111011101011101
1111110001111111
11110000
110000000
1101001101
10100000001
1111111111001000
100001001
1111111100011101
11001110
11111110
1011001101
101001110
1010010010
1001101000
1111110001011101
1111111000011001
1111011111000000
1111110000010100
1000111
1111101100100001
1111101010100000
1111110111111100
1111101101111000
1111011001101111
1111100110001101
1111101011010111
1111101100010101
1111100010100101
1111010010100000
1111011011010001
1111001111110000
1111100010110110
110111001
10010110010
1001101100
1111110000
1110010010
111101010
11001100
1111111100100010
1111111100011101
101001001
1001111011
1111110110
10010010011
1110011000
10101101000
1111111101100001
1111011111000100
1111100110000110
1111101111011110
1111111101011101
1111010101010001
1111011100100101
1111110001000011
1111101010100100
1111101010101010
1111011011010001
1111011111010101
1111011011110001
1111010010011011
1111011100100010
1111110100101111
1101001010
11010100100
10001100111
10011101111
100110010
1010111000
1010100011
10110
110101000
1111111101110011
100011
101100010
1001111010
10100000000
11001101
1011110110
1001011001
1111111011111001
1111111111111010
1111101101001011
1111111110010100
1111100001110101
1111100010010101
1000001000
1111101111011001
1111100001010111
1111011101111111
1111100101101100
1111100011001100
1100000
101111001100
110010101110
11011010111
110110100110
11001000001
11111000101
10111110100
10101010010
1111100111
1111111111101111
101110100
1111111110110101
101010011
101011101
10101
1110001010
1111111110001110
1111111100001001
1101010000
10010010001
1110101011
1010010101
1111010100
10001001100
1111101011011001
1111110111111101
1111101111010011
1111100000100110
1111100000011001
1111111110001110
1101110100
11000010111
100100010000
101010001011
100110010100
10001011110
1101011010
11111100111
10001100111
10001110101
110010001
1111111111110010
1111111110101101
1111111010001011
1001
10010101
1111111000100111
1111111011000101
1010010011
1110000100
1111111001001010
1010000101
100101000
1101111001
10100100000
1001100100
100011111
10010011
1111110110110100
10101
1000101
11000001100
11011011110
100111010110
10000110010
1010100100
11011100101
1111111111111111
1011100110
11000100100
111101000
1011010100
1000001
111000
1111111001011111
1111111010001000
1111111001101100
110010
1111111111111100
111010010
1101110
1001010000
10001001001
11010111111
1101111010
1011010001
1000111110
11001010011
10101111101
100001001011
101010110110
100111111110
101111010011
111100100000
101000000100
100000111010
101101011010
11001011001
11001101101
10011100000
10101101011
1100010110
1001001110
111010111
1111111100001110
11110
1111111100001101
1011110
1111111101100011
1111111101100100
1111111111111000
110011111
10000011101
1111111101101110
1101111001
101010001
10001111001
10001001101
1001111111
11100101010
1100101011
10110110110
100011001010
11011101010
10110011010
11100001000
10011101110
10101110110
10000011000
11110011000
10110111100
110110101
11000010
1111111101110001
1001001101
110100110
1111111110100111
1111111101101101
1111111011110000
1111110011011101
1111110111001100
1111110101010100
1111111100101101
10100011
10010110001
101001111
11010
1111111111101010
1111110101000101
1111111011010010
100011011
11110010101
11010110010
101100110101
10001001
11000110101
11111000110
11111001101
100111101010
11111000111
1100011100
1001000001
1110011011
1111001001
1111110101100010
110011
10111010011
10010
1111111011000100
1111111100010101
1111111111010101
1111110101110110
1111110101100101
1111110011110011
1111101111000101
1111111110101011
111111001
1110011110
1111111100101001
1000111001
11011011111
11001111000
1011010101
11001000110
100000111001
10100100110
10110101101
11010111000
1100100100
1100000000
11010110100
1110001011
1101110001
1100110100
11101111011
10101110111
1000011
10001010110
1110110001
1111110101110000
100011000
1111111100011000
101001
1111111000000011
1111111001001101
1111111011011100
1111110101010011
10000100
1010011000
11000
1100001111
111110000
1011001000
10110111011
11000110001
1100111100
1111111110001100
10001111011
1101001011
11001010010
10101011001
10101110000
10001101010
101010000
100100110
1101000111
1100011011
1100111100
1111111101011011
11100100
11100010
1111110110010111
1111111011101000
1111111000001100
1111111000011110
1111110101110011
1111110100111100
1111111100000100
1111111010000101
1111111001111100
1010110101
1100100000
110001100
110101
1111110110100101
1111111101010110
10001001101
1100100001
1111111001011100
1111111110001000
1111111010
1101001010
10100001011
11000101001
10001101001
1111111101101010
1111111001001010
1111110000010001
10011011
10000110101
10001010010
1000010101
1111111111110101
1111110001111110
1111110011001001
1111111001101011
1111110111111000
1111110000110011
1111110110101101
1111110110011111
1111111011100110
1111111001000100
1111111101100001
111111100
1001010110
1111011100
1100000000
1111110100011010
1111111001000111
1010101101
110110101
1111111001110111
100011101
101001000
1100101010
11100001
1111111011111010
11110111
10000100100
1111111110001001
10111001
11010000
1111111011111100
1111110110111111
1111110111111100
1111110011100100
1111111001111001
1111111011000100
1111111100111001
1111110110000011
1111110110011011
1111110110101001
1111111010111111
1111111110101011
1111111010000001
1111111011001011
1111110
1000000111
1100010100
1011110011
1111111011011100
1111110001011010
1111110010110100
1111111111110001
1000000011
1110001000
1010000111
1100000100
111000111
110011101
111010000
1111111001101011
1111101010100111
1111100011111010
1111011111111011
1111110110001010
1111111010001110
1111111010011011
1111111101000111
1111111100110001
1111111010100000
1111111000011100
1111110011100000
1111110110001101
1111110110101000
1111111100001010
1111111111100000
1111111011100100
1111111101110111
1111111111111110
1000101
1111111110001010
1100
1111111110100011
1111111101001100
1111111111110001
1111111101001001
1111111011011111
11001101
10011111
1000111
1111110110111001
1111110100010010
1111110101000001
1111101000001110
1111101001001001
1111101101000001
1111111011100001
1111111100001011
1111111011110101
1111111011111000
1111111010111010
1111111001101010
