1111111010101011
1111111101110101
1111111101100010
1111111110101100
1111111100001110
1111111001110001
1111110110101000
1111111011000111
1111111100011001
1111111100010110
1111111111000110
1111111110001011
1111111101100110
1111111101110010
111010
1111111111100000
1111111111011111
10000
1111111110110000
11111011
10001001
1111110100110011
1111101111001010
1111110011010110
1111111001000011
1111111000101010
1111110110111100
1111111011010100
1111111011010110
1111111101001011
1111111101010101
1111111101010110
1111111100001110
100
100110
1111110
100100
1111111101001001
1111111000011101
110010
11100100
10011101
1100010
101100
101001001
11000011
1111110011110111
1111110101100111
1111110001111100
1111111010001000
1111110101111011
1111110110101101
1111110110110000
1111110111011000
1111111000000101
1111111010001100
1111110100110001
1111111011100111
1111111001000110
1111111010001001
1111110111011000
1111111000010001
1111111000001011
1111111000111010
1111110111011011
1111111011110011
1111111101110010
1111111110111111
1111111101111010
11110111
11010001
1001011101
1001001110
101110011
110001110
1111111110110111
1111111111110111
1111111101001000
11011
101100110
1111100
1111111001011110
1111111001011111
10011000
1111111000110001
1111110100111100
1111110110101010
1111111100011000
1111111011011111
1010010
111101
1111111101100101
1111111010011111
1111111100000101
1111111101001110
1111111101111011
1111111011101110
1111111010110100
1111111111101111
10101100
1111111111110000
1010001
1111111101111001
1010
110011001
1111100
1100101001
1011101010
111111011
1110110
101001000
110101001
1111110111100011
1111111000101000
1111110110110000
111100
1010001111
10110010
1111011
11010111
111010000
10000111
1111111010100001
1111111000110100
1111110101011011
1111111111010010
100000010
1000001
1111101
1111111000111011
1111111100010100
100000110
1101110
1111111110110111
110000001
10011100
1111111111010011
111011110
101010011
1100100100
1000001111
1111111110100011
1111110110100000
1111110100111001
1111111010001101
1000110000
1111111001111101
1111110011100010
1111111111101100
1111100
10111100
1000111100
10001010001
10001111010
1100111111
111111111
1111111110111011
1111111011001001
1111111001100001
1111111010011100
11110
1111111010110100
1111110101111110
11001011
1111111111101011
110100
1010001011
1001101101
1111110010001011
1111111110010101
11111010
100011001
1111111101000000
1111111110011101
1011100111
1111110001100111
1111101100100011
1111110110100100
1111111011110000
111111
1010101010
111111
1111111011111011
1111110001111010
111000
1111101
110001000
1010101000
1111111011100111
1111110101010100
1111111010100001
1111111011011011
1111111011101101
1111111101100010
1111111100000111
1111111111110110
1111111100000110
1000110
1111110111100001
1001100010
1111110110001110
110101001
11011010
1111111111110010
1111111111101101
1111110110101101
1111110101110100
1111100101000100
1100010001
1111110110111100
1111111011011001
1111111000110101
110010111
111100
1111111101110010
110111010
1100100011
10010110
1111111110110101
10010101
1111111001010011
1111111011101000
1111111010110101
11111
1111110101110100
1010111
11100000
1011111011
1001001
111001011
100101001
1111110110010010
1111111101011001
1100100101
1111110011100101
10001100010
110010000
1111111000111110
1111111011000100
11110101
10010110101
1001000
1100110100
1100010001
101010000
111101111
1010011000
1100110
1111111001110100
1111111001101010
100011110
1111111111000011
1111111101010011
1100100
1111111110001101
1111110111011101
1111101000111111
1111110100101100
1111110111100000
1011010100
1110110001
1100001000
10100010001
1111111111101000
1111111000011101
100110101
1111110100001000
1111111011000010
1010000110
1111111011010110
1111110110001011
1111101010001110
1111111000111010
1010110010
1111111100000101
1111110101000111
1111111100011011
1111111111011011
1100100111
110101101
1010011001
1111110011101101
1111101111011011
1111101010110110
1111111101110011
11010100
1111111101110101
1111111000111010
1111100111001101
1111110001001000
1111101111111000
1100010110
10000111110
1010
1010101110
10000000110
1100110111
1111111000111001
1000100011
1111110101100110
101001111
1111101110010001
1111110100010010
1111110110001100
1111111000000000
1111111000001011
1111110111010001
1111110111001101
10000000101
111010110
10111010010
1111100010100010
1000011110
1101110
1111110100101011
1111110110110110
1111111110011101
10000000111
1011000
1111110110000010
1111101101100010
1111110110100110
10001
1000011011
1111111010111101
1111111011110111
11000010
1011101010
100011110
1111111110111001
1111111011010011
1111110110110101
1111111111010001
1111111100010000
1111111010001111
1111110001000000
110001100
1101100110
100011110
1001100
1111110110000110
1111101101001010
11000
1111111000111100
1110110
1111110010101101
1111111011111010
1101100010
1111111111001001
10110010111
1111111100001111
1111110100011111
1111110010100110
1111
1110101000
1000110100
1111111001001011
111000
1101111010
11101101100
1010110000
1111111010011001
101101011
1100010
1111101101011000
1111110001101000
1111101101110111
1111110001000000
1111111010110010
100101000
10010101000
10011111100
1100011010
1111110000100010
10110010101
10101001001
1111111011001101
1111111000101100
1011001011
10100111000
1010111000
1110001000
1111110101001010
1111110000101010
1111110000110100
1111111111011111
1001001010
1001101
1111111001011010
1111111001111000
1101001
1111111011100010
10110001
10001111
1111111101101111
1111111011100101
111001101
1111111011100001
1111111011100110
1001010100
1111111111110010
1111111011000100
1111111111000111
10001
1010011010
1111111011010000
1000101
1111110110000011
1110101100
1010101100
10111
1101001101
1110001110
1000010011
1111111100010011
1111110110110001
1111111000111110
1111111111111100
1110011011
111010100
1111101101001111
10011000
1111111011111011
1111110111011101
1111110100101011
1011110110
111100111
1011110010
111011111
1111110001000110
1111110010001011
1111110011011111
1111111101111010
1111111111110011
11001100
100000011
1111111110100011
1111101110000010
1111110000001001
1111110101000001
1111101111010000
1001100010
100001100
1111110101011000
1111111111111011
10110001
111101101
1111110110110000
1111111011001101
100010101
1101011101
110000110
1111110101111011
1100000010
1111110100110100
11000010
10
10000100011
1001111011
1011010110
1111100010110101
1111101110001000
1111111110010111
1111101101010111
1111111000011110
1111110000100100
1111110100110110
1111110
1111111010101001
1111111001111001
1111111101100110
110100000
1111101101111011
10010100111
111100010
1111101111000010
1111111110100000
10101010
101101100
1111110110001110
1111111111010101
10000100100
10011001000
110001100
1111111101000011
1001101
1111100110001001
111000110
100100010
101011011011
100001111011
111110010
1111100010111100
1111101011011111
10001100
1111111101010000
10110
1111101110010010
1111110101110010
1111101111100100
1111111110000001
1111111110011001
1111110101111111
1111101011000010
1111110110000000
10011000011
1111010
101000000
1100111000
1111111110010011
1000011
1111110111110111
1111111101110000
10010110001
11000001001
1010101011
10100111111
1011001110
101011
1001100110
100101100101
100010111101
11100111011
1111111000001111
1111101100010111
1111100101010000
1111111000011111
1111110110110111
1111111000011111
1111111011111001
100011111
1111110011
1111110001000101
1111110100111100
1111111101011101
1111111001110000
1111110101001011
1111111000110010
1111111100010110
1010011
1111111100001100
1111111010100011
1111111101101011
1111111010000001
100111110
10000001100
11100011011
11010110100
101011100000
111000010111
110011100010
101000010101
111100000111
100011110000
1111110111001111
1111101111111110
1111111101010011
1111101110110111
1111110110111000
110100011
1111111111001101
1100011
110111111
1111111110100000
1111111101101111
1111111110110000
1111110011100101
1111111000110010
1111110111011011
11101110
10010
1111111110110001
1111110100000010
1111110111100101
1111111100101110
1111111001011110
11101011
1100110101
11011100001
101000001011
111000111101
1010101100010
1011000001010
1001000001001
100111010010
11100001001
1111110011101101
1111111001101101
11010100
1111100111100011
1111111010000010
1011010110
1111111100000110
1111111011011010
1000000000
1111111000100101
1101000111
1111111010000110
1111111111110001
1111111000010111
11110
1100111000
1111101100100000
1111110100110101
1111110010111100
1111110101010110
1111111101100011
1111110100101101
1111111101111001
1100011011
11001101101
100010101001
110111001100
1011101001011
1011001000001
1000110110111
110011101110
11001100110
1100111010
1011011000
10101001
1111101000100010
1111110000000011
101111010
1111111101100010
1111111101011111
1111110100111011
1001100011
1111110010001101
1111110001011000
1111111001011000
1101010
1111110011011000
1111101101000001
1111111000110101
100011001
1111111010100101
1111111100010011
101100010
1111111001100100
1111111111101010
1110111110
10011111100
11110101001
101101001000
1000011010101
101101001100
101000111001
100011011110
10100110001
1100110101
1011011011
10001011110
1111110110101110
1111100101001010
1100001011
1111110110111111
1111000
1111110000001010
1111101100110000
1111111000010010
1000010010
1111111010010000
1111111000101111
1111110110110011
11000
1111111110110110
10000001100
1111110100101111
1111111111101000
111001010
1111111101001000
1001011000
1111110011
10110110001
100000010101
100110000001
11001111100
1111111101000000
1111111000000001
111
1111110111100010
10
1111111011110100
1111110101
1000101100
1111111110101110
100001101
100110111
1111101101111010
1111110010110010
1111111100011101
1111110011110110
1111111101110100
1111111100011110
1111010011
1111110101010000
0
1111111011101111
111011011
1111101101000001
1111111100000000
1101011
1111110011101011
1001111110
10000111000
10100011101
11000011010
10110100100
100110011
11101111
1111100110110011
1111110001011100
1111110111101111
1111110100100000
11000101
1011
11011
1111111000100000
1111110010011111
1111111010000100
1111101101001101
11110110
1111110101001110
11111
1111110111011000
1111101111100011
1111101111010110
1111111000001111
1111110011101001
10110
1011110110
1111111010100001
111001111
1111111101110100
1111110001110001
10000111011
10001001000
10100000111
1101110101
1011011
1111
1001100
1111111010101011
110100110
110011111
1111110001001111
1111111100100010
111101110
1111111110011100
1111111110010110
1111111001100101
1111100110110100
1111100010100110
1111110110010101
1111111111001101
1010100
10001010
1111110000111100
1111111000100000
1101
1111100110001001
1111111111001111
1010001110
1111111101000001
11000000
1111111001100111
1111110010010000
10000101010
1111110101
10010000111
1001010000
1110
1111111110101011
1111111010110011
1111111111101010
1111101111001110
1111111000001001
1111111011110011
10111000
1111100101
11010100
11011101
1111111001111000
1111011111010110
1111110011111111
1111110010110000
1111110101101100
100101100
101010011
11100
1001001100
1111111010001111
1111111101101110
111011111
101000
10111110
10101001
1111111010110111
1111110010111000
1011100
101001101
1011101101
1010111101
101010111
11000
100110011
1111110111100101
1111111100011011
1111111010101010
1111110110111111
1111111000101100
1001000100
100010110
10101100
1111101011000101
1111110110000010
1111111000000000
1111110111101000
1111111110001001
1111110101001101
10000010011
1111111000111001
1111110011000110
1101011110
111110010
1111111000111011
1010101
111001000
1111111101100000
1111110110000101
1111110101110101
1111110111001111
1111110110110000
1111111100011111
1111111101001101
1111111111011010
1010101001
10011010000
1111111100010100
1111110111001010
1111111011100001
1111110100011010
1100000000
111110111
1111111001100001
1111101111011101
1111110000101001
1111101101110011
1111101010011111
1111011111010111
1111111111011001
1000110011
1111111110010001
11111000
1111111000000100
1001011001
1111110100
1101
1100000
11101111
0
1111111001011000
1111111011111010
1111110111001010
1111110111011100
1111111011100010
1111111000101011
100110010
1011100111
10010101000
11011000010
1011110111
11011110
1111111111011111
111111001
1111111011000111
1111110011010011
1111111010111101
1111110101011100
1111110011101010
1111100100010000
1111111000000011
1101001001
1111110011110111
1111111010111011
100000011
1111111110111111
1111111001100110
100110111
1111000
1110101
1111111110100100
1111111100001001
1111110100010110
1111110101111100
1111111000010011
1111110101100100
1111111011110010
1111111110110001
1111111111110111
11100011
1111111100010111
1111111010001011
1111111001110001
1111111011110111
1111110110010001
1111110100001001
1111110110000101
1111111000111111
1111111000010001
1111110101110100
1111100101000101
1111100010010000
1111110111100111
10101111
1111110011001111
1111111100101110
1111111110110100
1111110110111100
1111111011110111
100000100
10101010
1110011
1111111101111010
1111111100101010
1111110111010101
1111110110010100
1111111000010100
1111110111001011
1111111000101000
1111111100100000
1111111100011110
1111111110101101
1111111001111111
1111101111101001
1111111001000101
1111111111010000
1111111110010110
1011101
10111100
1111111011101011
1111101100100011
1111101101100001
1111101100011001
1111110000101011
1111110110100001
1111110000011110
1111110001011111
10101001
1011011011
1111111101010111
1111111010110111
110010
1111111101000001
1111111100011111
1111111100001101
1111111100111001
100001
1111111101100001
1111110101110000
1111110011110010
1111110111101011
1111111001111011
111011
1111111100101011
1111111001001111
1111110111111010
1111110100111100
1111111000001110
1111111110001011
1111111100100111
1011110
101110101
1111111010000011
1111110101100000
1111110101001101
1111101101111101
1111110100000001
1111111010101111
1111111100011100
101001110
10000110
1111111100111101
1111110110001000
1111111000100000
1111111101010011
1111111100001001
1111111100011101
1010000
10001110
1111111110001110
1111110110111111
1111111001001010
1111111001111011
1111111011100111
1111111011100000
1111111001001111
1111111011000111
1111111011001100
1111111010110001
1111111010111100
1111110101101111
1111110110110101
1111111001100101
1111111010010001
1111111001101001
1111110110001110
1111110110100110
1111111100100101
1111111011010001
1111111011111010
1111110101000000
1111110110001010
1111111101101010
1111111111011111
1111111011110010
1111110111001100
1111111000111100
1111111110111110
1111111111111011
1111111110111000
1111111100011110
1111111001010000
