1111110101000001
1111110110110000
1111110110101111
1111111011010111
1111111110101111
1111111101011010
11000111
1111111110010111
1111111001010000
1111111000000101
1111110101101110
1111110110100010
1111111000101000
1111111100110101
1111111111001001
100100010
100100110
110101100
100110011
11011011
1111111011010100
1111110000110010
1111101101100101
1111101100101001
1111101101010100
1111110000011110
1111110010000011
1111110100000001
1111110111100010
1111111001111010
1111111100000001
1111111101010111
1111110100010010
1111111000100011
1111111000111010
1111111100010110
1111111100110101
1111110110101011
1111111101100010
1111111010010111
1111111011011101
1111101101110111
1111110011011000
10011100
100101011
1111111100110010
1111110111010100
11101100
1000000010
10010110110
1000111000
1001011110
111000100
1111111111000110
1111110111111100
1111101011001111
1111101010100100
1111110101010010
1111111010011011
1111110110111010
1111111001011010
1111110110011011
1111110011000111
1111110100110110
1111110010101101
1111110000011011
1111111000100010
1111111110000001
1111110110110111
1111110000111101
1111111110101001
1111110100001000
1111111010110001
111101111
100110100
10011000001
10101010101
1100110011
1111110001100011
1111111011000000
10111000
10000011101
101001000
1001111011
110111101
1001110
1110000
1111111110000011
1111110110100110
1111110110111100
1111111101001001
1111111011101111
1111111011000100
100010
1111001
1111111110000111
1111110100101110
1111110110100111
1111111111101011
1111111100110110
1111110100010001
1111110110100011
1000000101
1111111000100010
1111110011100100
100000101
1011000111
1010100110
1111111001101001
1011001101
10101001000
11010111011
1011011110
11000110011
10000111000
1111001010
1100000001
1111111100100100
1111110101000011
1111110110001001
1111111000000110
1111110001101011
1111111001110000
1111111000100100
1111111110011100
10010
1111110
1000001
1111111010100000
1111111010100000
10110111
1001011
1111111111010111
1111110111000001
1000110111
1000011011
1111111100101011
1100101110
1111111101101100
101001011
1111111000100101
10111111110
11101100001
1011110000
1001100110
1011111111
1011100000
1011011101
1111000001
10000010101
1111110100011101
1111101110100011
101000100
1111110111011011
1111111011011101
1100000
11110011
11011010
1111111
1111111110100001
1111111101010010
1111111011000100
1111111100100000
1111111110101111
1111111011011110
1111111110110110
1111111000010000
100110001
1101011011
1111111001011110
1111111111011111
1111111111010100
1111111100101100
110101000
1110100110
100111110
101000100001
100101101000
1101111010
1110110
1101000000
1111000100
1111111110011000
1111110110100110
1111111110011101
1111101010
1001100101
111100011
101100111
1111111111010100
1111111001011111
1111110110001001
1111111011101100
1111111101001100
110110000
1111111100101100
1111111001101100
10110111
1100101
1111111100000010
1111110011111000
10001111
11001111
10101000
10011111101
100101100110
10000101011
1110011101
11111011111
100101100010
10011101000
11110
1111110000001101
11011101
111100101
1111111010101101
1111111101000100
110101110
110101
1111111010110000
101010011
100010000
10110
1011010
1111111111101101
101011
101101
1111111110001100
1111101110001101
1111110010011110
1111111101010011
1000010101
1011000110
1011110111
11000011
1111110000010110
1111111100011111
1110100011
1111011001
11011101101
100100100010
11000100110
1110110
1010001110
1111110100011011
1111111010101000
10001100011
111000101
111101
1111110110001111
1111110011101011
1111111000011110
111010010
1001110100
1111111001011011
1111111010010101
110011100
1111111010101100
1111111010110101
1111111111011111
1111100110110000
1111111100000001
1111111010001110
1111111111101100
11111101
100111011
1111111011110100
1111111000010001
10111001101
11001100111
100111
11110001010
11101101100
1101101001
11101000
101110111
1011101010
1111110110100010
1111111001000011
1111111011000011
1111111110001010
111000110
110011101
10000101
101101010
101001000
1111111110010011
1111100
1111111111111110
1111111011001001
1111111100101101
1111111001100001
1111101101110000
11110010
1111111010111111
1111100111001000
1111111000011010
1111110110011111
1111111010000100
100000100
101100011010
10111010001
1101110
11101010010
11001110011
10011111110
1111110000001110
1111110011101001
1111111001001010
1111111000111101
1111110100111111
1111111011101010
100100010
10001000001
10111111010
110111100
1111111110111111
101010010
11010101
1111111100000100
1111110100011111
1111110100011011
1111111001001110
1111110111011010
1111110100100111
1111111000110001
1111101111110000
1111101010101011
1111111110110011
1111101101001001
1111101101001011
110101100
11100100000
11001011001
10100010000
11011110101
1111100010
1111110010
10010110110
10110000011
1111111101000100
1100100
10100000111
11101101
1000011000
10010001100
1001000
1101101000
1011111
1011011011
10111111
1111111111010100
1111110010110010
1111101101101000
1111110110101100
1111110011111000
1111110100001011
1111100101110001
1111100000010010
1111111001010110
100100
1111101011111011
1111110010010010
1111111101001000
110101100
10011100110
11111011010
101101011101
11101001010
1000100000
10110100110
1111111100100000
100100101100
1111110101011101
1011011001
1100100001
1111111000111100
1010110001
1111111110111011
110111111
10111000
1010011110
1111111011100111
1111111010110011
1111110011111010
1111111001100101
1111110101111000
1111110011110101
1111110011000000
1111110001100011
1111111000101110
1111110110111000
1111110000000001
1111101100011100
1111011001110001
1111101000001001
11000111000
101111110101
100010100101
100010101000
100110010100
10100000011
1111101100101101
1111110011111001
11111
1010100111
1010011
10111101
100001
110011000
1111111011110001
1001011011
1000110011
1101001000
1111111010100010
1111110101101101
1111111110101100
101001110
1111111011100000
1111101100011001
1111110000011111
0
1111101011010100
1111100001001011
1111100010110100
1111101011110110
1110111011111011
1111001101110111
1111100011110010
1010011
10111011011
100111010010
101100101001
101100111010
10111110001
101100000
110001011
1111000
1101000110
111001000
1101000101
1101001010
110101001
1100011011
1111111101101001
1100100001
10110110
1111111011100010
110010001
101000110
10110001
1111110100111110
1111110100110010
1111101110001001
1111101000101011
1111110000100001
1111110101000011
1111110001100101
1111011100001010
1111010110101101
1111100000001010
1111100000010111
1111110111000111
110101000
11011011101
100010110100
100111111111
11101000110
110100
11010011
1011100000
1111111101110101
1111110110101001
10100100010
11011010
1100111010
1010000011
111000001
100001
1111111101000011
10100101
1111111111110101
101011000
1111111010011101
1111110000100001
1111101001111011
1111110001011100
1111110010100111
1111101110001000
1111111011110000
1111111011101011
1111011111100000
1111011101011011
1111101000001101
1101001000
11100110
1111111110100001
11011000011
101011000011
100011011100
100010001101
11010110110
11000011011
10100100111
111000101
10100010010
11001000
101001001
10010001001
1100100111
101001011
1111111110000000
101110
100101101
1111111110111010
10001100
1111110001010010
1111101110010001
1111111001100111
1111110000101000
1111110011001001
110111000
10100100010
1111101101011011
1111111011110101
1111110001001000
1111110100000010
1111110010000001
1111110110100010
1111111100011000
1111111010100011
1111111100111011
100111011010
100000100100
1111111010000110
1111111100000100
10111001110
10101010101
1001000011
1100100101
1011010010
10010110001
1010111010
1111111111101110
1000001
1101
100011000
1111111010011001
1111110110001110
11101110
110010001
100111110
11001110
1111111110000010
1100111010
1111110011000001
1111101010111100
1111011011101101
1111011111010101
1111110111110011
1111110011110000
1111100111111010
1111100000000110
1111100100011111
1111110111001011
11111111110
10111100101
1111101111
11011011011
10101011010
111110011
10111111100
1011101011
1011100100
101100110
10101011
1110101
100110111
1101010110
10110001
1111110011010011
10101100
1111111111100001
1001010101
110001011
1111110010101110
1001010001
11100111
1111101111101110
1111110101011010
101010110
1000100
1111101010100011
1111110110001001
101111101
1111111101110100
1111011011011000
111100000
10101001101
101001
1110000100
1101111101
1111110111010001
1101100001
10000100000
1100110001
1111111111010101
1110010
1111111011000000
101001100
10100000111
10000101110
11110001
1101011101
10001000101
10111001
11111110
1111110100001010
1111111101011101
1110000110
1111111010010110
1111111001111000
1111110011110010
1111110000010100
1111110010101001
100010101
1111101001001111
101001011
1111110111010011
1111110101101100
10100000
1111111110110011
11001111
1111111101111010
1000101010
1111111101001000
10001011001
111110100
1111111010100101
100000
1111111100110111
101111100
1111010001
11111010010
11110010100
100010111100
100001111011
10100110001
11010101
1110100111
11111101
1111110110010011
1111101010011010
1111111001000110
1111111001011011
1111110111111110
1111110100100110
1111110111001100
1111101100101110
1111111101101011
10011000
1111111010000011
11101100
1111111100101101
1111111111000110
1100011111
11010100
1111111000110010
1000110111
1111111000101100
1111111000000111
1001101101
1111111010111011
111110100
10000101000
11110100011
100010111110
100101101000
10111000010
1111000000
10110000100
10110011100
111100110
11100100
1010101001
1101011000
11110010
1111101111000110
1111101100110010
1111110111001000
1111101110010111
1111101101100100
1111111010011001
1111110011010000
1111111001010011
1111110110010011
10110100010
11001010
110010001
1001110101
1001010110
1000
1111111010111100
11010011
1111111010001010
1100010101
1110110010
10101100001
11100011001
1110001101
11100001
1111111000100000
100110111101
11011101110
110101111
1010110101
1111101110010000
1111110100110010
1111110001101101
1111100110101110
1111111110111010
10100111010
1001111100
1111110101111110
1111110000001100
1001000
1111101110011100
1111110011000101
1010110
1111110001111110
1111110111000011
1111111001010001
10010100000
1111111100101000
1111111110011100
10100110
1111111100010010
1001110111
1010011011
111100001
11100001001
1111111111010001
1111111110001000
1001110111
10101000110
11101
1111110011001111
1111110000011111
1111101011111100
1111110100100100
1111111101000100
1111110000011010
110010111
1111111100100111
10101001000
1001000000
1111101111111001
1111110110100001
100110101
100011
1101111101
110010011
1111111011001011
101111000
110000100
1111111000010001
1111111110001000
10001010
1111111010111111
100110111
111101100
110001111
10111011110
1010100111
1111111010110001
11000000111
10010111000
1111111101011001
10110000
1111110111000011
1111101110100111
1111111101100101
1111110010110110
1111100010111100
1111110111111010
1111111101100001
1100011111
1111110010001110
1111101101101011
1111110010010011
1111110100101001
1111101000110011
10000111
1110110100
110011000
1110101111
1000000100
101101011
11101000
1010000
1111111010101010
1001000
110101100
1001001000
111111010
1000010010
1011000111
11100000111
110101011
1111110001101101
1111111101001100
1111110001011011
1111100010011011
1111101011100010
1111111001101101
1111101001111101
1111111001
1000001
1110000100
1111111010111010
1111110110010011
1111100011101011
1111110110011011
1111111111010100
1111111101110011
1111110010001100
1111111111001011
100110100
1111111010001001
1010010010
111000111
100010
1111111110011110
1111111111111111
1000111011
111110000
1111111100111111
1111111010000100
10110010010
111000011
1111100111000110
1111101000001100
1111011101111001
1111010001110011
1111010111100010
1111111010010110
1111101110010011
1111111011100101
10011110010
10110111111
1111111100011010
1111110011100111
11111
1111110000111010
1111100100101101
1001011100
1111111001011110
101001010
100110111
1111111010101110
1111111010010001
110101011
11110000
1000111100
1111111111001011
1111111110001110
11010111
111110
1111111100110110
1111110110011000
1111111111010011
101110010
1111101011010011
1111010101101011
1111010001011001
1111100010111111
1111100111101110
1111110101001001
1111101011011110
11
1011011111
11011011110
1011110000
1111111011001010
10000
1111111011010010
1111101100111110
1111111001010111
1110000
1111111101100011
1111111010000110
1111111110110000
1000100000
100011011
1111111101000100
1111
1111111010011001
1111111010101011
1111111111010111
11001
1111111101110010
1111111000100000
1111110010000100
1111101100000100
1111100110110110
1111010010101101
1111010100111100
1111100111111000
1111100010111001
1111111111111001
1110011101
1111111011111101
111001011
10000100110
1100100011
1111111111111010
1111100001101100
1111101101010011
1111110010010000
1111111101001000
100010001
1111111110100011
1111111000010000
1111111011000011
1111111
101101011
1010100
1111111110000101
1111111100100000
1111111011100101
1111111111110001
1111000
1111111110100001
1111111011001101
1111110110111011
1111110011111011
1111101110011110
1111101101001110
1111100111100011
1111110110001101
1111111111000100
1101010
100010111
1000010100
111111110
1011101110
100001101
10110000
1111110110000111
1111110110110100
10001100
10110101
1111110111010111
1111110010110111
1111110010010101
1111111101110101
10100101
101001100
1111111111000111
1111111101000101
1111111101111011
111110
1111111101011001
1111111110011011
1111111011000011
1111111101000001
1111
1111110011101000
1111110111110111
1111110111101100
1111111111011000
1111111100100101
1111111001111000
1111111110010000
101010001
10010110010
1101110000
10010100
110000110
1001110001
10000001
1111111011111000
1111110111101111
1111110111010011
1111111010101100
1111111010110011
1111111010110111
1111111110001011
11011
1111111111011100
1111111101101101
1111111101000011
100101
101111
10010010
1111111110101001
1111111111001001
1111111101000100
1111111100110000
1111111110110101
1101000
1111111101100000
1111111110011100
1101100
1111101
110111
1111001
111001110
111110011
110101000
101010101
100001011
1111111010100100
1111111101011001
1111111101010111
1111111111001010
1111111010101011
1111111011111101
11010011
101101001
11001100
1011101
111
1111111111111011
