1111111101101111
1111111100110001
1111111100000011
1111111001011100
1111111101101010
1111111001000111
1111111011001100
1111110111110100
1111111011101111
1000011
1111111000011110
1111110000000000
1111101101101110
1111110100010011
1111111001010001
1111111110110101
10010000
10010
1111111000010011
1111111000010110
1111110001011110
1111110101101001
1111110111001010
1111111110011110
1111110111011111
1111111011001101
1111111011011100
1111111011001010
1111110110011000
1111110110001110
1111111000101110
1111111001000011
1111111111110000
11010
1111110111100110
1111111000001000
1000100
1111111010111011
1111111100111101
1111110111110101
111011010
110110001
11110111
100101001
1111111001110000
1111111000101101
100100111
1001100010
100100111
101000
1111110111001100
1111110001010110
1111111000110000
1111110101111100
1111110111010000
1111111011001010
1111111010101011
1111111001101100
1111111100100000
1111111110110001
1111111100001101
1111110101011011
1111111001011000
1111110111000100
1111111110100111
1111111101010111
1111110100010000
1111111111110010
10100110
110001
1111111001100011
1111111101100110
101000001
111001011
1111111010010000
101010
1011010101
10110100011
1011100101
101001000
1111111111100100
1001010000
100011000
10010110011
1111111111100001
1111111000111101
1111111011101001
1111111011101100
10001001
1111111110001111
1111111110110100
1111111110100110
1111111000110011
1111111100111000
1111111101110101
1111111000011101
1100010
1111111101110100
1111110010011001
1111111000010110
1110110
1111000011
1111110110101011
1111110010111101
1111110001101011
1111111010101011
10111000
10000010
1111101111010011
1111111001010100
1011100000
1111111011000011
11000101
1100101
11000100
1111111110011011
10010011
1000100111
10011
1010010011
10010110001
111111000
111101011
10100010
1111111101100110
1111111011000010
1111111111000000
1111111000001101
1000010
10010001
10100101
1111111001111101
1111111111110011
10000110100
111100
1111111100100010
1111110001010111
1111111111101001
10010000101
101101100
1111111010000000
1111111110001100
1101000011
1111111001000110
1111111010000010
1111111100010101
1101111010
1111110110001110
1111111011101110
111000010
1111111011110111
1111110111010000
1111111000000111
100001110
1100011011
1111100101
110000111
1111111011111101
1111111111011011
1111111010010100
1111111101011100
10001100
1000111
11011
1111111001011111
110110010
10
11110011
1100101011
101110000
1000001100
101000111
1111110111100111
1111111101101111
1111110011111011
1111111100110101
1111111110010010
11110100
1010100100
1111111001111111
1111110100111101
1111111000000000
1111111001001011
100011110
1111111100010010
11101100
10001000011
101000010
1111111110111111
1111111101001010
1111111100011011
1111111100001100
1111111110110100
100011011
100010001
1010010001
100100110
1000001101
1111111000011111
101011010
1101011100
100010001
111101001
11100001
1111111111100011
101010111
110100010
10100010
1100100
1000111110
1111111110111101
1111110010111110
10001010
11000000010
101010101
1010001011
1111010101
10100011110
1111001011
10001111100
101010111
1111111000001000
1111111011101111
1111110110011000
1111
1000011010
110110111
10000111110
1110011010
10001001
1111111001010101
11100
1111110111001001
1111111000110101
10110110000
101100000
11011100110
101011001
1111111011111001
1111101110111101
1111111110001100
111010110
1111111011110011
1000001110
1111110110111111
1111111111001011
1011100
1111110110100010
1111111110001111
11010101111
1111101110
10111000001
1100110101
1111111011110110
1111111101101111
1111111100011101
1010111000
1101110000
1101110010
10001100100
10011011001
1111111101110001
110000100
11010011
10111110
10101000100
110110010
1101010011
1111111000010110
1111110010111010
11100101101
1001111110
10001110
1101011000
100001
1010110000
1111111100000010
1111110101000001
1111101111010100
10001110
10010000101
100010010011
10011001101
1100000101
1110010000
1111111111000011
1111111101101100
1111111001111100
10000001
1110000011
11001101000
101100101
1001111101
100010000
10010110101
1010011001
1111111010001101
1100010101
1000001100
1000110000
1111111111101011
100001111
11011110
1111111100001010
1010110001
1111110110011000
1111110010101110
1111110111000101
10010001111
1111111000111010
1100001111
10100010011
10101110011
10101100011
111011011
11100111
10001000001
100010100
1111111100110010
1111111001011011
1111111010101101
1011000100
11011010001
10110111
111011010
11010101
111001101
11101
1110001
11010
1111111111111010
101000100
1010010010
11101010
10010010
1111110110001001
10000011011
1011000011
1111110100011100
10011011
1011011110
1111111100100110
1101001001
10111001101
11000110000
10101101011
1101000
1111110111111000
1111110101001010
1001101011
1111111100011011
1001
100000
11110110
1111011000
1010111001
1111111010000000
1001000000
10010001
1011000101
1100111101
11100100
100010111
11110100011
110000110
1111111101101011
1111111101100000
1101100
1111110101010100
110010
1111111000110101
1000000010
10100101
1111011110
11010100111
1110110001
10111100011
10111110
1111111001010010
1111110010111001
1111100111010000
1111110110111111
1111110101111100
1111111110001011
1111111110011101
1111111111010111
1111111110100100
1101001101
1111111100010111
10000100111
1100011101
1111111110111010
1111010001
100100110
101010101
1111011011
10110000
111010101
10000110110
1010010100
100111100
1111111001011001
110011111
1111011010
1010001010
110000101
100000100110
1001011100
11101110
1111111001101111
1111101000100010
1000111100
1111100111010010
1111101011110101
1111110110100010
1111110101111010
1111111101101001
1011011
110100
101001000
1010110100
1111111101111001
1111111100010111
11010010
1011100111
11010010101
1111111111111000
1111111010100110
1001101001
1111110000001011
11111
1110000101
1111110111010000
1001111
101001
1111110101101101
1111111111010010
1111110011100100
1111111111000011
1111110001100010
1111101111001001
1111100111000100
1111100011010111
1111110111100000
1111100101110110
1111011010110100
1111110010011000
1111111010101100
1111111110001110
1001001111
110000000
1111111111010000
10011111011
1111111100010110
1001001000
1111111011110011
1001111011
111000110
1111111110100011
100100
1001000011
1111101101110001
1010111001
1000100001
1111111010001101
1000110010
11001000
10110001
1111111000100110
1111011100110011
1111010011001101
1111101110101011
1111010111001101
1111010011011011
1111011010001000
1111010101001011
1111011001000111
1111011111110010
1111101101011000
1111111111000111
1111110111011110
1111111111100110
1000011011
1111111000110001
1100000101
1000110000
1111111000
1100100010
101010111
11100011
1010111110
1111110011101110
1101110
1111001100
10000110
111010100
1111110110101000
1110010
1100011101
1111111110100000
11100101
1111111010001110
1111101100011100
1111101001111100
1111010101011001
1111011010011111
1111010000011000
1111001100100110
1111011110000000
1111011101100010
1111101001011010
1111111100010011
1111111011000111
1100110000
101100100
1111111101111001
100101011
1010101011
11001111
10000011000
1111110101010101
1110010010
1001111100
1111111110110010
100000111
101010110
1000110111
1111111110011111
100011001
1101010011
1111111111010011
1111111111111100
1111111010100001
10110011
1111110010110011
1111100011110101
1111100111011011
1111001101110111
1111011011111010
1111101001000100
1111110110000101
1111110011000001
1111100100100000
1111110001110101
101001111
100000110
1111110111010110
1111110101101101
1111111001011110
1111111000000101
1111111000010111
1111111110011110
10100101
1111111101110001
1111110000000001
1111111000111000
1111111100001100
10101100
1001011000
1111111010101000
1111111101011000
110010110
10101011
1100011001
1111110011001101
1111110100001010
1100001101
1111111110111100
10100010111
1111111001001011
1111110111101110
10000001111
10111111110
10011011010
1111111101101001
1111111100001000
1010001110
1111111000000110
1111101000001010
1111111011010111
1111110110101001
1111110110100011
1100111111
1111101010011011
100101101
1111111010000001
1111110011110000
1001111110
1000000101
111111101
101001
111000101
100010110101
1010111000
11100011011
1101111111
11011101101
101100110011
11010111101
11100100101
100100110011
100111000001
10101111011
100110110000
110010010001
101010000010
10010001010
1111111110110110
100010101
1111111010111001
1111101100101000
1111110000011100
1111111001100100
1111110000000111
10111110010
1111111100000111
11001111
1111111011001001
11110010
1111110100011011
1111000
1111110111011111
10011001111
1001001001
1111110111011101
1111110111001000
10010101000
1111101000
10101101101
100000111111
110100001111
110010110011
111011011111
110110011011
111110001101
101100100111
110001011001
110101000010
10101011110
1111111100111000
10011001
1111111111111111
1111110101001101
1111101100100001
1111111001000010
11011010
1111111001100011
1111101000011011
1101010010
10000010
1111111010101001
10010010
1111101111110010
1111111000101010
1111111000101110
101101000
1010011101
111001100
1101011001
11111011100
101100010111
100011101110
100010101100
101101100011
110011100101
1000001001010
1010000001101
111000101110
111010000100
110011011000
11000010000
1111110100001111
1001111110
1111111101000001
1111110101101101
1111111010101100
1111111011110010
1011100111
1001100000
1111111100011010
1111110
1111111010110010
1111110000010010
1100101
111011100
1111111100101001
1111111011000110
1100010
1111111101001011
1111111110011011
10110010010
1110101010
101001100000
101001100001
100001001010
101111110101
1000001000100
1000011101010
110101100000
111101100010
110110001001
101111001110
1111101011
1111110101110111
1110010111
1111111100011110
1111110100111110
1111111000010101
1111111000001000
1111111111111101
1111101101011010
1111110111011110
100001
1111100101101111
10100001
1111110001100110
1111110101101000
1111101101111000
1111011100001101
1111101110000110
111100
1111111101110111
1111111011111110
1111111001110101
1111111100000110
11110110110
10000000101
11100101111
100101111011
111011100101
111010000011
110100110110
110010011100
101011000010
10001001100
1111111001111011
1111111111000001
10000110
1111110100000111
1111101100111110
1111111011000000
10111111
1111110110101111
1111111000110011
1111111110100101
1111101110110011
1111111011101011
1111101100011110
1111100110110011
1101100
1111110111000111
1111101111111101
1111111111010000
1111110111010100
1111100001001110
1111011001100100
1111011100111110
1111111000001100
101011110
10101101111
10101000000
110000010111
100100000010
11010110110
100010011110
11110001011
1010000101
1111111111010011
1111110000100010
1111111100111001
1111110111001000
1100000
10100011010
1111111111110101
1100001111
1111111111111111
1001101001
101111001
111100
1111111000001110
1111111111111100
1111101111110000
1111110010001000
1111110101110110
1000101110
1111101110100001
1111111001010011
1111101110101111
1111001100010010
1111100011000110
1111110101111000
1111111011011011
10100100
100100101
10010010101
10111001010
10100111001
10000011000
1111111001111110
1111110000111011
1111110011001011
1111111101110000
1111110010111001
111111100
1111111010
1111111011101110
1010010101
1111111110001110
1011000010
10111010010
101101111
1111111011010011
1111110001001010
1111110100000100
1111101111010110
1111011011001111
1111110111101000
1111111001000011
1111111000001111
1111100100010010
1111010101111010
1111101010111100
1111011100011101
1111011101011100
1111101111110011
1111110011110110
100011100
1000000011
1111111101001001
11111
1111111010100010
1111101110111011
1111110111110101
1111111101011010
1111110111000011
1111111000011111
1111111010111101
1111111100111011
11001111
1111110111101000
11000100
10000110011
1111111011111010
1111111111010000
1111111101001100
1010100010
1000111111
1111110100000001
1111111000001010
101110010
1111110100111100
1111010100100001
1111010010101010
1111010011110100
1111110001010110
1111110110010000
1111100010000010
1111110111010011
1111111100011001
1111110001001101
1111100110001111
1111110010001101
1111111100000100
1111110100100000
1111111000111010
1111111011001001
1111111011011110
1111100110111111
1111101100111010
1111111101111000
1111111101100100
1111111011110111
1111111001101000
1111111101001100
1111110110101010
10011100
1111111001100010
110101
101011111
1111111101100000
1111101010100011
1111101110011010
1111101101000101
1111011101110101
1111011111111110
1111100111111111
1111101101011100
1111011111000110
1111101000100100
1111110010000111
1111101100101101
1111101011011000
1111100111100110
1111101101111101
1111111111100011
1111110110101000
1111111000111010
1111111111111011
100010100
1111111000010101
1111101111110001
1111111001111111
1000101111
101010100
10101010110
1111111101101110
10001111111
10110010011
1101001
1111111100110010
1111111110101010
1111111000100010
1111101111011011
1111100001101000
1111101011010111
1111101010100010
1111101011110011
1111100111100111
1111100111101111
1111101110010100
1111101111010001
1111101010000111
1111100100100100
1111101001110000
1111110000110010
1111111010000001
1111111100000001
1111111010111111
1111101000101011
1111111011100100
101111100
11001001
1111111110111011
10100111
1111111001
1011110011
111100110
10101011
1011011111
1111111001111101
1111110110000011
1111110011100010
1111100110000110
1111110001011000
1111111101011000
1111101101011100
1111100111110001
1111110101001011
1111110110110101
1111101010110100
1111101101010001
1111110110101010
1111100010110111
1111101110001010
1111110000010011
1111110110100110
1111110101011001
1111111000100100
1111111001010010
1111111101111011
1111111100001011
1111111001000010
1111111010110001
1111111011001010
1111111011011110
1111111100110011
1111111111000010
1111111001110100
1111110010101010
1111110100001101
10100110
1001111011
100001
1111111111011011
111111
1100101101
110000010
1111110010101001
1111101111111011
1111111100111110
1111110010011110
1111110011001101
1111110100101010
1111110001111010
1111111001111010
1111111100010101
1111111100000000
1111110101101010
1111110001101010
1111110100101100
1111111001011010
1111110110110001
1111111011010111
1111111010111001
1111111011010100
1111111001111001
1111110111101000
1111110111111010
1111111001001001
1110110
11001000
1010110
11000100
1001101000
1111111111100110
1111111110001011
10010010
1111111011001101
1111111000011010
1111111001111111
1111110101110001
1111110001000101
1111111001110011
1111111100101011
1111101011001110
1111110011101111
1111111010110001
1111111100100010
1111111011100110
1111111001000111
1111111010000000
1111110111111010
1111111000100010
1111110001101000
