1111110111100100
1111111000101000
1111111100011101
1111111010000000
1111111000101001
1111111001001101
1111110100100100
1111111000000001
1111111001101011
1111111011001101
1111111100011001
1111111111100011
10001100
10010
1111111100101001
1111111101110000
1001010
1111111111110100
110110
100011000
11101000
11010000
1111100
1111111111000111
1010111
1111111101111110
1111111010001101
1111111001010011
1111111011101010
1111111111111110
1111111100000001
1111111011011100
1111110101110100
1111110110011101
1111111101111101
1111111011010000
1111111000101001
1111111101100011
1111110100011001
1111111000100100
1111111001110010
10010
1111111100110010
1111111101101011
1111111110010011
1111111100000110
1111111110101110
1111111111111111
10101000
110100010
100101111
1111111111000000
1111111111111100
1111111111100010
110000
100110110
10001011
1111111110110111
1001011
1100
1111111101110001
1111100
1111111110011011
1111111010101111
1111110011111010
1111110011111010
1111111000100001
1111111000100000
1111110101100000
1111110011011111
1111110101111111
1111111000111001
1110011
11011001
101110001
111011
1111111101011111
1111110010100101
1111110101001011
1111111011000000
10101100
11110111
1001010
1111111101111100
100000010
100111101
1100010001
1011101110
11110110
110111
1111111100101001
1111111110110000
1111111101111010
1111111100010101
1111111111111111
1111111110010101
1111110110011111
1111110100000111
1111111001100111
1111111110011010
11111
1111110110100101
1111111011000011
100011
101101
1011
1111111101110001
1111111111010001
10101010
1111110011011011
1111111000000100
101011110
111000
1111111101101101
1111111111001101
111010110
1111111011011001
1111110000111111
10011101
1111111111010010
1111111100101100
1111111101101010
1011111
1010101
1111111111111000
1111111100011001
1111111101011101
111
1111101111011110
1111111001000001
1111111010110101
11110110
1111111000010110
1111101100011100
1111110110111100
110001010
1111111101000111
1111110100000001
10111001
1100111010
1111111010011000
1111110011010011
1111110010101101
1111110111001000
100001
1111111100111111
1111101110111101
10111010
1111110001011111
1111110000110000
1111110001111010
1111110011001001
1111111001001110
1111111000001111
100110
1111111100110011
1111111101000110
1111111101001110
1111111010101000
10100110
1111110001110011
1111110111001001
1111111001011001
1111111001111100
1111101100111011
1111110101000110
1111111000101111
111110
110101101
1111111001110111
10000010111
11000101
101011110
1010000010
1100010111
100011011
1111111101101011
110101100
100011
1111111100001110
1111110101001011
1111111111000110
1110000
1111111100001100
1111111110001000
1111111000000111
1111111110110000
10011010
11011111
1110101
11
1111111111010000
1111110110100010
1111111000001100
1111110110010110
111011
1111111100010001
110100010
10111001
1111101111110010
1111101010000011
1111111101100110
110000101
1111111010000101
1111111001000100
1111110101000010
1111101110111101
1111101010011001
1000011
1111111110101111
1111111001001011
1111110110110111
1111110110110110
1111111110110101
1111110100101111
1111110101000110
1111111000101110
1111111110111000
1111111111101110
1111111111000110
101101100
1001010101
10000000
1111111101011100
1111111110110000
1111111101110010
1111111100001100
1111111000001010
1111111100111110
1010110
100110000
1111001
1001001011
1110100000
1111110000000100
1111111001011001
1000111110
1111111001111010
110001111
1111110111110000
1100110
1111110100000001
1111110000101010
1111110110111100
1111110000011000
110110110
111011001
1100101
1111111001101000
1111101110011101
1011111
101100
1111111111000010
11010000
10111010
1111110111101000
1111111111000111
101010110
1111111101001001
1111110101100101
1111110010010011
1111111101001111
1111110101000010
1111111010001111
1010000100
110011010
1000101101
1111101110101001
1010000110
1000111010
1001001110
1111110111111101
1111110101010000
11110010
1011110
1111111111111101
1111101110000010
1111110001001111
1100010110
1001100101
101101100
11011100
0
1111110000011100
1111110110011111
110001010
1001
1111111000100101
1111111001000011
100010
100001110
100010
1111111000000010
1111110010101001
1111110101001100
1111101111101001
1111101000100001
1111111100010010
1001110
1111110011011110
1111110010111000
111100
1111110111101111
1111110110011011
1111110000111111
1111100110011010
1111111101101010
1111110111110111
1111110011001110
1111111100111001
1111111010110000
100001111
1111111011111111
1111111000011101
1111111000011000
1111110000000001
1111101100010010
1111111110101001
1111111110011010
1111110101011110
1111111000001110
1111111010001101
1111111001100101
1111111101101100
1111110111001000
1111101011110001
10111101
11110100
1111101100100111
1111111101000001
1111111110101010
1111111001100110
11011010
1111110110101010
1111110100100000
11111000
1111110010101010
1111110010011000
11001110
1111111101110110
1111110010010111
10001011
10001
11011011
1111110101100110
1111110100001011
1111110111001110
1111110000110011
1111101001100101
1111111000111110
11111000
1111110010011110
1111110111010101
1111110001110100
1111110100111110
1111110001110101
1111110101000110
101000000
10010100010
1111110011001101
10
110001011
110110110
101101011
1111101101001010
1111101010101100
1111101111100100
1111101111110110
1111111101010011
1111110011111011
1111111010110100
1000001111
1111111110001100
1111100001101011
1111101011010000
1010100110
10101111
1111110010100100
1111110000111110
1111110011010110
1111110000011001
1111111000000001
100001111
1111110100100110
1111111100101001
1111110001001111
1111110011101111
110100000
1111111110010100
1111101100011101
1111101110000010
1111110010111010
1111111000010010
1111111000000110
1111110101010001
1101111111
10011101
1111111100011110
1111111010000100
1111101111110110
1111101011000110
1111111101100011
1111100110010011
1111111010000101
10001110
101101011
1111111111111101
1110100100
1111111111010111
1111101010111100
1111100011011010
1111110001100101
1111110110100001
1111101101000110
1111111110000001
1111111000011110
111001
1111111100111100
1111111100111101
1111100000
101000110
1111101110111000
100
1111101111
1111111000111110
1111110000010011
1111110101011101
1111110101110101
1111101111010111
1111110000100110
1111111101100101
1111110011111111
1111100011110000
1111011111101011
1111010111110010
1111100100101100
1111110000000011
110001100
1111110110010000
1111110101100111
1111111110111001
1111110000010110
1111110001011000
1111110010100110
1111101111011010
1111110001001111
1111111000110101
1111111011010000
1111111001001000
1111111001001111
11101100
111101000
10000011
1111111100000001
1100001101
10010011100
110010011
1111111111101100
110010
111000100
1111111010001111
1111111011101110
1111101110011000
1111110100111001
1111011111011001
1111011001111010
1111101101101100
1111001110111110
1111001111101101
1111011001101000
1111010000001000
1111011101011111
1111100111110000
1111100001110101
1111101110010000
1111101000101100
1111101100000111
1111101010011101
1111110000000000
1111111000110001
11001011
101000011
10011011
10110100
1111111000100101
110111001
1011100
1101000111
1010010101
1111111001111110
1111111111110101
11110101
1111111111110011
1111111010011000
11001011010
1111111100100000
1111111100100111
1111111000010100
1111101110111010
1111010000110110
1111010110110001
1111001000000001
1110101111001011
1111001010100100
1111001111100100
1111000100000011
1111010011000001
1111011001011101
1111100101111011
1111101100101001
1111110001010000
100000101
1111111101001110
1111111011101110
1010000111
101110000
1111110101111101
1111111110010011
11111001
101010
1111110000001000
1111111100010110
1010010110
1111111010011001
1111101
1111110001101100
11111011110
1111111110101111
1111111001101000
1111111010110011
1111100010110110
1111011101101001
1111011110000001
1111101011001011
1111110000001010
1111101010001011
1111011011001010
1111010111100101
1111100101111101
1111011110111111
1111101100010011
1111101101101000
1111111100001000
110101011
1111110110111010
1111111001001011
1011100000
1111111010100010
1111111011000011
1111110000100000
1111111010001001
1111100011110001
1111111101100010
1111110011110000
110000111
1111011001
1001110011
1111111010011100
101100000
1111111100111110
1010111101
10011110101
1010100111
1000100110
10000111
1100011110
11111010011
1010100001
1000010010
1111111000000110
1000011110
1111110001111110
1111110000010100
1111101111111000
1111111011001101
1111111101010110
1111110010101000
1111111010110111
1001111101
1111110010101011
1111111011001111
111100010
1100000
1111111101001001
11101111
1111111011101100
1111111111000010
1001111001
100100000011
11000010010
1001010101
100011010101
10110011011
11101100111
10111101011
100001010000
11000010000
11001110100
100010100110
10100000000
10001110010
1011100111
11001101010
111001001
1111101101111110
1111111000100111
1111011
1111111111011011
1111111000000000
1111111110001010
1111111110101010
1111111001000101
100010100
1010110000
1111111101100010
1101101
10100100111
1001011111
1001101001
101010000111
100001101
1011101001
10001110010
11000001011
10000001100
1010000100
10011001010
1110010011
100111001000
1110001010
1011000101
10111001010
1000010100
1110001111
1100110011
1111111001010101
1111111111000100
110111101
110001000
1000101100
1111111000011010
111010
1111111100010100
1111111000111100
1001101
1100110
1011000010
1100010
101101111
101111111
1010001100
10111101110
1101010110
11100
1100110001
10000111110
10100111110
1111110
1100110100
10011001110
11000001111
1111111011001001
1110010101
10101001100
1101001
11101100101
11001100001
1111110110
10010000001
1111111101110011
1100010
10010110
1111110111000100
1111111110100011
1111111110010010
1111111001111000
1000110110
1111010110
1111111001010001
1001
1111111000010001
1111111100010101
1101011100
1100111010
11001110011
10001011011
10110001
1000001100
10011101010
10000011000
11111101100
10000101011
10100011001
10011011011
11101000
10011111000
100101110
11101010010
11010100111
10011011010
11100100101
100001100
1000100110
111011000
1111110000001010
1111111000001111
1111111110111100
111001000
111001001
1001101000
1101100
1000001001
1001001001
1111110011001010
111000000
10011111
1111111001011101
111001010
10001110001
11110011110
11010011100
11010000000
11011110011
1110
10000010101
101001010001
111001011
11000010110
10100010001
10000111100
10000110100
1001101101
10110110111
10001010001
1010100001
101110100
1111110011010001
1111110011001010
11000101
1101000010
1111111100001110
110001
10000111100
100101000
1111111111100011
10010011001
10000010011
1111111100101011
10001101
110001000011
1100101110
1110000010
1111001010
11101100111
11011110101
10010110100
10100001100
100010110110
10101110000
10011100110
10101110000
10110001101
10110100001
101110111
10000010001
1101010111
11010001
10100011
1111111100101101
11010
111100010
1111110111
1111111010010100
110000000
10011000011
1110100011
101101100
10110111110
100000101001
101001001100
11110000111
101011101100
1110010001
1010001001
1100001
110111110
111111010
10011101100
10011100011
10001101
1110010011
11000000000
1011011000
10100011000
1011101100
110111110
1110001010
100010010
110100101
11000010
1111111100100000
1111111100101011
100001110
1111001100
1111110
101111001
10000001100
10010111011
1100101011
101111000
110101100
1010100110
11100001
1111111101010111
11000
1011101010
10111001000
1001110101
11000010110
11010100101
1000010000
1100000010
10000010111
1101111
111101111
110000110
101011000
1100011000
1101011011
1010011101
111000010
10101011
1111111000110000
1111111001100011
1111111101101110
1110010
1001101111
1010100100
1100010101
1011111100
10010101111
11000100111
10111000011
11001010
10011011000
10000110010
1111111110000110
11000011
10000010111
1110100111
100000010000
100100101100
1101101
10000111
100100001
101010
10100111111
11000000101
10000111010
1111101010
1100101110
1011010110
1111111111011000
1111111001001111
1111110101111010
1111111000100111
1111111000100101
1111111101111010
11011010
1101000111
1111001000
1000011011
1111001000
1010100110
100101100
110010110
11100000111
11000011110
10000001010
1010001101
1101101110
1101100001
1110011100
10010000010
1101111101
1101111110
11111101
10011101
1110001000
1001101100
10000100100
1100010110
100100111
101111011
1111111110101100
1111111101111101
1111110110110100
1111110110110101
1111110111101011
1111111010001011
1111111110000011
111000110
1011010011
111011101
1100011110
1011001101
1110010
1001111011
1110000001
1100000110
10101110100
10010100101
1011000001
11000000111
10000100000
1010100010
1111000001
10011000101
111001001
1111010000
1010101100
101010111
10010101100
1110001010
1111111100001000
1111111000110100
1111111001001001
1111111111000100
1111111100001001
1111110111001111
1111110100011101
1111110111111110
1111111001010000
1111111010111101
1111111111011111
1000101110
1011100111
1001111110
110111001
10100101010
10000000001
10010111110
10101101000
10011000110
11110111
10011001101
10010110100
1111111110010001
1001010
1000111110
101011000
1100101011
1101111101
11010001
1010011110
110011001
1111111001110101
1111111000101111
1111110111000101
1111111010001001
1111111001000100
1111111010001001
1111110100011001
1111111010111101
1111110111101100
1111110111010010
1111111000001100
1111111011101101
11000100
1000110011
111100110
1100011100
1111111111100011
1111111000101111
1111111110000111
1111111001111010
1111110110101010
1111111001011101
1111111100000000
1111110111001001
110111100
110111110
1100111
1111111101000111
1111110010011101
1111110011101101
1111111001101001
1111111010111100
1111111100001000
1111111011011101
1111111001111111
1111111100000000
1111111000111100
1111110110101000
1111110110101001
1111111000011011
1111111011101010
1111111011101000
1111111010000010
1111110100001010
1111110011110101
1111111001001100
1111111010000110
1111111011110100
1111111000100001
1111110111010010
1111111000101011
1111111001110000
1111111011101111
1111110101000010
1111110110110110
1111111100010101
100101
10110010
1111111101100111
1111110000111011
1111110000001101
1111110110100011
1111111110011100
1111111100110001
1111111010011010
1111111011000101
1111111001101010
1111111100111001
