1111111011001110
1111111101111101
1111111011111001
1111111010101100
1111111000010001
1111110111000010
1111110100100101
1111111001011111
1111111100001110
1111111100100101
100100
1111111110001001
1111111010001001
1001111
10111000
1111111111101001
1010000
10100111
111011000
1010100000
110111101
100110110
100101100
1111111110000001
1111111111001010
1111111111001010
1111111110010100
1111111101011011
1111111110001111
1111111110011101
1111111111000111
1100100
1111111101000000
1111111100111010
1111111100010101
1111110110101011
1111110011111001
1111110010111101
1111110001000101
1111110111011010
1111111001011110
1111111110010000
10000001
110101
1111111100111101
1111111011110110
1111111011011110
1111111110000001
10000011
110011010
1001111010
1011001001
111100001
101100111
101001001
1111111100100001
11111
111101
11101100
11010100
1111111100111111
1111111101100100
1111111100100100
10110011
1111111110111001
1111111010101111
1111111100000101
1111110010000101
1111110111001101
1111110001001001
1111110011110000
1111111010010100
1111110011110000
1111110111101101
10101001
100100000
10110011
1111111010010101
1111110011101111
1111101101101101
1111110011011101
1111110100111100
1111111110011010
1111111100100010
1111111110100110
101111101
111001111
1011111010
1000001001
1111111110111010
1111111110100101
1111111101111000
1111111100011111
1111110111101001
1111110111111000
1111111101111100
1111111100000011
1111111100011010
1111110011111001
1111110101001010
1111111111011111
1111111100100101
1111111001000100
1111110101111110
1111111001010001
1111110010011000
1111111011110000
1101001001
11101011
1111110100000010
1111110111011010
1010011
10110110
110010111
1001011000
10010101111
1111000110
11001001
11001000
101101011
1011101111
1010000101
1111110
1111111001001100
1111111101001000
1111111011111001
1111110110111000
1111111100111101
1111111010000111
1010
1111110001111001
1111110101111110
10011101
100000000
1001111100
110011111
111101000
1111110110100010
1111110011101010
1101101
10011100
1111111100010101
1010111
101110011
1010110001
10000001111
1101100011
11011100110
11100101010
1110111000
11011101
111110100
101111101
1001001111
1110010100
10000100
1111110110111001
1111111101001111
1111111101111011
111000
1111110111000100
1111111111110001
1111110111110110
1111111110110001
1001101111
1010101000
1111001000
11111010
1110011
1111111011010100
1111110110000100
1111111010110101
100011111
1111110
1001001100
1111111101011110
1001110010
10110111100
10100011100
10110000010
11010000
111100010
101100
100001000
11011011
1111111010111000
1111111100010100
11011
1111111100001110
1111111000001110
1111111111100100
1011100
1111111011101100
1100000
10100100
1111111100101011
1111111011011001
1011110
100100001
1111111011000001
1111110101011000
1111111001111000
1111111111110110
110011110
1111111101111010
1111111110011111
100011011
1111111100100011
1100000101
11111100011
11110111011
1100100111
1001011100
1111111111101010
1010001100
100001000
1111111101101110
1111110111101111
1111110010001001
1111111000011110
1000011
1111111011001011
111
1111111110101010
1011001
100011
100010000
1111111111001010
100010101
1111111000100111
1000010000
1111111100000111
1111110101001010
1111111000000000
1111110011110110
1111110100110010
1111110000011010
1111101100100000
1111110111011011
10110110010
110000100110
101010101111
110000001
1000000101
10101011001
1111110100000000
111011110
10000111
10010
1100100
1111110100111111
1111101111101100
1111111110011001
1111111110001110
100101011
1111111111011000
1000001000
10111000
1111111000010010
1111110101100101
1111111111011111
1111111110011110
111000
1100000101
10011100101
1111111100111000
1111111101001100
1111111111111010
1100111101
1111101100101101
1111111111110001
100010010101
100011001111
101000010001
1010001111
1111110101010010
101110010
1111100110111011
1111101001111000
10101000
1111101001100000
1111110001101010
1111111010100101
1111110001101001
1111111001111000
1111111010011011
10001000
1111111110111101
1001001101
1111111110100000
110010
1111111011101010
10100001
10111100011
1111111100010100
1111111111000001
1011110100
1110101000
1111111101100011
100100011
101010101
101111111
1111111101011000
11110000010
100111100100
11001000011
1111111001111001
1111111111010010
1011000110
1001100010
11000000
101000010
1111111010111100
1111110011101110
1111111011111111
1111111100001010
1111111100000011
1111111111110100
110001001
11101000
100000001
10010000
1010110010
1110101111
11101
1101010100
1000000011
10001011000
1001000101
1100010001
1111111101010101
1111000001
1111111111010101
1111111110100101
10010100
101010001001
101100011111
100101100100
111110011
1111110011010100
1111101111111110
1111110001111110
1111101001111001
11
1111110101000110
1111110011100110
1111111100010110
1111111001010101
1111111100011011
0
1000001110
10110001
11
1111111111101111
1001011110
1011011011
100010011
1111100100
1010100
1111111010010000
101110000
11110001
1111101111110010
1111111011100000
1111111110111100
1111111110110110
100110111001
1000011000100
1000001000111
100001000110
11111
1111111100011011
1011
1111111000010001
1111101010001110
1111110011001101
1111110000011001
1111101010111111
1111111011100101
1111110100010101
1111111010110101
1111110101000011
101000
1111111101100000
1111111101011001
100100011
1001010011
100010101
1111111110100010
10011010111
1111110101011110
1111110100000100
1111111001011110
1100101101
1101011010
1010111101
101011110
1111111111010010
11001101100
111001111011
100111011011
1111111011001110
1111110100001010
1111110101100111
1111110101010110
1111101110010010
1111110111000110
1111101101010111
1111101100111111
1111110011011101
1111111011110111
1111101111101111
10011110
1111110111101010
1111101110101111
1111110110101010
1111110101001111
1100001
110100110
1000011
1010100011
11010010001
1111111011001010
100100001
1100110001
110111
1010011110
10001000
110001001
110111010
100011000000
111110001001
111001010100
10000110010
1111100110001000
1111011111110100
1111100101000110
1111100010101100
1111101011001000
1111101011011000
1111111111110001
1111110111111111
1111100001000010
1111110011011100
10000101
1111111001011100
1111101110011011
1111101110111110
1111111010111100
1100111
100111010
1001101111
1000100101
110101000
11001110
1111111110101111
110001010
1111111100001011
100000100
1111110111111100
1111111101101001
1000011111
11011101001
101011111011
11000000000
10000101001
1111110111001011
1111100000000011
1111101000001011
1111100110010111
1111110100001001
1111111000001110
1111100100001100
1111110
1111110111010011
1111110010011110
1101010
1111110011001111
1111110011111011
1111101111110111
1101
100001101
100110101
100110011
1111111100101001
101111111
1100001100
1111110110001110
1111111100110000
1111111010111011
1111111100000011
1111111011011001
1010010101
10000000011
10100110110
100110110000
10001000110
1111111000010101
1111110001111111
1111101110010011
1111111110011111
1111101110110101
1111100110111110
1111100010001100
1111111001110100
1111101000100101
1111111001100111
1111100111101111
1111111000100001
1111110000000101
1111111000011011
1111110010000111
110100101
1010010
11001000
111001011
1111111110110011
1111111101000000
10
1111110100111011
1001100111
111011
1111111101111001
1111111000011111
1111110011100101
10100011000
100100111011
11011111011
1110001110
1111111101100000
1111111100010100
1111111000101111
1111101100011000
1111101100111001
1111111010011100
1111100001011010
1111101100110100
10001101
1111100011001010
1111101011101000
1111111001100100
1111101001101101
1111110001000011
1111110011010110
100110000
1111011
11111111
11000100
1111111111111000
1111111100101000
1111110010111101
1001101
1101101001
1111111100101001
101101101
1111101111000111
1111110100011001
110010110
1010001000
10001011010
10011111001
11010101011
101111101
1111110111001010
1111101101001000
1111100100000000
1111101000001100
1111101110000110
1111111100011011
1111111101100000
1111101001011100
1111100100101100
1111111110001110
1111111000101001
1111110000111100
1111101110100000
1110
101111000
1010011001
1011111101
1001110001
1010100
110111100
1001110100
10011000011
1111111000111011
111011100
111000000
1110111001
10101010110
1010011101
11010110111
11000101110
1001010000
100101010
1000101010
1111101000101000
1111101101011000
1111101101101110
1111110100010001
10000100
1111110000010001
1111110101011101
1111101111011010
1111101111101000
1111110010100010
1111101111000110
1111110010010011
11101100
100110110
10011001
1010011010
110100100
1111111001001100
111011110
1111101000
1011100001
1111111010010001
1111111101100001
1100001000
1111111001111110
1010010111
1011001010
1111011001
10110110010
110000001
11101010
1111110110010111
1111101000000000
100010010
1111110111000100
1111110010100111
1111110011101000
1111110001010011
1111101011101000
1111111011111111
1111110011011111
1111111000011001
1111101111001111
1111111000010111
11011
100101111
1101010
1101110100
1011000111
101001011
111011000
10101011000
101111100
1111100110010011
1111111001110011
11001110
101101
1111110111010101
10001100011
11101011
110101010
1111110010110000
1111110111101011
1111111100101100
1010001111
1111110010101010
1111111100000101
1111111111001110
1111111010110100
1010100
1111111101110111
1111111011010011
1111111001000010
1111110100100001
1111101010110100
1111110100011000
1111111000000101
1111111100000100
1111111011000010
101011001
1110000010
1010111110
1011101011
1111010110
111100000
1111111000101111
1111111110101111
1111111011111110
111000100
1110100
1111110011011011
1111111100001010
11001000
10101001111
10001011100
10100100110
111000
1111101010011110
1111110010011001
1111110110100000
1111101101011011
1111110110110101
1001001000
110000100
1111111100111100
1111110010111000
1111110000010111
1111111010011000
1111110101101100
1111111011001100
1111111100101101
101001111
10001010111
10001001011
1010111011
1101110100
111011111
100111101
1101101110
1001111100
1101010000
10110011110
1110001110
11001111110
100000111
110010111
1100110110
1111111111000110
1111111100110011
1011110
111100100
1111100110010001
1111111000000001
1111110011000101
1111110111101011
10011010
1111111100011111
10101001
1111111010101010
1111111111011011
1111111001001111
1111110010111100
11
11101010
1011110100
1010110110
101110000
111011010
1101101011
1000001101
1000010010
10001001
10100101001
1110110101
111001111
1010100100
1111111101000101
1111110111100001
1111110110001001
1111110101001011
11001010
1111110111100011
101110110
1111111010000001
1111111010000011
1111111011110101
1111111000001101
1101111
111000001
1011111000
1111111000000110
101011110
100000
1111111011000111
1111111100110001
101110101
1100110010
1111111111111111
110111
1100000100
1111010011
1001110101
11111011
100110001
1111111110001110
1001000101
111001001
111101100
1111111010100100
101010100
1111111011011010
1111111111110100
1001000
1111101111101000
1111110000100111
1111111111001100
1111110000000010
1111111011100000
1111111010011101
1001100100
111011000
1111111111100101
1111110001110111
11000001
1111111111000000
1111110111100101
1111111100101000
1111110
1101001110
1010000010
1111111110011101
1010100
10010101
1111110101100011
1000001111
1111111010001001
1111111100111000
100010
1110111101
10101111111
1111111110111101
10101000
1111110101011101
1111110101111111
1010111111
1111111100111001
10000001000
1111111001
1011010010
1111111101111011
101
1100101
1111111010110011
1111111001111111
1111101101110110
1111111010001011
1111111000010101
1111111010111000
1111111011010100
10000000
1000111010
110000110
1111111010110100
1111111011111000
1100100010
1110100111
1110001100
1100000000
10000101010
1010001000
1101110110
10101110010
111111010
1010010
1111101010
1111111011011011
1111110110001001
1111110110010010
1000001111
1111101110100010
1111111111100001
1111111000101100
10011100111
111010000
1111111010001101
10000011
1111110110100001
1111110101010000
1111111000110010
1111111000111101
1111111010111000
1111111111010000
1000110010
110001000
1111111111010010
1111111011111001
10100101
10001101011
10100011101
11000101010
1100111010
1111110111010010
110100010
1100011101
1101100011
100001000
1111111100101111
1111110111000111
1111110001110001
1111101100010110
1111101001010001
1111110001010010
1111111111000000
1111110000100110
1111111001110100
1111111011111011
1111111001100011
1111111111101110
1111111001011100
1111110110000000
1111111000110001
1111110111100100
1111110011000101
1111111000011101
1111111110100000
100000110
100000010
1111111111111111
10010011
101100010
1111111110111100
100101101
110011100
10111001
1111111101001000
11010101
1111111010011100
1111101100001111
1111110101110000
1111111111000101
10000000110
10000100111
1001110010
1111111001000100
1111110100100010
1111100100000110
1111101101110001
1111110101001010
1111111011110101
1111111101011001
1111111001001111
1111101101011100
1111111000010111
1111111010010110
1111110111100101
1111110111101111
1111110111111101
1111111011101110
1111111101000011
1111111111100010
100000
1001110
1111111110100101
1011011
1111110111111001
10
1000001101
10010101
1111110111000110
1111111010110110
1101101111
10
1111111110001010
1011011110
100011010
11111010
11111101
1111110111110101
1111111010011001
1111110010011000
1111111000100110
1111111011100001
1111111010001000
1111110100011001
1111111000011100
1111111000111000
1111111001001001
1111111001100110
1111111000010011
1111111001011110
1111111010100001
1110110
1100001001
1100110101
10101110
1111111011111011
1111111011010111
1111111010110000
1111111100101100
1111111100111011
1111111001011000
10100000
100111011
1111110101011100
1111111011001110
1001010001
110100
1111111001110100
1111111010000101
1111110110010000
100101
1111110110100101
1111110110101100
1111111010101011
1111111011010101
1111111010111111
1111111000001001
1111110111110000
1111111000000101
1111110101101111
1111111001000010
1111111001010100
1111111010110011
1111111001110000
1111111011010110
101001100
1111111111111101
1111111101110101
1111111111001100
1111111101100010
1111111111110000
10100011
1111111101110111
1111110110010001
1111110011011101
1111110001010110
1111110100011011
1111111100101111
1111111010111110
1111110101001110
1111111000010110
1111111000001100
1111111010101100
1111111001110001
1111110110110010
1111110111111110
1111110110101001
1111111001010110
