1110110110
1101110010
10010100000
1100100111
10010001101
1111110111
110010011
100000001
1010001000
1110010110
10001010101
10001000100
1111111111101111
1111111001011110
1111111000010111
1111110111011101
1111110000100100
1111101101000100
1111110100100100
1111111001100011
1111111111010000
10000001
1001010
1111111101111101
1101011
110010110
100000000
111101000
1010011011
110110001
111001000
1011100110
1010001101
1101111001
10010000101
1110011000
1010010001
111011111
1111111111111110
100001000
10010101010
10110111011
1011010101
101011
1111100011101011
1111011110111101
1111011011010011
1111011010101000
1111100110111101
1111101111100010
1111110100001011
100000110
1110110
100101101
1000111000
100000010
1111111111011001
11011010
1111111110110001
10010011
101110110
111001000
1000000110
1110010000
1100001110
10101000100
10000010110
1001001111
1000001010
1010110010
10111000
1111111000011110
10110001
111000100
1111101
1111101110011100
1111011101001111
1111000111011011
1111001000011110
1111010010011011
1111011110011100
1111110100010111
1111110111001011
1111110110110100
1111111000001010
1111110100110011
1111110100001000
1111110111101110
1111110111011110
1111111101000010
10011011
11111010
101010101
1101000101
100101101
1011001000
1010001001
1010101111
10100010100
1110001011
1011000
10001100111
1010011010
1001110011
11011000000
10110010110
1111100011
100101111
1111110011011011
1111001101011011
1111001010111011
1111000111011010
1111011010111101
1111111101111011
101001111
1111110100001100
100100101
111011000
1111111100111011
1111111110110101
1111110000011110
1111110110011010
1111111110111011
101010010
111101000
10001011100
10011000100
1000101001
1101011100
11110
110000110
1100000100
110011110
1011001011
111000101
1100111101
1000011000
1111111110100110
1111111111011101
1111011110000011
1111010100111100
1111001011000101
1110110000111110
1111010010010001
1111101010101100
1101001101
1000011011
1110001
100010010
1011010100
1110100100
1111011011
1100101
1100100
1011010011
10111011
10100010
1001000111
1000111110
1111111101001000
10011110001
110011010
1111111101101101
1110011001
10100010010
110111000
110101111
1001011111
10100001
1111111100000011
1111111111001000
1111101001101101
1111000010000110
1110101010001110
1110110110010011
1111110100001001
110100110
1111110110100001
1111110110101101
1001010100
1000101010
1110111101
1111111011010100
1111111100001100
111010101
101101111
10010
1111110000010010
1111111110001010
1111010001
1000000001
110100110
10010110100
11101011
1111110011111011
1110000
1111111010100010
1111110101000001
10100010010
111000110
10000110110
1111111100101000
1001010011
1111101000010100
1110101101111111
1110001011111110
1110111010001110
101110110
111100111
101101001
1000011110
1111111110100011
1111111001001010
1111111100110110
1111111000010000
100000001
1111111110010010
101101010
1111111101001001
110010110
1101110110
1100100100
1001011101
1011010101
111010110
100110100
1111111010111010
1111101101100001
1111101100001011
111000011
111100101
1110110
1111111101111101
10000100111
111101
1111000111110101
1110011100101001
1110100001001101
1111001010001001
100000101
10001010100
10000000001
1101011000
1001001
101000000
1111111000011110
10001100
1000010110
1111111110101011
111001000
1100000110
1011010110
1010001011
1111111000001001
111000000
10001001001
11111010
101111
1000011000
110001011
1000000010
1111111000001011
1101101
101100
11110101
100010001100
1010010010
1110110100110010
1110010011011101
1111001100100001
1111111011100100
11001111110
1111111111101010
1111111011100101
1010011100
1100101001
10110010
1111111110110101
1111111000010101
111000111
11000000111
1111110100001001
1111111010101000
1111110001000100
1111100110011100
1111101110110100
1111110101111110
1010100000
10100001010
101100110
1111111011111010
10010111100
11001000100
1111110110011010
111100011
110000001
10010010101
11001100100
1111101101011011
1110010101111000
1110100101111111
1111011011010111
1111111010010111
11000101
1110000110
10011010010
1101101001
1010001000
1110001
1101111110
1001110001
1111110010110001
10101100010
1110000011
1111110011111010
1111111110001100
1111111100000000
1111111101100011
111100
10001111001
11001011111
1000001111
1111101101000100
111001010
1111111110001100
10000000101
1111110111100111
1111101011001010
10101011011
1110101010
1111101101001001
1110001000100000
1110110010010110
1111100101100100
1111110000001101
1001110101
100011100010
11001010100
1111110111110100
1111110110100101
1111110111011111
1111111001011001
1010110010
1111111010101100
1011011010
11001011
1111110110110110
100111010
1100100111
1111111110000100
1111111000010100
1001110000
1111010100
10100010111
1111111001100110
10101000001
1111111011111011
1100100001
10101101101
10101111010
1111111001000101
1010111000
1111110001110001
1110110111101111
1111010001011010
1111101100001111
1111101001110001
110011111
1001110101
10011001111
1111001010
10000011111
10011111
1111110101001100
1111110010111010
1111110101011010
1111110111010001
1101011
1111111010010110
1111111111011011
1101100
1111110011101101
1111111100110101
1001001110
111001111
1000110110
1001000110
111001001
111000000
110010000
1001110001
1110010100
110111000
11111100
1111110011111001
1110011111010001
1111000010000101
1111110011001111
1111111000101000
10110110000
10110011
111110100
1101010111
1111110110100000
100111000
11011100100
100010111
1111101111001011
10100100101
1111111110010110
1111110110000001
1111111010000011
110001110
10001011
1111111010110011
1101001110
1111111011010000
1111111001101100
1110111110
10010010010
1100010110
1100110001
1001011011
1001000111
10010001011
1111111111110111
1111111100101010
1110100100000011
1110111010011011
1111101111000100
1111111101111010
111101101
1111111010010101
1100100111
10110101
11001101100
1111110100011010
1010000101
1000100110
1111111111001111
1111101011100011
1100110
10000001011
1111111110010000
100110010
100011100
10001010
10001001010
10001000
1011101
110111100
1011101001
111010
10000010011
1100111
101010010
1111101110
1101000011
10111110100
1111000110000101
1111010100011011
1111100100110101
1111111100010001
1111110111110111
110100011
1110001000
11000001010
11101010
1111110100101000
1111111001011011
1100010101
11000010111
1111111010011101
100110001
11101001
1111110110010110
1111110011111000
11010001
110000111
10111011010
101100011
10101010
111011111
1111111111000000
1100111
1110110001
10101010110
1110111
1111111110100111
1110100
1111111111001111
1111011010011011
1111010001001001
1111110101010101
1111111100110000
10111001011
1000100
111110001
1111110011110110
1111111111011010
100011111000
10000110100
10111
1111111010110101
1111101111011000
1111101001011001
1111110001100101
110110111
1111111110100000
1111111011010100
1111111110001101
1101110101
1001001111
1111111101100011
1000101111
1111110100100001
1111111000100001
1111111111111111
1011000111
11000111000
1010100111
10011100010
100010110101
1111111110111010
1111010001100100
1111101000100000
1111111110101001
101001001
1111110100010110
1001000
1111111100011001
1111111100011011
1111111001011000
110010011
1111110011001100
1111110100010111
1001100011
1111101011011011
1111111100100100
1000000111
1111111001000101
1111101111110000
1111111010001010
1001000011
11000001
111010000
110011001
11000011100
110001000
1111100101
1111111100110000
1111111110001110
1111111000011001
1111111010101101
1111010010
1111010011
1111101100100011
1111101111000000
1111110101100010
1111101101101000
1000111
1101000000
10000101101
1101111101
1111111100011100
1100000010
1001100010
10110001
10111101110
10111011
110001111
1111111011010101
1111101110111111
100111001
10000101101
1110101111
1111111110111010
1111111110111111
1111110111101010
10000011001
10010101101
110011100
10000111
1111111010011110
11100011
1111101110011110
10000011110
10010100101
1111110000001101
1111111001011001
1111111110010010
1111111001110010
1111111010100101
1011100111
1111111010010001
10100111
10101000
1011001000
1011010
1111000111
10010011
100101011
1111110101011000
1111111100011011
1111111110100100
111001010
1000101001
111001111
1111111001000110
11001
1111111001001111
111011110
10011010001
1110101010
111011101
10111110010
10010001000
1000011011
100110100101
11010110
10000100011
1111111000001111
1111111010010001
1111111001011011
1111110101100001
1111111110011011
1111111011100000
1111110010101000
1111111001101000
1001101
1111110010101000
110100011
110101110
111011011
101010101
10000100
10001100
1111111100101000
10010001
11101000
1111111010101100
1111110100110110
1111111010001111
111011110
1111111100110000
1111110011010000
10000110010
1111111101101100
11101000
1101110
1111101110000011
1111111011010000
1111111110011111
1111110111001110
1111101000101101
1111110110110101
1111111011101100
10000001101
1111100110100101
1111110001010010
1000011100
1010110001
1111111101111001
10010111101
1111110111010010
1000000101
111011
111001100
1111
11010011
10000100011
111110111
1111111110000100
1110010
110011
100001011
100110110
1111101001110101
10000010110
10011101
10001000
1111110110110000
1010001010
110100101
1111110101
110000011
1111110011111110
1111011110101011
1111110101001011
1111111000101010
1111110101110101
10101110111
1111101111011001
1111111110101111
11010011
1111110100011100
1111111010001010
100101000
1111110101111010
100100000
1111101001111011
110011
10111001111
11001
1111111110001110
10101
11000010
1111111101011110
1111111111110100
1111010000
11110011
1111111000110110
110011
1111111011000011
1001111100
110000110
1111111101011000
1111111011100110
1111111001101011
1111001111
110010100
1111100111011011
100000000
1001000101
1111100100100010
111111101
1010010110
1111110011111111
1000001
1000010110
1111111110000101
1101011
1111101011101101
10000110
1100000011
1111111011011000
1111111100000000
1000001011
1111111101010000
1100101110
1111111100001001
1111111110101011
1010000
1111111011010101
10100001011
11101110101
1101010111
100100111
1000000101
1111110110000110
1111110111010011
1111101111110111
1111111101011100
1111110001101100
101110000
1111111100010110
1111110100111011
10011000101
1111111011110100
1111101000011011
1111111101010001
1111110111010010
111101101
1111111101011111
1111111110000001
1000101011
100000100
1111110101111011
1111111001011010
10000001
1111111100110010
1111111100011001
111010010
1111110110011111
1001001101
1111111000100010
11000101
1111111010111010
1111111100001100
1111110001011011
1111101011011010
1111111000000000
10000111100
100100001
1111111100101000
1111111111110110
1111111100011100
100001001
1111110001001111
1010000001
1111111010010101
10000000101
1111010
1111111010100000
1111110111010010
1111110011110010
1111111101011011
1111111101010001
100000110
1111111010101111
1111111111110000
11010000
1111111111010000
1111111101001101
1011011010
1111110110111100
1000
1111111101010101
1111111100100011
100101110
110010011
10100001110
1001100101
1111111111001110
1111110101100010
1111110001001010
1111110110010101
11111101
1111101101101010
1111101000001101
1111110000110110
101100
1111111001110010
10000001011
101011100
1010110111
111010101
110010100
100010000
1111111001011101
11111101
101101000
1001001
100010001
100010100
10111110
1111111111000111
111001111
1111111110010001
1111110111001011
1101000
10111000
1111111010110111
1111111100001011
1111111010011010
1011110
10000011
1111111011100000
110111
101001011
1111111010101000
1111101100001111
1100001000
1111111110001111
101100111
1010000
1111111000101011
1111110011010100
1111110010101101
1111111011101111
110111
1111111100101101
1100000111
1100110100
11001100
100111010
101001111
1000001101
1000000
1000000010
111110111
111111100
10000010
1111111100000111
1001011011
1111110011010100
1111101110110110
1111111101000110
1111110100100111
1111111011001101
1010001010
1111111110010100
1111111010011100
1001101
1111111010000011
1111101111100110
100110011
1011100101
1111111010100001
10111100
1111111110000101
1111110001000000
1111111111100000
1100101100
10110101100
1011110011
110001001
110001110
1010101111
1100011101
1000011001
1111111100011100
1111111000110011
110010101
10101
101001001
10100111
1111110110001110
1111111101001111
111101001
10011000100
1000000110
110010111
110101011
1001010000
1101011001
1111101100010101
1111100111000010
10001101
1010001001
1010100010
1110000
1111110101111011
1111111001000000
1110111101
1101001011
1011001001
1011000100
111101001
110011101
1010010001
1000110000
1100100110
1100110111
1000000010
1110110
1111110010000101
1000110
1011110011
11001110
1111111100111110
1111111100010111
11
1111111010001010
1111111000100110
1111110110111100
1111111011010011
1111110011010110
1111110001000110
100010100
1011110000
1111111100010111
1001010
1111111100010010
1111111101010001
1000100101
1110100111
1101111111
1110011101
1011001000
1000101101
1001010001
1101101000
1101001101
10000111000
10000101110
1011111111
1001100011
100000010
1010011
110011001
11011011
1111111111000101
10101100
1111111111001110
100011110
1100011
1111111010000001
1111101110101011
1111111000011000
101010100
1001000111
101101000
101110101
10101111
1111111100111000
1101001
1010101010
10011010111
10000011000
1110010100
1001110110
1101100011
1111100001
1110011010
1111011001
10100101110
10001100101
1011001010
110001010
1000110
111111
10010001
11110010
1001000111
110110111
100110011
10101001
11001
1111111010011001
1111111011110001
1111111110110010
11101000
11011
11101010
110101101
100100001
1111111110000010
1110110
1001000011
1110011011
1100101100
1010001000
1011000110
