1010000101
1100000001
1011111101
1010110110
1001001111
1111101000
1000010110
100011101
1000001001
10001101100
11001110001
11001000111
10001100100
10111100001
10100100011
110000110
110100001
1010011010
1010000001
1001011100
11000100
1011110
10111111
1100011
110111001
1111001001
1101100001
1101110101
1110010011
1010010101
1010101001
1011110010
1000001101
1100100110
1111111000
1111101010
1100001000
1011011001
1010111001
1111111100010100
1111111010001100
1000001000
1001001001
11010111
10000001
10100000011
1000111010
1111110010000000
1111101101101100
1111111000011011
11000111
1111111101110100
1111110110001111
1111111001001101
1111111100000010
10000010
10110100
1010011
101111100
1000100000
100101101
1000110100
1100101000
1110101000
1000111111
1101100001
1010101000
11111110
1100000010
1001010010
1111111110111011
1010011110
1111111100000001
1111110000001011
1100111
1111110010011110
1111111001110110
1111110110010001
10010110110
1100101010
1100010
1001000100
1100101011
1111110000101011
1111100100010101
1111101100110001
1111101100111011
1111101110100100
1111110110011100
1111110001111011
1111111011111101
11100010
1000001111
11100101
1111111111101100
11000010
10110100
10011101
1111111100001001
1111111101110101
111001100
1111111111111110
1111110000011111
1101000010
10100
1111101100111100
1111111110110111
1111110010101101
1001010110
110101001
1000000000
11101110
1010110111
100111101
1111111100111000
1111100000001101
1111100000110110
1111110011100100
1111111101101101
1111111000001111
1111101110111100
1111111000101011
11111
1010000011
111111010
111000100
1110111
100010
101101110
100111111
1111111001111000
1111111001111010
1111111110011101
1111111001010111
1111100101101110
101100
1111111110111110
1111110110100101
1011010100
1111110010111101
1011000010
1111101111101000
1111100011101110
1111101010000100
10111010
1111111010101010
1111101010111001
1111011011110010
1111011011111000
1111011110000000
1111110111001100
1011101000
1111110001101100
1111111001000111
100111110
101100110
1111111111100010
1011000110
110110110
1111111110010110
1010000111
111011011
1000001000
1000111010
10110010010
11010011
1111011100101000
1111101100011010
1111101101101010
1111111110100111
1110101100
1100011011
101000100
1111110110101100
1111101100000000
1111110011101011
1000110100
1111101110100000
1111100100111000
1111100100001010
1111001111111110
1111011011100001
1111101101011010
1111110001011100
110111010
1111111100000111
1111110101000001
110000010
11000001
11101100
10001110
10001010
1011101111
1010100110
1110010010
10000011111
1111111110111110
1111110101000100
1111100111011100
1111101101100010
1111101111100111
1111100101000111
1111111100010110
10000100100
1111111111001110
1111110111011000
1000110001
1111111101010001
1111111110110001
1111101000010101
1111101010110011
1111100001100001
1111011011001101
1111100110010001
1111111000000100
1111110011100111
1111101100110110
1111110011101111
1111110011001011
101100010
1011101100
1000111101
1
1111111110000111
110010101
1101100011
10100001010
1111111111101111
1111101110011010
10000
1111111110000010
1111111001111110
1111110011001001
1111101001001100
1111111010111111
1111111101100100
1111110100011101
1111101001011011
1111101001101011
1111101100111010
1111111000001101
1111101001101101
1111110101000001
1111010000001000
1111010000001010
1111101010000011
1111110101000101
1111101110010010
1111100101000011
1111111111100011
1111110110100100
1111111001001111
110000010
11010
101011101
0
1111111111010101
1100011110
10000000100
101100
11101
1111111111000010
1111110100100101
1111111000011010
1111101011000001
1111100111000010
1111110101100000
10001010100
1111110110101000
10111100
1111111011101000
1111110010111010
1111110010110010
1111011110110111
1111101010101011
1110111000101000
1111010110000010
1111011000001010
1111101100001001
10101111
1111111110101001
1000100011
111010101
1111111010110100
1111110100000111
1111110111011011
1000
110110010
111011111
101001011
11000001
1111110110001111
1111110110001001
1000100010
1110110
1111100100010100
1111111101100010
1111100111001011
1111110110001001
110001101
1111100000101111
1111110100111111
1111101110011010
1111100010010011
1111010100100000
1111001101111100
1111100001001011
1111100101110011
1111101101110111
1111110011111000
1111111111100100
1111011000011110
1111110000100000
1111110100011111
1111101111110000
1111111011001101
1111110110101101
1111111111000001
110001011
10011110010
1011101101
1111111011110011
1111110000000011
1111110010010111
1111101011000101
11001000
1011000110
1111110010010110
1111100100100101
1111100001100101
1111111000100000
1111011110111001
1111100011101000
1111101101111101
1111001110101101
1111001011101111
1111010010000011
1111100111000111
1111011010011011
1111100100011010
101001011
1111101011101001
1111110110001000
1111101011001111
1111110111101011
100110101
110011010
1111111000100010
1011101100
1111111
1111111110000001
1010010100
1010100
1111111110011111
1111111010000001
1111111110101101
1111101011010000
1111101100111101
10110110
1111101000101011
1111101101001010
1111100010010010
1111100111001101
1111011011101101
1111101001001110
1111110000100100
1111101100000011
1111100101100111
1111011001011100
1011101110
1111101011000001
10000111010
1111111100011110
101101101
10001000011
1111110010
1100111010
1011001000
101110001
1111101111001110
1010100100
10101
1111111110010010
1000000010
1111111001110100
1111110010111110
1111101111011001
1111100011001010
1111101011101010
1111010101001000
1111101010101110
1111011001100111
1111100010000110
1111011001011100
1111101001111010
1011010110
1111111101001011
11000000
1101
10111100001
10000100
10100101111
11001100000
1111101011010000
1111101111100100
1111111011
1111110100110010
1111111001110011
11100000000
1111111011100111
1011000100
1111111000100010
1011010010
1101110
1111111010010100
10011100
1111101111100100
1111101101011111
1111101011100011
1111110000100110
1111111101000010
1111110111110000
1111110010000010
1111111111110111
1111010
1111100010100000
1111111111111000
1111111001
10000100
1000100000
11010001001
11001011
11000010
1010011010
101111101
100101100
1111111111111000
1011100010
1111111110010110
1111101010001000
1001011010
10011010
1111101110001010
10
10010000110
101101
10000010
101000100
100111
1111111011010101
1111101000011110
1111111011111010
1001101010
100101111
1111110010101010
1010111011
11001011100
1010100100
100000111100
1111111110001000
1111110111100000
10101000011
11101001010
1111101101
11111100110
100000000101
11000111111
110111101
10000101000
111100000
1111110101001001
1101011111
1111111010101101
111010
1100111
1111111101101100
1101011110
110010101
100101010
111001101
111111101
1111111110000000
1111111011100010
1010100001
10001001111
110100011
1111111100011100
111000100
11011011010
1000111000
10110101010
10110000111
100100110100
101111000101
1111101101
10001101010
100000111011
100011011111
100010110010
10011101110
1101011000
11010110011
10011000100
1000001100
1111111011111011
1001101011
1010001001
10110111011
1010111011
1111111000010101
1100000001
1011000111
1010100100
1111111111010111
101100110
1100011111
11001011000
1111111001111110
100
10111110000
100000101101
1010110100
1010010100
101100111110
11000111111
11000010110
10000000110
1100000
101110010
110010
100000010111
11111101
111010100
10110010101
10100100010
11110001011
1111111101111100
100010110
100101001
10110111110
101010011
1111101101011111
111111000
1101010000
1000111001
1001011101
1100000101
10110100101
1011111011
1011011101
100011110100
110110010101
11011001000
11111010
1011101110
11000000011
1000010
1111111001011010
1000011101
100111
1111101001010110
1111111001010000
1101110011
111010010
101001101
111010
1000111000
11011101010
111110111
1000101100
11001110
11011001
1001111000
1000101001
1010000011
11111111
101110011
10001010000
1111010100
10011110000
1101100111
1100000011
101110110111
11111101111
11110010000
11010001010
11000010000
100100011
1111111000100001
1111101000011110
101010110
10001011010
11101110
101100010
11110010101
1010001010
1011010001
1001011101
10000101110
10011111100
1010010
10001000
1111111101011001
1100000110
111010101
1000010010
10100110
1111111111010010
1001001101
11000000110
1001100110
10000111011
11001101011
11100110000
11101111000
11001111
1111101010000101
100111011
1111111110001011
1111111011011010
1111110010000010
1111111011110100
1111111110000101
1111101101011111
1111111000110100
1111111100101100
1111110010101100
100011110100
10001011
1111110001111010
111011110
10111101010
10000100011
10000110111
1111111110010011
100000101
1000111001
11001001
110001001
1101001
1010110
1010111000
10001111110
1110111011
1111100101
100010001010
10100100111
1101001000
1111101011000101
11011100010
1111111010100111
1011
1111110001000100
100110101
1111111101011100
1111111001000001
1111000110
1111110101101111
111011
10011111011
1100001111
101100011
1111100100101101
10111011011
100100001111
1101011110
100111000
1011011111
1111111111100110
1011000000
11010001
1111111101101100
1111111010000110
10110101
10100001010
1101001010
1001010111
1111111101101000
101110110
1111111011101000
111111
1000111101
1100101
1111110001100101
1111111100001000
1111101110100111
1111111111110010
11110110
111100011
1111110011000000
1111100100000001
10110111
1111110100000101
1101101000
1111101000111101
1111101111000010
10001110100
10101010110
1011010111
100101001
1111110111101010
1111110011101011
1111111110111000
1111111001001010
1111110111101010
1111111011011101
1010100100
100111100
101000110
10001001
1111110110001001
1111101100111101
101000001
110101000
1111100101110100
1111100010010101
1111111100000011
1111101111010000
1111100001100110
10001111
1111110101000110
11001110000
11001100
1111111110001010
1111111100100101
1111110001101110
1111111111110001
1011000101
101010110
1011011000
11000100001
11010110001
1111110101110111
1111110011000010
1111111101111001
1111111000000110
1111110111100111
1111111001001100
1110011
1010100010
10110000
1011000
1111101111100010
1111101101110110
10110001
1111101100110100
1111100001001100
1111101110011010
1110111010
100000001
1111101110100100
100001011
1111110001101100
1111111110011001
1001010011
11001000100
1100111101
1111100001111101
110100001
1001110001
1111110101100010
100111011
1000010
1001001001
100001000
110011011
1111111011100101
1111111001000100
100111000
1010
1111110111110000
1111110011001011
1111111010101111
1111111001101101
1111101010101001
1111110001011000
1111101111101011
1111100101001111
1111110001010000
1111111000110100
10010101111
10001000001
1111110011000000
11001
1111111101111100
1111101011000101
101010101
110110001
1111100111000110
1111101010
10100111100
1010001011
1111111100000000
1000010110
11111000
11000011
10010
1111111000000101
1111111001010100
1111111111111111
11110101
1111111110101010
1111110110101001
1111100101110011
1111111000101011
1111111101001000
1111011101110110
1111011011111010
1111101101010011
1111110001101111
1001111110
1111111011101101
1010000011
10110010010
111000010
1010110100
101010010
1111110101111011
1111101101000001
11110001010
1001000101
1111101011101001
11111100
1111111011001110
11100
1010010100
111110001
1011000001
100010101
1111110100101010
1111110011000111
1001000
1111111111111110
100010
1111111001011111
1111101110101001
1111110010110001
1111110111011000
1111101010111111
1111101000111000
1111111110100101
1111110111010101
1100100011
1000001001
1100001101
1000101011
110011100
1111101100101101
1111101011011101
1111101010101001
1111111111100010
1111111001111111
1111111100100001
10110000
10000001100
1111111010100001
1111111111111011
1111111100000000
1010100001
1000011001
1100001110
11101
100000
101001110
1111111101101100
1111111111010100
1111111111001001
1111111000101101
1111110111001010
1111110001010000
1111111000110001
101100100
111101100
10100100
10110001100
10000001110
10011001110
1111111101100000
1111111111011110
101110
1010110
1111100101111011
1111100010000101
1111101100011101
1100001001
1000011111
1100011010
110111
1010101101
10100101010
1111101
1111111000100011
1111110101101001
1001100
11011101
1110011
1111110
1000010
1111111110011010
1111111100000111
1111111000001000
1000001
110101010
1111000001
10101100011
10101100000
10011000
1001010111
101000110110
11000111100
1111101111110000
1000000000
10010101
1111101011111010
1111011010101011
1111110010010101
1011010011
1010100010
1101111001
1010010101
10000100
1111111110110000
1111111011111110
1111111100111111
1111111101000110
100100000
10101
1111111110000011
10001011
10100110
1111111111100011
1111111101011110
100100100
1100001100
1111111111101101
1111111011101011
1001001111
11000111010
1011111011
1001111001
1001110100
100011111
101100010
1111110101101110
1111101100010100
1111100010101000
1111011101000001
1111011110000010
1111110000100100
111110011
1111111111101100
1111110
1111111001110011
1111111110100000
11110111
10110110
10000101
110110101
1000100000
1111111111101011
10000101
11100100
101001001
111111011
1110001000
11101110
1111111111111110
1001111111
1000011111
1001111000
1000011110
1000000000
1010101100
110100001
1111110010110001
1111101111001100
1111111010011001
1111111010111110
1111110000111101
1111101111011011
11001
1101111
10010011
101100001
1111111010011111
1111111010101000
1111111101010010
1111111100111101
101000110
1000110101
1000100100
101101101
100101001
101011010
101101
111001011
1000010011
111001110
110010000
100001110
111101
11110110
1111111111100010
1111111001000010
1111111100101111
1111111101010111
1111110111011001
1111110110000000
1111110110011111
1111101100000010
1111101010000000
1111110100000001
1111111100100110
1111111111011111
1000011011
110111000
1111111110101110
1111111000000011
1111111011011001
1111111011000001
101111
100010101
101110101
11100010
