1111110000111001
110001011010
1000110011
10111100101
1011100110111
10010100001011
1001001000
1111110010010001
1110111000010111
100101
1111100101100010
10101011111
10011010100
1110110000001101
101110001
111001101100
1110111010110111
1000000011000
1101101011011011
1010110011110
1101101011010111
1111111001001100
10000010001
1111000001100101
1110000011110001
1110010110011000
1111101000
1000111101100
1111110111000110
1110000110001010
