1110110010111
1111001011010111
1110110100000000
101111110111
1110111101100101
1110111001000111
1101100100100000
1100111001101111
1011100010100
1101010011010
100110001100
1111101111110000
1111101011111011
1010010111000
1010001110111
100011010101
11011001100
1101111110011110
110001111111
111000101001
1101011010010100
1110101101100011
110111000111
1110001001010100
1110001011010010
111010001101
1110101110100000
11010010
111100101110
10111110100
