111100001010
11111000011
1111100001010011
1111010101011110
100010100000
1101011011011110
1110111001111011
1100101111
1100001011100
1010111001000
1000000110000
1111110001000111
1111001100111110
1110001001010010
1000101001011
1111010000111001
1110011011010110
1111110100001100
1111001000011010
10001100100001
1010011001000
1000100100100
1111100011111010
1111111101101001
1111010011010
110100110
1101001110100100
1111101000011000
100110010001
1110001000011110
