101100000000
1111011011101001
1110110110011111
1110111011001001
1101110100110001
1111011110101011
1111101110001000
1110000011100000
1111110111110100
100011010100
1101111011
1111111011
1111011011000101
1100010100101
1111100000010111
1111100010011111
1100101010011
1110010100011010
110001010011
1111110011000011
11001011101000
1111010001000001
1110100001100011
100100010111
10101011110110
10111111110011
1111111001011011
1101000011101101
1111110000101011
1010111100010
