1111111001010000
1000011100011
1110001000000110
1111110110111001
1101010011111
1111101100
1110101110111010
1101011000100110
111100001000
1010110110101
1111100010110011
110111101111
111100101010
1111110110100111
1110111101110010
11010100110
1111001000001111
100101110101
100100
100001001110
1110110101101101
100010101000
1001011110000
1101011001101111
11011101010
1111100000110001
1111110101110011
11000011101
10001010011010
1101101110101100
