1111111001011101
1011111000111000
1110100010100111
1110111000111001
1011100000111
1011011110111011
1100001011100000
11001000000101
1111010111110
10111000111111
1111011011010101
1101011110011100
1000100101
1101100000000010
10101000011001
1111111011111001
1101010010000000
10100010011100
1110001000001101
1101110110010001
