110011111011
1101000101101100
1100100111011000
1101000100010101
101100111101
1111111101011000
10011011011
1110110111001
1100100011100101
10111010010001
1111110101111111
1111111110010001
1100110111011000
1010010111110
1100100000111101
11111000111000
1110001111101
1110010100001101
1100011011011001
1100101011001010
