1011010010010
1110110000110011
1110100100100100
1100001110100101
1101000010011011
10100101101101
1101101100101100
1110010100100
110010110101
1100001100111010
11001110010
1101011101010000
1100000100100
1101110111011000
1101111100000010
1110100111010000
1100000111001
1111001111101011
1110100100100101
10110101010100
