1111110111110100
1111101010000100
1110111001000101
101111010111
100001101011
10101110111101
1001000001111
1110100001101101
111101100110
1100000001001100
1101110101110001
1110000000000101
1100001000011001
1111001110101011
1110001100101111
1110101101100100
1100011111001100
11000111111000
10110000011100
1101100001111010
